[PAD]
[UNK]
[CLS]
[SEP]
[MASK]
##്
##ം

##ും
##ു
##യും
ഒരു
സ്
##യുടെ
എസ്
ഈ
##ിൽ
##െ
ക്ക്
##ത്
തിരുവനന്തപുരം
പി
റെ
എ
സി
##ര്
##ി
##ന്
കെ
##ൻ
##വും
എം
##യ
##ക്ക്
##ില്
എന്ന
##ാ
##യിൽ
##യില്
ആ
##ർ
##ൽ
##സ്
##യെ
##ിന്
##ിന്റെ
വി
##ാണ്
സര്
നിന്ന്
നിര്
##ോ
നല്
##ത്തിന്
പുതിയ
വര്
ഐ
##ത
##ാൻ
കോട്
കൊച്ചി
നടത്തി
ഇന്ന്
തന്നെ
കാസര്
ന്
ടി
##ത്തിൽ
ചെയ്തു
##ത്തിന്റെ
ഇ
##മ
##ത്തില്
##മായ
##ുന്ന
##യാണ്
##മായി
##ായി
നിന്നും
##ുള്ള
കേരള
##ല്
ബി
##േ
##മാണ്
##ക
##ന
##ങ്ങൾ
ഡി
##ില്ല
##കള്
എന്
##യിലെ
##ാന്
##ങ്ങള്
##ിലെ
##വ
സംസ്ഥാന
##ക്ക
##യ്ക്ക്
##ത്തെ
എന്ന്
ഡ്
##കൾ
ജി
ഇനി
മാര്
ഉദ്ഘാടനം
മ
വാര്
സ
ക
രൂപ
കര
വീണ്ടും
കോണ്
കൊറോണ
##ുമായി
##റ
ജില്ലാ
##വര്
##ക്
##ുന്നു
അത്
തുടങ്ങി
ഇത്
പോലീസ്
ആര്
##ുക
ഏറ്റവും
പ്രവര്
മന്ത്രി
##ായ
##ല
മാത്രം
##ുകൾ
പദ്ധതി
പേര്
പറഞ്ഞു
ഇന്ത്യ
##ുന്നത്
##ണം
ആദ്യ
അ
##ന്റെ
മരിച്ചു
##ിനെ
എഫ്
യു
##ര
നാളെ
ജെ
കി
മുഖ്യമന്ത്രി
##െന്ന്
##ക്കും
വലിയ
വരെ
എന്റെ
##സ
##ത്ത
ചെയ്ത
രണ്ട്
ന
റ്
കൂടി
കാഞ്ഞങ്ങാട്
ശേഷം
##ൂ
നെയ്യാറ്റിന്
എല്ലാ
##കളും
##പ
##ാം
ക്കാര്
##ങ്ങളും
കര്
ഡോ
നടന്ന
##ക്കു
ഇവിടെ
കേന്ദ്ര
ക്കും
ദേശീയ
പ
വില
വ
ഗ്രസ്
##യായി
ട്ട്
പൊലീസ്
##വുമായി
##യോ
മരണം
കേസ്
കൊണ്ട്
##ിലേക്ക്
നടത്തിയ
ണ
##ൾ
##ണ
വിദ്യാര്
മികച്ച
നീലേശ്വരം
##ച്ച
ത്ത
യാത്ര
കോടതി
##ാൽ
##ല്ല
##ിരുന്നു
പാര്
രണ്ടു
##ുകള്
മുന്
ഒ
##ുടെ
ച്ച
കാര്
വീഡിയോ
##ത്ത്
##യുള്ള
ത
കഴിഞ്ഞ
ഇന്
മൂന്ന്
##നെ
വഴി
##ുകയും
##കളുടെ
##ട
##പ്പോൾ
ചില
##ങ്ങളുടെ
##ത്തിനു
നിങ്ങളുടെ
##ാതെ
ഞാൻ
ക്ക
ദിവസം
##ാല്
##നും
സർക്കാർ
##തും
അറസ്റ്റില്
ബിജെപി
##യുമായി
കോടി
പരാതി
##പ്പ
പൂര്
ലക്ഷം
ഇന്ത്യൻ
##തു
##വി
##ിലും
##ഡ്
എല്
##ിയ
ആണ്
ചിത്രം
നല്ല
കൂടുതൽ
പൗരത്വ
##തായി
ഞാന്
##ാനുള്ള
ത്തി
##ിനു
ചെയ്യുന്ന
വേണ്ടി
##യ്
ച
സമ്മേളനം
##ാത്ത
##സി
##റെ
മുതൽ
റോഡ്
രണ്ടാം
##റി
രാഷ്ട്രീയ
##നി
##തിന്
നടപടി
##തോടെ
##ത്തിലെ
ജോലി
കോഴിക്കോട്
ആർ
സിനിമ
പോലെ
ഷം
പ്രധാന
തകര്
##യായ
ബസ്
സെന്
##യിലേക്ക്
##മുള്ള
##ഗ
##ിട്ടുണ്ട്
ന്ന
മോദി
പ്രതി
ഇന്ത്യന്
##റ്റ്
##ുണ്ട്
കഥ
മുതല്
കാരണം
മരിച്ച
നിയമ
##ള്
ഹി
##ണമെന്ന്
റ
##പ്പെട്ട
ലോക
അദ്ദേഹം
##ലി
പഞ്ചായത്ത്
വന്ന
##താണ്
##മോ
ന്നു
##ള
കൈ
##ായിരുന്നു
##റ്റ
പ്രധാനമന്ത്രി
ചെയ്യുക
പണം
ൽ
വനിതാ
ആരോഗ്യ
ഇങ്ങനെ
പോലും
കൂള്
വിവിധ
വൈറസ്
ഗ
പല
ഓഫ്
തന്റെ
എച്ച്
അടുത്ത
കൂടുതല്
മലയാളി
മലയാള
സെക്രട്ടറി
വിവാഹ
##വർ
വിതരണം
നീ
ഡൽഹി
പുരസ്
ന്ന്
ഷന്
കേരളം
ഡല്
ട്രംപ്
നമ്മുടെ
ഓര്
കണ്ട
ചേര്
മലയാളം
വെഞ്ഞാറമൂട്
വിദ്യാഭ്യാസ
യുവാവ്
ശ്രീ
സ്വന്തം
എന്നാല്
അമ്മ
വരുന്ന
##യിലും
റിപ്പോര്
ച്ച്
പരീക്ഷ
സാമ്പത്തിക
##ിരിക്കുന്നത്
##ത്തി
കൃഷി
##ഡ
ആറ്റിങ്ങല്
##ുമ്പോൾ
പ്രസിഡന്റ്
##പ്പോള്
ചര്
##രി
സംഭവം
സംഘം
##വരെ
ആയി
നടക്കുന്ന
##കളെ
##തി
ക്കെതിരെ
എന്നു
##ുമെന്ന്
##ബ
##ടി
നാല്
##ട്ട
പിന്നെ
അച്
##െങ്കിലും
ലെ
ഷ
കുട്ടി
പറയുന്നു
തുടര്
അവര്
വളരെ
കണ്ടെത്തി
ഉള്ള
##ാനും
##ദ
##ോട്
##ങ്ങളിൽ
പുറത്ത്
സം
അന്വേഷണം
##ങ്ങ
ബ
പോയ
പറഞ്ഞ്
സമയം
കീഴ്
ഭാര്യ
കുറിച്ച്
##യെന്ന്
##പ്
എനിക്ക്
പറഞ്ഞ
ഹൈക്കോടതി
##കളില്
ഓരോ
നൽകി
##മ്പ
##ഹ
##ിച്ച
കണ്
മുൻ
മൂന്നു
ഹ
##ുമ്പോള്
ശ
പേർ
##ങ്ങളെ
എങ്ങനെ
മൃതദേഹം
തോമസ്
സംസ്ഥാനത്ത്
വന്
പ്രത്യേക
പരിക്ക്
സമരം
വെള്ളം
##ിരിക്കുന്ന
##ീ
നിരവധി
തുടങ്ങിയ
##ഷ
##വര
ഉള്
##നായ
##ത്തിലേക്ക്
##ങ്ങളില്
സന്ദര്
അവരുടെ
##ത്തിനും
##ൺ
പ്രതിഷേധ
അര്
ട്ടി
വൈ
ക്കല
##ൊരു
എൻ
പോസ്റ്റ്
നിന്നുള്ള
##ിരിക്കുന്നു
ഷിക
##ക്കെതിരെ
##ിരുന്ന
##ണ്ട
നെടുമങ്ങാട്
##മ്മ
ജന
നടത്തുന്ന
വേ
ക്കു
കാരം
പരിശീലനം
ചോദ്യം
ല
തല
പെന്
താരം
മറ്റു
വര
ഗവ
##ിച്ചു
ഭാഗമായി
##െന്ന
യുവതി
ാം
ജ
വേണം
കുടുംബ
ഫെബ്രുവരി
അസോസിയേഷന്
ലി
എത്തിയ
ധര്
##ിലൂടെ
സ്വര്
നിന്നു
പെണ്
നി
എന്നാൽ
എണ്ണം
അഞ്ച്
പ്രകാരം
ക്ലാസ്
ഒന്നാം
മറ്റൊരു
യോഗം
മാർച്ച്
പ്രതിഷേധം
കട
മത്സരം
##ജ
ബിഗ്
പോയി
സ്വകാര്യ
തുറന്നു
മാറ്റി
എക്
തീര്
##ച
അവ
തള്ളി
കമ്മിറ്റി
സാധ്യത
വികസന
##ിക്കുന്ന
വീട്
ജോസഫ്
സ്ത്രീ
എന്നെ
##േണ്ട
##ത്തു
രാത്രി
ആന്
സ്കൂൾ
മുസ്ലിം
ക്യാമ്പ്
രാവിലെ
ചെയ്യും
മീഡിയ
നില
അവസാന
പക്ഷേ
##ത്തിലും
##മി
മഴ
##ണ്
ബാങ്ക്
മറുപടി
ചെയ്ത്
വിധി
##പി
##ാന
കൊല്ലം
പ്രശ്
പരിശോധന
അനുമതി
ഇന്ത്യയുടെ
##ന്ന
മ്മ
എന്നിവ
മത
വീട്ടിൽ
##ഡി
യുടെ
വിവാഹം
ഭൂമി
കോൺഗ്രസ്
##കളിൽ
വകുപ്പ്
##തെന്ന്
പൊതു
ഭേദഗതി
സൗജന്യ
##മെന്ന്
ഓഫീസ്
അവർ
അപേക്ഷ
##ിട്ടില്ല
നേതാവ്
ഷാ
നീക്കം
അറസ്റ്റ്
##ശ
കാല
പിന്നാലെ
ഫ്
##ജി
ഏറെ
അപകടം
ചെറുവത്തൂര്
കോ
മലപ്പുറം
എന്നും
നിയമം
ദ
സു
##ുകയാണ്
സോഷ്യല്
പറവൂര്
നൽകിയ
ഇട
##ിംഗ്
മാസം
നിങ്ങൾ
പണി
വിക്കിപീഡിയ
##ങ്ങള
ജീവിതം
വേണ്ട
ഓ
##ക്കുന്ന
എല്ലാം
##ുകളും
വിട
വിജയ
ഗാന്ധി
പിണറായി
കുട്ടികള്
##രുത്
ല്
നന്ദി
മഹാ
##യില
സിറ്റി
മാ
##ിനും
##ത്തോടെ
##ദ്
ഉയര്
ഇല്ല
കമ്പനി
നാലു
കിയ
##യാ
സമിതി
പറയുന്ന
##െന്നും
കോതമംഗലം
##ുകളുടെ
പള്ളി
അവിടെ
നേരെ
മഞ്ജു
നട
ആഘോഷിച്ചു
തുടക്കം
##ില
ഇപ്പോൾ
മുമ്പ്
മുഹമ്മദ്
ഫാ
##യ്ക്കു
മണി
ആറ്
പഠന
റിപ്പോർട്ട്
അങ്ങനെ
ആക്രമണം
##യി
പ്രവാസി
##ഫ്
ഭര്
സ്വദേശി
ആലുവ
കോട്ടയം
ഇത്തരം
##ക്കായി
##ൂര്
കൂളില്
##ിട്ട്
വൈദ്യുതി
##ിട്ടും
##നു
കനത്ത
##ട്ട്
##വരുടെ
ഓണാഘോഷം
##ില്ലെന്ന്
തീ
ആദ്യം
കു
അറസ്റ്റിൽ
നിങ്ങള്
മര്
##ത്തില
ശ്രമം
കണ്ട്
ഇപ്പോള്
സംഘടിപ്പിച്ചു
തിരു
ത്ത്
##താ
##ഫ
എറണാകുളം
ഡ
മെഡിക്കല്
ലഭിച്ച
##ഗ്
##ാര്
പ്ര
വ്യാജ
പിടിയില്
##ാലും
വന്നു
വെള്ളറട
ചികിത്സ
കൂട്ട
##പ്പ്
ചിറയിന്
ത്തകള്
##കള
ഹര്
##ിക
##ബി
നികുതി
ലീഗ്
കേരളത്തിലെ
പരിപാടി
കാണാൻ
നിന്ന
നടി
സോഷ്യൽ
ഇന്നലെ
##ച്ചു
ഹോക്കി
വളര്
നടന്നു
ശനം
##യോട്
##ഷ്
തേടി
##ുകയായിരുന്നു
##മില്ല
ആലപ്പുഴ
##യായിരുന്നു
ബന്ധപ്പെട്ട
വിമര്
കൂടെ
വാഹന
##മല്ല
കലാപം
തൃക്കരിപ്പൂര്
##യു
##ങ്
ആരംഭിച്ചു
ഉ
##ത്തിനായി
വിതുര
അവാര്
നേടിയ
കാഴ്ച
##പ്ര
ക്ലിക്ക്
അമിത്
ലോറി
##തിന്റെ
അന്വേഷണ
വീട്ടില്
ചരിത്ര
മാത്രമാണ്
ആശുപത്രി
എൽ
നില്
##ൈ
കുറഞ്ഞ
എത്തി
അല്ല
##ുമോ
ശ്രമിച്ച
പിടികൂടി
നോക്കി
താഴെ
അതു
ക്രിക്കറ്റ്
##വെ
പോകുന്ന
##ച്ച്
വാർത്ത
ബോര്
ചെയ്യുന്നു
വെള്ള
ഷികം
##തില്
പിന്നീട്
സ്വയം
സബ്
മുസ്
പ്രസിഡന്
പിന്
ശതമാനം
വ്യക്തി
പഴയ
ജീവിത
##യം
കുന്ന
സംവിധാനം
ജയന്തി
##ിനെതിരെ
ചെയ്തത്
ശന
##മാ
വൻ
സഭ
മാറി
സംഗീത
##ിച്ച്
ഒന്നും
ചെറിയ
റെയും
കാന്
പറയുന്നത്
##ൂർ
അധ്യാപക
തിരിച്ചു
ചെയ്യാന്
ഫോര്
അങ്കമാലി
മതി
സമീപം
##ിങ്
##ഴ
ശബരിമല
##വേ
##ലും
മാത്രമല്ല
ട
ഡൽഹിയിൽ
സ്വതന്ത്ര
അഞ്ചു
വർഷം
ഹിന്ദു
##യ്ക്ക
സമര്
വിഭാഗം
അവസാനം
പാലക്കാട്
പത്തനംതിട്ട
##ഞ്ച
##യില്ല
വരുന്നു
##റ്റി
എന്നാണ്
മുന്നില്
ചെയ്യ
##യ്ക്കും
ആയ
എന്ത്
റി
##കൊണ്ട്
കളി
കാണാം
പക്ഷെ
കയറി
അന്തരിച്ചു
പോ
ദിനം
എത്ര
കേസില്
കുട്ടികളുടെ
##ലാ
##ൊ
##കര
മാധ്യമ
കാട്ടാക്കട
സ്ഥലം
ഫ
മറ്റ്
സുപ്രീംകോടതി
യൂത്ത്
##നായി
സുരക്ഷ
പച്ചക്കറി
കാര്യം
മൂന്നാം
കൗണ്
മരണ
##ിക്ക
ആരോപണം
##നാ
ജില്ലയിലെ
എന്നീ
ചിത്ര
സില്
ഥി
കോളേജ്
ക്ഷേത്ര
##റിയ
പ്രതിരോധ
വെച്ച്
മല
##മായിരുന്നു
##ബ്
തുക
രാജ
കണ്ടു
പാല
ചെന്നിത്തല
സംസ്
ഭരണ
ഞങ്ങൾ
തന്നെയാണ്
പാർട്ടി
മാറ്റ
സുരേഷ്
ആരും
മഞ്ചേശ്വരം
ദൈവ
കല്
രാജ്യത്തെ
ഉപയോഗിച്ച്
##മുണ്ട്
##ിലാണ്
##മേ
പേരിൽ
##സാ
കിട്ടിയ
##രെ
സംഗമം
ഖ
ഇവ
മത്സരത്തിൽ
##ക്കി
ചർച്ച
മാതൃഭൂമി
അതിന്റെ
കാര
വീണ
വച്ച്
മുന്നിൽ
##യോടെ
##ാവുന്ന
ഒന്ന്
ക്കുന്ന
ബോസ്
##യിലൂടെ
പാക്
അവധി
പറഞ്ഞത്
അടി
തൊഴിലാളി
രോഗം
ഉത്തരവ്
കേസിൽ
##ക്കോ
സാ
കേന്ദ്രം
സംരക്ഷണ
വിദേശ
##തിനെ
കാണാതായ
കണ്ടെത്തിയ
ക്ഷേത്രത്തില്
##ുണ്ടായ
അപകട
ഭക്ഷണം
##ക്കാൻ
ചെയ്യുന്നത്
##ഖ
ഭർത്താവ്
തുടങ്ങും
വിപണിയിൽ
മാത്രമേ
##ട്ടെ
കാണ
##ങ്ക
അല്
മി
കവര്
ഏ
കാർ
##യല്ല
ഫലം
പിടിച്ചു
തമിഴ്
വാ
##നോ
##മാര്
പെരിയ
താര
തിരിച്ചടി
##ിത
വരും
നു
സിപിഎം
അവിനാശി
ഉത്സവം
കടുത്ത
ശക്തമായ
കണ്ണൂർ
തീരുമാനം
##വ്
##ക്കുള്ള
നാം
പട്ടിക
ഓട്ടോ
എയര്
വിരുദ്ധ
ഭാഷ
അഴിമതി
##കളുമായി
പോര്
മോഹന്
##രാ
##ത്തിലൂടെ
##രായ
##അ
##െത്തിയ
കോര്
##യത്
##ംഗ
നേടി
നടത്തുന്നു
സൂചന
നിലയിൽ
കഴിയുന്ന
##തിൽ
പ്
വിജയം
നിലയില്
ആന
കൊണ്ടു
ഇന്ത്യയിലെ
മു
യുവ
##യിലാണ്
##്റെ
സമയ
സംഘര്
##ക്കര
ഒരാള്
ഥികള്
എന്നത്
നേരത്തെ
##രംഭത്തെക്കുറിച്ച
ശാസ്ത്ര
മേൽ
##ത്ര
പാലം
തുടക്കമായി
ണ്ണ
അഭിപ്രായങ്ങള്
പൂ
സുപ്രീം
ഭീഷണി
ത്തു
കേരളത്തിൽ
ഒപ്പം
ത്തനം
മേഖല
##ട്
പ്രണയ
ഞങ്ങളുടെ
##ാക്കി
##േറ്റ
വെ
കാര്യങ്ങള്
സാഹിത്യ
പ്രതീക്ഷ
പേരില്
ഉണ്ടായ
ചെയ്യാൻ
താൾ
##യുടെയും
മൊഴി
##തിനു
നിയന്ത്രണം
##റ്
പിതാവ്
##ന്ത
നേതൃത്വത്തിൽ
ഉണ്ട്
##ൗ
ജോസ്
ആദ്യത്തെ
ആയിരുന്നു
##ട്ടി
ലഭ്യമാണ്
##ുന്നതിന്
##ത്തിന
തമ്മിലുള്ള
കല
##മാക്കി
നിലപാട്
പ്പ
കൂട്ടായ്മ
ടീം
ആഘോഷം
നടത്തും
സോ
ചൈന
വിശ്വാസ
ആദ്യമായി
ഫോട്ടോ
##ളി
##രു
പറയ
നിറഞ്ഞ
മനുഷ്യ
മഹല്ല
മന
അന്താരാഷ്ട്ര
സെന്റ്
വാവ
സ്നേഹ
##നം
ശക്തി
ജൈവ
അറിയിച്ചു
മാന്
ജല
യോഗ
##സിന്റെ
##ക്കാര്
ജനുവരി
രാജപുരം
എവിടെ
ത്തകര്
ജസ്റ്റിസ്
സഹായ
##മാർ
ഗ്രാമ
പകരം
##ിരിക്കുകയാണ്
കോളജ്
ഇന്നത്തെ
##ഭ
##റും
ഇന്നു
##ണി
ആശങ്ക
തുടരുന്നു
##ുവാൻ
ഇന്ത്യയിൽ
പൂവാര്
തൃശൂർ
ബുക്ക്
പുന
പരിസ്ഥിതി
വേദന
##രുടെ
കവിത
ക്കായി
ഇതു
അംഗീകാരം
ഫോൺ
ആറു
കുട്ടികളെ
##്യ
##ിക്കാന്
കാലം
സമര
പ്രകടനം
ഓണം
ബാധ
പിടിയിൽ
രീതി
ഞങ്ങള്
കിലോ
##ോടെ
കാ
മര
##ാണു
തുടർന്ന്
കേരളാ
പോക
കൂത്താട്ടുകുളം
##വാ
##ത്തിലാണ്
സെ
പത്ത്
സഹായം
എഴുതിയ
രാഹുല്
##ഞ്ഞ
നഗരസഭ
ഭ
##റിന്റെ
ആഗോള
പിന്തുണ
വിശുദ്ധ
##സ്റ്റ
സഹ
ഉടന്
സ്ഥാനം
ഡോക്ടര്
മെഡിക്കൽ
ശിക്ഷ
##ണ്ട്
മുഖം
പരാമര്
##ിട്ടുള്ള
##ിട്ട
ദില്ലി
കൊലപാതക
ആവശ്യം
തെരഞ്ഞെടുപ്പ്
ജോര്
##തന്നെ
ലോ
വിഡിയോ
സഹകരണ
ആത്മഹത്യ
സസ്
ഭക്ഷണ
വീസ്
തങ്ങളുടെ
ത്ഥി
##ിന
നമുക്ക്
ഷോ
ട്രംപിന്റെ
മുഴുവന്
സിനിമാ
ജേക്കബ്
എഴുതുന്നു
തൊടുപുഴ
രോഗ
യുപി
കേരളത്തില്
മാറ്റം
ചെറു
ത്ഥ
വിളിച്ചു
ബന്ധ
തിരികെ
ചീഫ്
ത്തന
##ുകളില്
പ്രഖ്യാപിച്ചു
നിങ്ങളെ
##ദി
ഭയ
സൗദി
ജ്
പരിശീലന
സാധാരണ
തിരഞ്ഞെടുപ്പ്
പേര
വിഴിഞ്ഞം
കിളിമാനൂര്
ഫോണ്
##യേ
പുതു
നേതൃത്വം
ബാ
മുട്ട
രംഗത്ത്
അവാർഡ്
കിട്ടിയത്
സാമൂഹ്യ
##ദ്യോഗിക
##ത്വ
അമേരിക്കൻ
കടന്നു
ജില്ലയില്
കോലഞ്ചേരി
നഴ്
സുരക്ഷാ
എന്താണ്
##വർക്ക്
##ന്നു
ദി
##ുമ
എംപി
ഇസ്
സീറ്റ്
##എ
##പ്പി
തിരിച്ചറിയ
ബന്ധം
അല
##റു
##ുമെന്നും
യ
തുറന്ന്
കൂടാതെ
ബ്രിട്ടീഷ്
സ്വീകരണം
ഉടൻ
##ഷി
ഒറ്റ
##ത്തിനുള്ള
മുടി
##ലോ
എണ്ണ
മുഴുവൻ
##ൊക്കെ
പോത്തന്
സംഘടന
കാര്യങ്ങൾ
ന്യൂസ്
പിഴ
വിട്ടു
ഓണ്
രൂപയുടെ
##േണ്ടത്
അസോസിയേഷൻ
പേരെ
##ായിരിക്കും
കാലടി
അവസ്ഥ
വാങ്ങി
അനു
ഇനിയും
ആഭ്യന്തര
നരേന്ദ്ര
മോഷണം
ക്രിയേറ്റീവ്
ലഹരി
##ക്കുന്നു
##ധ
കുടിവെള്ള
ആശുപത്രിയിൽ
വ്യവസ്ഥ
കുട്ടികൾ
##മു
##ല്ലേ
പെരുമ്പാവൂര്
##തല്ല
ജനകീയ
കാര്യ
പ്രണയം
ചേര
അശ്ലീല
മെന്റ്
ബല
അടിയന്തര
പാ
പരിഹാരം
എട്ട്
സാങ്കേതിക
##ാണെന്ന്
സംഘടിപ്പിച്ച
കുട്ടിയെ
##മാരുടെ
അതിന്
##ിട
##ുകളിൽ
അല്ലെങ്കിൽ
അക്കാദമി
##ന്ന്
ആൻഡ്
ലൈന്
കുഞ്ഞിനെ
##ണമെന്ന
കോമൺസ്
അഭിപ്രായ
##വന്
വീ
##യെന്ന
##കോ
##തോ
പ്രസ്താവന
വനിത
നിറ
പ്ലസ്
ക്ഷണിച്ചു
തോല്
ബാഗ്
കാണുന്ന
നീതി
വെന്
അവരെ
##കളാണ്
##ിക്കുന്നു
ആശുപത്രിയില്
സമാപിച്ചു
കുറിപ്പ്
റോ
ബ്ലോക്ക്
തു
ചരിത്രം
കയറ്റുമതി
ആവശ്യപ്പെട്ട്
അവസരം
കണ്ടത്
മധുരം
##േക്കും
ക്യാമറ
##ഇ
ബജറ്റ്
കലാ
സെമിനാര്
രാജ്യം
അത
ആദിവാസി
യൂണിറ്റ്
ബാക്കി
തേ
നാഗര
മുംബൈ
ദിന
ക്
മുറി
##ാവ
ശ്രദ്ധ
##െയും
പ്രദര്
##വരും
കൊല്ല
ന്റെ
രജിത്
ഏഴു
കൊടുത്ത
ഇതുവരെ
##ങ്ങളാണ്
ആം
##തിനാൽ
ഒന്നര
##േയും
സ്വാമി
രാജ്യ
##ത്തും
ഉപയോഗിക്കുന്ന
പൊയിനാച്ചി
പച്ച
കായിക
എത്തിയത്
പ്രതിസന്ധി
മുഖ്യ
സംശയം
##ലെ
പ്രകാശനം
വിമാനം
ബാല
മെട്രോ
പാലോട്
ജീവനക്കാര്
##യര്
തൃപ്പൂണിത്തുറ
അവളുടെ
അവതരിപ്പിച്ച
എന്തു
അമ്മയുടെ
പദവി
മുഖ
മകളെ
ട്ട
##കൾക്ക്
വില്
അര
##െല്ലാം
സേവന
മുന്നറിയിപ്പ്
സത്യ
സ്വ
##ക്കാര
അന്ന്
തവണ
##പ്പെട്ടു
കൂടിയ
ഡ്രൈവർ
അടിസ്ഥാന
മൊബൈൽ
സ്വാതന്ത്ര്യ
അനധികൃത
ഇന്ത്യാ
അതേ
കുറച്ചു
പാത
കൊലപ്പെടുത്തിയ
കോട്ട
രമേശ്
യൂണിയന്
കോവില്
ധന
കെട്ടിടം
##റോ
വെമ്പായ
നടത്തിയത്
ഭാഗം
##കാ
ഞാന
##േണ്ടി
##ന്റ്
##ക്കാർ
കൊന്ന
ഏത്
കൊണ്ട
ഗോ
##ിനി
ഇരു
##റാ
ഗവര്
കണ്ണൂര്
വ്യക്തമാക്കി
ജില്ല
അപകടത്തിൽ
നിയമനം
ജയ
##ിരുന്നത്
സ്ഥിതി
ശരണ്യയുടെ
ലോകം
##ടെ
മത്സ്യ
പാടില്ല
വെറും
സർവീസ്
ഡേ
##കാല
മാർ
നടക്കും
നെടുങ്കണ്ടം
റെയില്
ദു
കുടുംബശ്രീ
മമ്മൂട്ടി
അതിനു
ദുരന്ത
യുവാവിനെ
കഴിഞ്ഞു
##പ്പെടുന്ന
##ല്ലോ
ഒര
##കം
##ച്
ചിന്ത
അധികം
വാദം
##ക്കാരുടെ
കഴക്കൂട്ടം
ഇത്രയും
##സിന്
##മല
ഹൃദയ
##രും
##െന്നു
വിമാന
ചെയ്
സാമൂഹിക
അമേരിക്ക
##ങ്ങളിലും
റണ്
ബൈക്ക്
മാതൃക
ദേവ
പ്രിയ
##ത്തിനെതിരെ
##െത്തി
ചെ
##േഴ്
##ത്തോട്
##റിൽ
നിര
നിരക്ക്
സംഘ
##യുണ്ട്
വിമാനത്താവളത്ത
##ഹാ
##വില
തിരുവനന്തപുരത്ത
ശരണ്യ
##മെന്ന
ക്കാന്
തൊഴില്
##പ്പെട
##കൂടി
##ിട്ടു
ലാന്
വിപണി
കത്തി
സിപിഐ
വേദി
ഗര്
വാർത്തകൾ
##ിനോട്
##യെയും
സേവനം
പ്രതിപക്ഷ
ഏക
നന്നായി
##തെന്നും
വിവരങ്ങൾ
എല്ലാവരും
സിന്
അദ്ദേഹത്തിന്റെ
ജാഗ്രത
കെട്ടിട
വിവാദ
##ഹ്
കൊല്ലപ്പെട്ട
നാ
ഗ്രൂപ്പ്
പ്രസിദ്ധീകരിച്ച
ബാധിച്ച
മെ
പത്തു
ലോകകപ്പ്
##മില്ലാത്ത
പ്രമുഖ
ഏഴ്
പരി
യില്
മരിച്ചവരുടെ
പുസ്തകം
വെട്ടി
തന്ന
പാട
##പാ
ലക്ഷ്യം
നിങ്ങൾക്ക്
##ോളം
മതം
##മെ
മാലിന്യ
അറിയാം
വീണു
പ്രളയ
വെല്ലുവിളി
വിവരം
ലൈബ്രറി
മാണ
വേറെ
##വുമായ
##തല
സൈനിക
സന്തോഷ
ജനറൽ
ഒന്നു
നീക്ക
നൽകുന്ന
ഏതെങ്കിലും
മൂവാറ്റുപുഴ
നാടക
ഹയർ
ക്ഷേത്രം
ചാ
ഇംഗ്ലീഷ്
മലയി
ലൈംഗിക
##സും
ഇന്നും
രവി
##ാണോ
ധ
##രിയ
കണ്ണ
##്യം
ഗതാഗത
ലിം
സേന
വകലാശാല
മരിച്ചത്
##യാത്ര
ടൈപ്പ്
##ുവാന്
പ്രത്യേകം
ശരി
പുറത്തു
##ജ്
സംസ്ഥാനത്തെ
നടത്ത
ഫേസ്
ജനാധിപത്യ
നന്മ
ഒക്കെ
വാഹനം
ക്രൂരത
നടന്
നേതാക്കള്
ഡ്രൈവര്
ചൂട്
മിനി
ശിവ
സുരേന്ദ്രൻ
മൂലം
കെട്ടി
##പോലെ
##തര
നവ
കോടിയേരി
നേട്ടം
വേദ
##ക്കാട്
വ്യാപാര
##ത്തിലുള്ള
റാലി
പ്രാഥമിക
ട്ര
ഗൂഗിള്
മേ
സൂപ്പര്
നഷ്ടപ്പെട്ട
ആഭിമുഖ്യത്തിൽ
തര്
ബോധവത്കരണ
##ങ്ങൾക്ക്
നാട്
ഫല
ചിറ്റാരിക്കാല
വിജിലന്
##നില്
##ഞ്ഞു
ഇന്റര്
കും
##ശേഷം
എഴുതി
നടത്തുന്നത്
ഒരാൾ
പൊളി
ഉന്നത
ദേശ
കവി
##റിന്
യുഡിഎഫ്
കാല്
##ിക്കാൻ
അതി
##കി
സ്കൂളിൽ
കമ്മീഷന്
കുട
കാർഡ്
##ട്രിബ്യൂഷൻ
##ിനൊപ്പം
നാട്ടുകാര്
അമേരിക്കന്
ഭവന
ഉണ്ടായേക്കാം
##ില്ലെങ്കിൽ
ജാതി
കുത്തി
കാണാന്
##ുമെന്ന
സ്റ്റേറ്റ്
മാസ്
അധികാര
ഓണ
വിവരങ്ങൾക്ക്
വിട്ട
കൊ
വിജയ്
ടെക്
ഓടി
##ണ്ണ
പ്രവേശനം
പഠനം
ശനിയാഴ്ച
ഓസ്
ഓഹരി
അനുമതിപത്ര
ഏറ്റെടുത്ത്
##ുന്നതിനിടെ
##ുമ്പോഴും
##ത്തിനിടെ
കുമാർ
##ൊന്നും
കരുമാല്ലൂര
സമയത്ത്
അവന്
വീണ്
തട്ടിപ്പ്
പ്രോ
ക്കുള്ള
ലോകത്തിലെ
നടപടികള്
അതിര്
വിളിച്ച
##ാർ
എംഎല്
വിദ്യാഭ്യാസം
ഭാര്യയെ
അക്രമം
മെയ്
ആക്രമിച്ച
ഒന്ന
##പൂര്
വയനാട്
ഒരേ
നെറ്റ്
രീതിയിൽ
ഇടുക്കി
ജോണി
ത്ഥികള്
ജനറല്
##ാനാണ്
ഇന്ത്യയില്
ഇതാണ്
ഭീതി
വ്യവസായ
തിരുത്തപ്പെട്ട
പ്രവർത്തിക്ക
സ്വർണ
ചെറായി
കൃഷ്ണ
അലി
##സം
ജൂലൈ
ലഭിച്ചു
സ്ത്രീകള്
പിറവം
##നാണ്
ഷിപ്പ്
##ാറുണ്ട്
നിബന്ധനകൾ
നായര്
പരിക്കേറ്റ
പാസ്
നം
കുഞ്ഞ
നൂറു
##പ്പള്ളി
പ്രതികരണം
##കാര
##മാന
##ഴി
നേതൃത്വത്തില്
ദിവസവും
ഗുരു
മോ
##ത്തിന്റെയും
കേട്ട
ഇതാ
വായ്പ
##സ്റ്റ്
നേഹ
പലരും
ജോണ്
എന്തെങ്കിലും
സ്ഥിരീകരിച്ചു
സംയുക്ത
##ില്ലെന്നും
പേർക്ക്
##മാക
സിബിഐ
ഇൻ
സ്മാര്
കരുണ
എന്നതാണ്
പ്രകൃതി
കാക്കനാട്
##ാനൊരുങ്ങി
അധിക്ഷേപങ്ങള
മാസ
മാണം
##ിക്കും
കൊലപാതകം
പെ
പീഡിപ്പിച്ച
ഹാ
സംഭവ
താൻ
ലഭിക്കുന്ന
ആക
ഡിജിപി
ടെസ്റ്റ്
ഇവര്
കേസിലെ
ചലച്ചിത്ര
ചൈനീസ്
യുദ്ധ
ബാലരാമപുരം
വെബ്
സീനിയർ
##സ്ത
##ക്ഷ
##യാക്കി
ബന്ധപ്പെട്ട്
പ്രചാരണ
ടിക്കറ്റ്
സൂപ്പർ
ഞെട്ടി
നഷ്ടം
##ക്കൽ
വിഷയം
സ്ത്രീയുടെ
##ക്കുട്ടി
ബിജു
##യേയും
പത്ര
അരി
##സിൽ
വൈസ്
നോട്ടീസ്
##മാണെന്ന്
പകര്
വിശ്വാസം
പൊ
മേല്
വഖഫ്
മാല
ദുരന്തം
##ുവ
വിവരങ്ങള്
കൂട്ടിയിടിച്ച്
##തിനാല്
##കളിലും
രാജ്യത്ത്
പാറ
ലോകത്തെ
##െങ്കിൽ
ചെയര്
വിസ
ചിത്രങ്ങള്
ക്ഷേമ
##വിന്റെ
എതിര്
നൽകിയത്
സ്ഥാന
##ടക്കം
വീട്ടമ്മ
ചിത്രങ്ങൾ
പു
വായന
മാത്യു
അൽ
ഇപ്പോഴും
പവന്
##ക്ട
നീണ്ട
വിദ്യാർത്ഥികൾ
ലറ്റിക്
നെ
മാണി
##ക്കൊപ്പം
സത്യം
വാർഷിക
##ക്കാ
വരുന്നത്
വെച്ച
ചേർന്ന്
ജനങ്ങളെ
പിടിച്ച
അങ്കണവാടി
മാറിയ
ചെയ്യാം
അഭിപ്രായം
ടെ
പ്രാര്
സമ്മാനം
പ്രൊഫ
അതേസമയം
ദേശം
ഷെയർഎലൈക്
അന്ന
സംബന്ധിച്ച
എങ്കിലും
ശരണ്യയെ
ഒരുങ്ങി
സിന്റെ
സന്ദേശം
##രാജ
##യർ
വന്നത്
കൂട്ടി
##ികള്
##ിലുള്ള
ആധുനിക
യുവതിയെ
##നിര്
വാഴ
കുമാര്
യുഎസ്
നഗര
ലേഖനം
കൂ
ഫണ്ട്
##ിക്കുന്നത്
ബാബു
നെടുമ്പാശ്ശേരി
##ക്കെതിരേ
ഹീറോ
##യൂ
മീന്
വച്ച
##ങ്ങളിലെ
എടുത്ത
വ്യത്യസ്ത
##വഴി
മലയാളികള്
ക്ഷേത്രത്തിലെ
##ബാ
##ാക
ലാ
യുവാവിന്
ബെ
വികസനം
മ്മാണ
##യ്യ
വ്യക്തിപരമായ
##ാര
ഗുരുതര
തുറന്ന
##ണമെന്നും
##വന്ന
പുസ്തക
നാട്ടില്
കേട്ട്
##സ്സ
ഹോം
ക്കട
ഉപ
നൽക
വന്ന്
കേസെടുത്തു
സമാധാന
ന്യൂ
##ിയുടെ
കുട്ടിയുടെ
അവൾ
ഇരട്ട
ദൈവം
ഡില്
##ുണ്ടോ
ബുദ്ധി
ഉദ്
##ുന്നുണ്ട്
റോഡില്
സാംസ്
തദ്ദേശ
കല്ലറ
ഓഡിറ്റ്
ആപ്പ്
താന്
ഇതിന്
ഫി
കഴിയാത്ത
##ൃ
ഹിയില്
പര
##ുമാണ്
ലൈഫ്
സംശയ
കോളേജില്
മേള
ദിവസത്തെ
വർഷ
കണ്ടെത്തിയത്
കൊന്നു
ഇര
ഇത്ര
ഫുട്
പ്പറ്റ
വിവാദം
ദുരൂഹത
നടന്നത്
ജയം
##ജന
##ില്ലാത്ത
പ്ലാസ്റ്റിക്
ഷക
##റില്
അധിക
##വന
കുറ്റ
റെയിൽവേ
ടാഗോർ
സംഘർഷം
തോ
അന്
##േഴ്സ്
സമ
##വിള
സ്ഥാനാര്
##ക്കൂട്ട
ചെന്നൈ
##ലിന്
അച്ചടിയ്ക്കുക
ഭരണഘടന
##േക്ക്
ചോദിച്ചു
ബോള്
ഗോപി
പിഎസ്
ത്താന്
ഭാരത
തടഞ്ഞു
കൊച്ചു
##ദിന
അന
ചാമ്പ്യന്
നായ
ക്ഷേമനിധി
സെക്കന്
പ്രിയങ്ക
##ാള
തര
##വു
പ്രഥമ
കുടുംബത്തിന്
സന്തോഷം
പദ്ധതിയുടെ
പേരൂര
പിള്ള
പ്രവർത്തനം
##ിനായി
അവന്റെ
ഇന്ന
ജനങ്ങള്
ചന്ദ്ര
അതുകൊണ്ട്
തമ്മിൽ
കമ്മീഷൻ
ലഭിക്കാന്
##ത്തെക്കുറിച്ച്
നല്കി
ഏര്
##ുന്നില്ല
വില്ലേജ്
കഴിയും
വിചാരണ
സുരേന്ദ്രന്
ലോഡ്
സെക്കൻഡറി
##നീ
##മാര
പിടി
ബോർഡ്
വിജ്ഞാനകോശം
ചൂട
മുൻപ്
കഞ്ചാവ്
കള
അടക്കമുള്ള
ത്തിയ
മലപ്പുറത്ത്
വെള്ളരിക്കുണ്ട
ഉത്സവ
സർവകലാശാല
പിന്നില്
സ്മാരക
നടൻ
##ിനെയും
പരീക്ഷാ
ക്ലബ്
നഷ്ട
കേന്ദ്രസര്
നിയന്ത്രണ
അനുകൂല
ആവശ്യപ്പെട്ട
##ഥ
തുടരും
വേഗം
മീ
മരം
മോഹൻലാൽ
മദ്യ
##നാട്
നായർ
നിർമാണം
നാട്ടുകാർ
ഇതിന്റെ
പ്രഖ്യാപനം
ശിവരാത്രി
വിദഗ്ധ
പരസ്പരം
യുവജന
സംസാരിക്ക
##ഘ
തന്
ഇല്ലാതെ
സണ്
മനുഷ്യാവകാശ
അടക്കം
പദ്ധതികൾ
മുങ്ങി
വിഷയ
വിലക്ക്
വെറുതെ
അവയുടെ
##ുവെന്ന്
ജോ
അധികൃതര്
കേന്ദ്രമന്ത്രി
പിന്നിൽ
മറിഞ്ഞ്
തൊഴിലാളികള്
പറ്റി
##ുകളെ
##ോടു
സൈബര്
##രോ
പ്രതിഷേധിച്ചു
പേ
കേള്
രേഖ
ഇവരെ
ഹെല്
ട്
താ
അത്ര
ഗൾഫിൽ
കരുതി
##മീ
##ക്കാന്
മകന്
##ാമ
വാഗ്ദാനം
ടൂര്
##ാണ
രക്ത
ണര്
തനിക്ക്
##കെ
ഇഷ്ട
പട
ശ്രീകൃഷ്ണ
##യുമായ
വിജിലൻസ്
പ്രാദേശിക
പ്പെടെ
കോള
ഞാനും
തീയതി
അംഗ
ക്കൊപ്പം
എടുത്ത്
ആരാധകർ
##ഷന്
ചിരി
കോടിയുടെ
നിരന്തരം
##യിലുള്ള
അവള്
ബര്
നിയമസഭാ
മാനസിക
പരമ്പര
ആദ്മി
തെ
കുഞ്ഞു
മണ്ണ
വാട്ടര്
വിദ്യ
ഏകദിന
പൃഥ്വിരാജ്
മകൻ
അവകാശ
ഒഴിവ്
റദ്ദാക്കി
ഹൃദയം
ഡോക്ടർ
ആകെ
ട്ടുകൊച്ചി
മേഖലയിലെ
തി
ഒടുവില്
നേരം
സായി
മലയാളത്തില്
##രൂപ
വ്വ
##ടു
നീട്ടി
##ശാല
കസ്റ്റഡി
##ാകും
##കളിലെ
അക്ഷര
##ർത്ത
മകളുടെ
ചികിത്സാ
ഒടുവിൽ
ഫോറം
സിങ്
സഭാ
##ാടി
##വരാണ്
ത്താവ്
##ുളള
മൊബൈല്
താലൂക്ക്
ഷി
സൊസൈറ്റി
##കര്
ഫാക്ടറി
കൂട
വലിച്ചു
മേധാവി
##യിട
ആഘോഷ
രക്ഷ
കട്ട
അതില്
പ്രശസ്ത
റാ
##ാനായി
ഇല
പേടി
##യാണെന്ന്
ഉണ്ടാക
ഉത്തര
റെഡ്മി
ഉമ്മ
സീഡ്
മസ്ജിദ്
##നിയ
കൊടുക്ക
ഇടവക
ഏതു
കല്ലമ്പല
ഇത്തവണ
പ്ല
അഡ്വ
വിതരണവും
കാട്ടാന
കാരുണ്യ
പുറത്തിറങ്ങി
കുമ്പള
നിർഭയ
ട്രാന്
ചെലവ
ഹെ
കലാപ
ശ്രമിച്ചു
കല്ല
##സിനെ
സിംഗ്
അയച്ചു
കോഴി
ബ്രാഞ്ച്
##പുരം
ജില്ലാതല
ഹയര്
വെടിയുണ്ട
രാജി
മോദിയുടെ
ഞായറാഴ്ച
സിഎജി
ആയുര്
ഗോവ
##ില്ലെങ്കില്
സംബന്ധിച്ച്
ജീവൻ
വൈറല്
ഇസ്ലാമിക
നിരാശ
കാരിക
അനുവദിച്ച
സൂര്യ
സാക്ഷി
നിൽക്കുന്ന
കീ
പാലാ
പറയാൻ
ശ്രീകൃഷ്ണജയന്തി
കൊല്ലപ്പെട്ടു
നോ
അപകീര്
ര
റിമി
നാലാം
##ക്സ്
കുടുംബം
ഘോഷയാത്ര
##ഫി
നിർമാണ
##രീ
പരിഹാര
മോശം
ശ്രമ
മകനെ
മണ്ഡലം
മത്സര
പ്രതികളെ
യുവതിക്ക്
##ക്കുന്നത്
ദേശീയപാത
##വേദി
പെരിന്തൽമണ്ണ
വാങ്ങ
##ങ്ങളുമായി
വെള്ളിയാഴ്ച
യെ
മറ്റും
ഷത്തെ
മേഖലയില്
നയ
പ്രഖ്യാപിച്ച
സീ
ദുരിതാശ്വാസ
ആള
സംഭവത്തിൽ
ജനങ്ങളുടെ
ശശി
##ഫലം
##പ്പോ
ആള്
കോടതിയിൽ
സ്തുതി
അവളെ
പൂജ
##മെന്
തങ്ങള്
##െടുത്ത
വേദിയായ
പണിമുടക്ക്
കിട്ട
##ദിനം
എട്ടു
ഇരുവരും
വൈപ്പിന
മലയാളികളുടെ
സുഖ
##മംഗലം
ദുബായ്
സകല
തിരുവല്ല
##ിക്കുക
അറിഞ്ഞ
വെളിപ്പെടുത്തി
മൂല
ശസ്ത്രക്രിയ
##ഹി
വിട്ട്
##നില
##ള്ള
##ിട്ടുള്ളത്
കടല
ജര്
അറിയ
ശില്പശാല
രാഷ്ട്രപതി
##യന്
##വയ
മറിയം
ക്കാരിന്റെ
പെട്ടെന്ന്
തട്ടി
##ത്യ
പലപ്പോഴും
##സു
വെല്
ശല്യം
ഷകര്
##വിന്
കോടതിയില്
കൂടിയാണ്
##ിപ്പിക്ക
കെഎസ്ആർടിസി
നോക്ക
ചെയ്യണം
രണ്ടുപേര്
കൊല
##ക്കണം
##ഷണ
ഗുണ
രൂപം
പുഴ
എയർ
എത്തുന്ന
ട്രെയിൻ
ചെയ്യൂ
ചിത്രത്തിന്റെ
വായിച്ച
ബോട്ട്
മകൾ
കുട്ടനാട്
ആവശ്യ
##ഒ
##ഖ്
വിയാന
##ാറ
കറുത്ത
ഡെ
കുവൈത്ത്
ധനസഹായം
പ്രിയപ്പെട്ട
ണം
നേര്
ചുമതല
മലയോര
മിശ്ര
ഇതില്
പ്രസംഗം
##തുകൊണ്ട്
##ഡോ
നിയമപ്രകാരം
##മന
സ്റ്റാര്
പേരാമ്പ്ര
##സെ
ഭീകര
പന
##ിരിക്ക
വിളിക്ക
പഞ്ചായത്തിലെ
##രം
ആദരിച്ചു
പുരസ്കാരം
സ്വാതന്ത്ര്യദിന
വണ്ടി
##പ്പു
തീരുമാനിച്ച
സിഎഎ
##വല്
##ടുത്ത
എന്നിവര്
കാമുകൻ
##നേ
മാറ
സംഭവത്തില്
യുകെ
സ്ഥാപിച്ച
മാപ്പ്
സിവില്
ശരീര
##ത്വം
സമസ്ത
കൊടുത്തു
കാലത്ത്
##കു
മഞ്ഞു
സംഭവിച്ച
വക
കരി
##തുമായ
ഏപ്രിൽ
കുടുംബസംഗമം
സിനിമയുടെ
മുകളിൽ
ഇല്ലാത്ത
##ലിൽ
വിഭാഗ
##വാര്
ആരംഭിച്ച
ഫേസ്ബുക്ക്
##േക്കാം
തടി
അമൃത
വല
മാരുടെ
##കളായ
##ഗോ
പ്രായം
രാജ്
മാനേജ്മെന്
തമ്മില്
അവൻ
ഭൂ
##ികൾ
##ാക്ക
ശരീരം
ഷെ
##ിക്കുകയും
ബിസിനസ്
സമൂഹ
എംഎൽഎ
തടയ
തരം
ഗാന
##ിൻ്റെ
കാണിക്ക
ഹോ
##മാരെ
സൗഹൃദ
ജിയോ
##ിന്റെയും
മകള്
കേരളത്തിന്റെ
ട്രാഫിക്
##ുകള
തുറക്കും
നാഷണല്
##ൻസ്
വേണമെന്ന്
അപകടത്തില്
ജാ
##സോ
ണാടക
തുടര
വെറ്റില
##യെക്കുറിച്ച്
മാറനല്ലൂര
കിരീടം
അക്രമ
വേണ്ടത്
കുറച്ച്
കുറവ
ഉറപ്പ്
വിവര
വോട്ട്
ടൂറിസം
ട്രംപിന്
ക്ഷേത്രത്തിൽ
കൊണ്ടാണ്
കണം
ജന്മ
തോന്നി
##ശ്ശേരി
അതിനെ
പ്പെട്ട
പറ
കാണുക
വീട്ടിലെ
പങ്കെടുക്ക
ധാരാളം
വെടിയുണ്ടകൾ
കോശിയും
സർക്കാരിന്റെ
അവര
ഗവർണർ
എടുത്തു
##ുന്നതിനായി
മലങ്കര
മുന്നോട്ട്
ഒരിക്കലും
##ആ
പങ്കുവെച്ച്
##ുന്നതാണ്
ഉപയോഗിക്ക
ലോഗോ
നിലന്പൂ
ബോ
##ിൻ
പതിപ്പ്
രാഹുൽ
##ശക്തി
നിയന്ത്രിക്ക
യൂണിവേഴ്സിറ്റി
ത്തനങ്ങള്
ഉയർന്ന
നിലവില്
ശങ്ങള്
ലഭിക്കും
ആഴ്ച
ഹൈ
##യില്ലാത്ത
##എം
കാരി
ഉടമ
പ്രവർത്തന
സെൻട്രൽ
##ുമൊക്കെ
##ലിന്റെ
##ാല
##സില്
##ാസ്
കളമശ്ശേരി
##മാന്
##റേ
പോലുള്ള
##പരി
വിളിച്ച്
##ദ്ധ
തൊഴിലാളികൾ
സ്വപ്ന
##സീ
നങ്ങള്
രണ്ടാമത്തെ
ലാല്
##ത്തോടനുബന്ധിച്ച്
##സഭ
പള്ളിയില്
##എസ്
റീ
കുറെ
സമഗ്ര
നമ്മൾ
പോലീസിന്
##ുകൊണ്ട്
കൂടത്തായി
ജോർജ്
പരസ്യ
മരുന്ന്
കൈമാറി
അഥവാ
യാതൊരു
ഗ്ഗ
##വള
ത്തിക്കുന്ന
യൂണിവേഴ്
##ണോ
നിർദേശം
നിരീക്ഷണ
##വെച്ച
തടയാൻ
##ഐ
രാമ
പേരും
ഗ്രാമപഞ്ചായത്ത്
എക്സ്
കണ്ണു
പ്രശ്നം
##യൊക്കെ
##ുന്നതിനുള്ള
അനൂപ്
നിന്റെ
നോക്കിയ
ബ്ര
സർക്കാരിന്
##യ്ക്കായി
സൂ
ഒരുപാട്
ഇറങ്ങി
കാസർഗോഡ്
പൊടി
വയസുള്ള
നിത്യ
ഇടപെട
വിപണിയില്
##യാക
എന്നിവർ
കഴിഞ്ഞ്
കൂടിക്കാഴ്ച
വീട
ഭാവി
പള്ളിയിൽ
തുടങ്ങിയവ
കയറിയ
ദിലീപ്
ഉദ്യോഗസ്ഥര്
ഹരികുമാർ
ആത്മ
എഴുത
##കേന്ദ്ര
##ോട
ഉണ്ടായിരുന്നു
ലൈറ്റ്
വന
ക്കാരിന്
നമ്മള്
ആഷിഖ്
ഗുരുദേവ
പ്രശ്ന
തിങ്കളാഴ്ച
രജിസ്
വ്യാപാരി
##യറ
അറിയാന്
ദര്
അവതരിപ്പിക്ക
വിസ്മയം
##യ്ക്കുള്ള
ലക്ഷ
രോഗി
##ുമായിരുന്നു
അനുഭവ
കള്ള
##ാനി
മരണത്തിൽ
ലോട്ടറി
##േഷന്
##വീ
മഞ്ഞ
നടിയെ
##ഷന
ശിവസേന
ഗൂ
പ്രചരിപ്പിക്ക
ചൈനയിൽ
##പ്പെടുന്നു
##വൻ
സംരക്ഷണം
തിരഞ്ഞെടുക്ക
##ക്കാരെ
ജില്ലയിൽ
പുരോഗതി
ഈസ്റ്റ്
##തുപോലെ
ദൃശ്യ
നോര്
##കല
അടിയന്തിര
##ക്കല്
മണിക്കൂർ
##രോഗ
##യുടേയും
ചാര്
വില്പന
##ലേ
ഉപരോധിച്ചു
മാന
വരെയുള്ള
ഭർത്താവിന്റെ
##മൂ
##ാമെന്ന്
##ക്കാല
അറബ്
ഉപേക്ഷിക്ക
##യാള്
ഇമാം
അതീവ
മിക്ക
നടക്ക
ഒഴിവാക്കി
ഇതിനു
ഹർജി
ശിച്ചു
അയ്യങ്കാളി
##ക്കൊണ്ട്
നല്ലത്
വിദ്യാർഥി
കാളി
കിയത്
യാ
പ്രസ്
ഥ
പരിഷ്
ന്യൂനപക്ഷ
ആക്രമണ
വള
താല്
പ്രവർത്തനങ്ങൾ
കാർഷിക
തോൽവി
ആവശ്യപ്പെട്ടു
##സ്ഥാന
ലോക്
ചൈനയില്
ചൊവ്വാഴ്ച
വണ്
അമ്മയെ
പ്രവേശന
ബ്ലോഗ്
##റിഞ്ഞ
##പ്പാ
സ്ഥല
പുലി
മരട്
പ്പിച്ചു
വെസ്റ്റ്
##ിപ്പ
കോഴിക്കോട്ട്
കരാർ
ജീവന്
##ായിരുന്ന
##ുന്നതിനും
വധു
കാത്തിരിക്കുന്ന
തൊഴിൽ
സോണിയ
അനുവദിക്ക
##ന്പ
##വൈ
റേഷന്
##വില്
കാക്ക
കൈകാര്യം
സംവിധാന
രുചി
നേരിട്ട്
കുഞ്ഞ്
##മണി
കടുങ്ങല്ലൂര്
##ക്കാരന്
ഇതേ
തൊഴിലുറപ്പ
ശ്രമിക്ക
കോൾ
ബോംബ്
വിതരണ
##ത്തേക്ക്
സും
കോളജിൽ
ത്തികരവു
കൊടുക്കുന്ന
പോത്താനിക്കാട്
എന്നിവയുടെ
സ്വീകരിക്ക
ആൾ
അല്ലെങ്കില്
പ്പന
ആളെ
##ില്ലാതെ
സ്വപ്
ഉപയോഗ
##ക്ര
ക്കള
ജനത
കൊള്ള
##ജ്ഞ
##െങ്കില്
ശാന്തി
##ഷൻ
അസം
നടക്കുന്നത്
കിഴക്കമ്പലം
വിദ്വേഷ
##പോ
##സംഘം
##ൻഡ
##പാട
ഐക്യ
ട്രാൻസ്
##രുതെന്ന്
ഗ്രാമീണ
##പോലും
ദുരിത
##തേ
ഓണക്കിറ്റ്
പദ്ധതിക്ക്
ദ്ധ
##മാക്ക
പ്രസിദ്ധീകരിക്ക
റെയ്ഡ്
എന്തൊക്കെ
ചാണ്ടി
വിനോദ
താങ്കള്
എതിരെ
##ാക്കിയ
നാടകം
##മാരും
പക്ഷി
ബഹ്
വായിച്ചു
ഏതാനും
കൊല്
നിരോധനം
നേടിയത്
##റുടെ
##യുമാണ്
##ടുക്ക
ഐടി
##റ്റു
മീറ്റ്
പ്രക്ഷോഭ
പങ്കെടുത്ത
കഞ്ചാവു
ചാടി
ജൂബിലി
##മാകുന്നു
പ്രസംഗ
കണ്ണീര
##കാര്യ
ശാഖ
##േഷൻ
##ലോക
ഫെയ്
ഒഴിവാക്ക
##തീ
ഭക്ഷ്യ
സ്വർണം
##ലില്
നേട്ട
മേഖലയിൽ
ജാഗ്രതാ
സ്കൂള്
##സമിതി
##നിൽ
##വല
ദിവസ
മുന്നോട്ടു
##ട്ടോ
##ക്കുക
അയാളുടെ
ആചരിച്ചു
ടോമി
മണിക്കൂര്
##പദ്ധതി
രാഷ്ട്രീയം
ആരംഭിക്കും
ശബ്ദ
##പ്പാറ
സുന്നി
ചാനല
പ്ലേ
##ംഗ്
തള്ള
പഴ
നിയമവിരുദ്ധവും
##ോത്സവം
മദ്റസാ
##ിനിടെ
##കാലം
ത്ഥന
പോയത്
ഡറി
ഉപയോഗിച്ച
യഥാര്
മാലിന്യം
വീടുകള്
##ക്കിയ
##പു
സുന്ദരി
മടങ്ങി
ജയ്
##പ്പാട
ടു
ചാമ്പ്യൻഷിപ്പിൽ
ഹിന്ദി
നേതാക്കൾ
വെട്ട
താമരശേരി
അനുവദിച്ചു
ഉച്ച
പദയാത്ര
##താര
തീരുമാന
##പരമായ
അഞ്ചാം
##നോട്
##ീയ
വിഷ
കരാര്
##ല്ലെന്ന്
ജാമ്യം
##രിക്ക
ഇതിൽ
അമ്മയും
വരാപ്പുഴ
യൂണിയൻ
അസഭ്യവു
ഉണ്ടായിരുന്ന
##ഴ്
മുല്ലപ്പള്ളി
വിശദീകരണം
വിനായക
##തെ
കമ്മിറ്റിയുടെ
സ്റ്റേഷന്
പോരാട്ടം
റോഡിൽ
##ിലേക്കുള്ള
പാക്കിസ്ഥാന്
##ടാ
##മെന്റ്
മൈ
നേരിട്ട
ഭാഷാ
##കളെയും
##ിപ്പിച്ചു
മത്സ്യത്തൊഴിലാള
ലാൻഡ്
ഇന്ത്യക്ക്
വീട്ടിലേക്ക്
##ിൻറെ
##ത്തര
##വോ
വിന്
##ങ്ങി
പോകുന്നത്
വിശ്വ
പബ്ലിക്
ജമ്മു
ആളുകള്
പൊട്ടി
##നാള
കഴിയ
അതിൽ
കരയോഗ
പൂർണ
##യാണോ
സംസാരിച്ചു
സ്റ്റേഡിയത്തിൽ
പുല്
ചേരി
##ുണ്ടായിരുന്നു
കെഎഎസ്
പേരുടെ
ടിവി
അതെ
ചെര്
പ്രാ
എനിക്ക
സമുദായ
നാട്ടിൽ
രാജ്യത്തിന്റെ
വിളി
വീടിന്റെ
##ുന്നതും
ഞെട്ടിക്കുന്ന
ഉല്
പരിഹരിക്ക
നോട്ട്
ഉത്തരം
##ിയെ
ആശുപത്രിയിലേക്ക
പീഡനം
അധികൃതർ
മാറ്റിയ
##ീസ്
താങ്കളുടെ
സഭയുടെ
ഓണാഘോഷവും
ബോധ
സെന്റര്
പ്പണം
മുള്ളേരിയ
സ്ഥിരം
മീഡിയയിൽ
കേരളത്തിന്
ഇത
കഴിച്ച
ഫെ
അയ്യപ്പനും
ആരാധകര്
കാമുകനൊപ്പം
വാങ്ങിയ
അമിത
##കൊണ്ട
ഒരുക്കിയ
വിജയൻ
ധാരണ
കത്ത്
താമസ
വിക്കറ്റ്
##നല്
റ്റി
##ിപ്പിച്ച
പ്പിച്ച
രണ്
യൂ
##മാവ
ചായ
##മില്ലാതെ
ടിസി
തീവ്രവാദ
വാക്ക
എന്തുകൊണ്ട്
കേൾക്ക
തെറ്റ
##ആർ
തുറക്ക
സങ്കടം
നക്ഷത്ര
##ുള്ളത്
കുള
ഫെയര്
##വിനെ
ഖുര്
വെച്ചു
കോഴ്
ഫ്രണ്ട്
സ്ഥാപന
വീടിന്
അയ
രാഷ്
ജോളി
അരവിന്ദ്
മുല
വിശ്വസിക്ക
പൊലീസിന്റെ
പ്രവൃത്തി
##ലിയ
തകർപ്പൻ
അത്ഭുത
പോരാട്ട
ലക്ഷത്തിന്റെ
ദിനാചരണം
പുറത്തിറക്കി
##ത്തന്നെ
##രീതി
സമീപ
രേഖപ്പെടുത്ത
കോഴിക്കോട്ടെ
അയാള്
##േഷ
തിരഞ്ഞെടുത്ത
മുദ്രാവാക്യം
മുതിര്
വർഷത്തെ
##ശാസ്ത്ര
അവർക്ക്
ദയവായി
ചെയർമാൻ
പ്രചാരണം
വാർത്താ
കിടക്ക
##ിച്ചത്
ധനമന്ത്രി
റോയ്
വൈകുന്നേരം
ഫറന്
ഇതോടെ
സൗകര്യം
##തെന്ന
മാര
##മേഖല
രൂക്ഷ
സാരി
അപ്
ഗ്
ക്യാന്
##യാകും
കീഴടങ്ങി
മാനന്തവാടി
കാവ്യ
ജനം
രഹസ്യ
വരനെ
##രേ
കോലി
ശമ്പളം
കർഷക
നിലനില്
ശനി
ജീവനക്കാരുടെ
സന്
അടച്ചു
പ്രതിഷേധിച്ച്
അറിവ
മൂല്യ
എപ്പോഴും
രണ്ട
ജീവ
പൊലീസിന്
ഹരി
വിദ്യാർത്ഥി
##ക്കട
##േറ്റ്
##ർക്ക
ബിജെപിയുടെ
##മര
വധശിക്ഷ
സൗത്ത്
മുന്നണി
തൃശൂര്
തീര
കഴിക്ക
പരിഗണിക്കും
മനസ്സ
കിടക്കുന്ന
##ന്ദ
സംവിധായകന്
##രുത
മന്
മാധ്യമപ്രവര്
പടന്ന
വൈറൽ
##േഷ്
എന്താ
##ിറങ്ങിയ
അടങ്ങിയ
ദക്ഷിണ
##ുകയോ
അയാൾ
രൂപയ്ക്ക്
മോഡി
ക്കി
ബില്
ദുര്
##ാനാവില്ല
കാട
പ്രീമിയം
##ാനെത്തിയ
നായിക
ഗോഡ്
വിള
പുത്തന്
രജിസ്റ്റര്
നിര്യാതനായി
വൈഫൈ
##ദു
ആരോഗ്യം
വൈറലായി
സജീവ
പദ്ധതികള്
കട്ടപ്പന
കുറ്റം
വോട്ടര്
നിലനിര്
ഫിലിം
ലക്ഷ്യ
ഡിസ്
അബ്ദുല്
ഏറ്റെടുക്ക
യുവതിയുടെ
സെക്
ഭാഗ
വാട്
ഓളം
ഓർമ്മ
പെട്ട
##ത്തെയും
പറ്റിയ
##ത്തിനെ
##മേള
പഠിച്ച
പുലര്
##റിനെ
കുഴി
##ശ്
##സിലെ
##യായിരുന്ന
വിഷയത്തില്
ലഭിച്ചത്
തെറ്റ്
തങ്ങൾ
##മാറ്റ
പെൺകുട്ടി
ഓഫീസര്
നേരിടുന്ന
പിടിച്ച്
ഡര്
##സര്
അപേക്ഷിക്കാം
വിദ്യാലയ
ഗവേഷണ
മഹ
ആവ
##ിനുള്ള
##ചെയ്യ
##വച്ച
മരിയ
സൃഷ്ടിച്ച
വിദ്യാർഥികൾ
അന്യ
##എസ്ആര്
പ്രമേയം
നാട്ടിലെ
ഉപഗ്രഹ
##ികളുടെ
വാഹനാപകട
പ്രതിയെ
അറസ്റ്റു
ഒരുക്കി
##ോട്ട
കുടിയേറ്റ
മുടങ്ങും
പേരു
നേമ
അപ്പ
പറയാന്
പിന്നിലെ
അറ്റ്
കാട്ടി
മധുര
നേട
##യാൽ
തോന്ന
ശമ്പള
ഫാമിലി
##റ്ററ
##ഗ്ര
നിന്നാണ്
ഉറക്കം
കെജ്
##ണ്ടി
ദൃശ്യങ്ങൾ
സന്ദർശനം
സാന്പത്തിക
ന്യൂഡല്
നിയമസഭ
ജയിലില്
അന്തിമ
ടിക്
##െടുക്ക
ക്രൈസ്തവ
നിധി
##യോഗ
##ദാന
വാക്ക്
##ബന്ധ
പ്രതികള്
ബസും
##രിക
രീതിയില്
പോയപ്പോൾ
നടപടികൾ
##ലീ
സർ
വിജയന്
കണക്ക്
പോള്
##ന്മാർ
ചന്ത
##കരമായ
അമ്മയ്ക്ക്
ഉപയോഗം
##പുര
പൊട്ടിത്തെറിച്ച
കശ്മീർ
##ങ്ങളായ
##ങ്ങളിലൂടെ
ഉൾപ്പെടെ
നിൽക്ക
##യോഗം
##ാവുന്നതാണ്
ചേ
മുസ്ലീം
അടിച്ചു
ഇതൊക്കെ
ബെല്
ഷാജി
##ത്തിയ
##ച്ചി
സ്വാഗതം
മഞ്ഞ്
ബാറ്ററി
പ്രവർത്തകർ
അന്പലപ്പുഴ
ഹം
മനം
##ഡാ
##ഷധ
ഇടിച്ചു
റവന്യൂ
പണ
പ്രായ
##മാസ
ഭാഗവത
##ുന്നുവെന്ന്
ശ്രീനാരായണ
ദേവനന്ദയുടെ
വളർച്ച
തട്ട
ടീ
കോളേജിൽ
അറിവിന്റെ
രൂക്ഷം
വിമാനത്തില്
##കളായി
കാമുകന്
##ാറില്ല
ചേർത്തല
പുരുഷ
പക്ഷം
സഹോദരി
പനി
##ിങ്ങ
##ന്റ
നിമിഷം
ക്കം
മന്ത്രാലയം
കൂളിന്
വിഷമ
കുറഞ്ഞു
##ാലോചന
ഇന്ത്യയ്ക്ക്
ഗ്രാമപഞ്ചായത്ത
മൊ
കൊട്ടാരക്കര
നിങ്ങള
ബ്ലോഗ
നമ്പര്
കൊല്ലത്ത്
സ്വത്ത്
അമ
ഇവർ
##ർക്ക്
റെഡ്
ഗോള്
##പ്രവര്
##ിയത്
കോയമ്പത്തൂർ
യാത്രക്കാര്
##കേന്ദ്രം
ഏജന്
ഏകദേശം
പത്താം
മെന്റ
ആപ്പ
വെളിപ്പെടുത്തല
##യെന്നും
ഫീസ്
അഭിമാന
##കുട്ടി
പാടി
കുറവ്
##യാണ
സിനിമയിൽ
രാഷ്ട്ര
##ാത
യുദ്ധം
ത്തിയായി
വിഷയത്തിൽ
പരിക്കേറ്റു
ആംബുലന്
ഇടത്
തിരക്കഥ
ഡിംഗ്
സാറ
ത്താ
ആഴ്ചയിൽ
പീ
##ാതിരുന്ന
അട
ള
ഗുജറാത്ത്
ഫ്രാന്
ആളുകൾ
ആശയ
പോര
ഹൗസ്
##പ്പെട്ടത്
ഒഴിവാക്കുക
കയറ
##േരി
വെള്ളി
വാക്കുകള്
രാജ്യാന്തര
ശിലാസ്ഥാപനം
ണമെന്റ്
##ന്മാര്
കുടിവെള്ളം
ഒമ്പത്
##ൂര
സൗന്ദര്യ
സൈബർ
##ദര്
വില്ല
ണമായും
ദളിത്
സീറോ
അഭിപ്രായങ്ങൾ
പരിക്കേറ്റ്
വിൽപ്പന
ത്തികള്
കളക്ടര്
നിക്ഷേപ
##െടുത്ത്
ക്ഷാമം
സെമി
ബത്തേരി
##കൊണ്ടു
ഉദ്യോഗസ്ഥ
വായിക്ക
ദേവസ്വം
ഉം
കേ
മേരി
വീഴ്ച
വഹിച്ചു
ന്യൂഡൽഹി
തോന്നുന്നു
ആരെങ്കിലും
ചാല
ദക്ഷിണാഫ്രിക്ക
മുമ്പുള്ള
വീതം
##ഭൂമി
സാഹചര്യത്തില്
സുഹൃത്ത
ആര
##പേര
വിദേശത്ത്
അതോ
ഫ്രീ
മറുപടിയുമായി
അറ
ബ്രാൻഡ്
##മുറി
സംവരണ
##ുകാര്
ഗാനം
##ബോധ
കടന്ന
ത്തുന്നു
ആന്റണി
സുഖം
##യെങ്കിലും
റെക്കോര്
ക്കാരം
അഞ്ച
മത്സരങ്ങള്
ഓൺലൈൻ
വിജയകരം
ശൈലജ
അമ്മു
വീടു
ചൊല്ലി
വാദ
##തായിരുന്നു
ബിഎസ്
ക്കാര
##മുഖ
മേരീസ്
സെല്
ജയശ്രീ
##വിൽ
കല്യാണ
ഹെഡ്
താളിൽ
സംഘവും
##ട്ര
##ോസ്
അവഗണന
പൊട്ട
ആകാശം
കാശ്മീര്
##ന്റെയും
എഡിറ്റോറിയൽ
ക്കുന്നു
ചിട്ടി
പ്രതിനിധി
##ഷ്യ
##ോള
പന്ത
കാണിച്ച
നേഹം
നിധിൻ
##തായും
കുടുങ്ങി
##സല
##ചെയ്ത
അജ്ഞാത
സ്വഭാവ
അപ്പോള്
രൂപയും
വിനിമയ
പോസ്റ്റു
ചോദിക്ക
ശരിയായ
##വാദ
നിരീക്ഷണത്തില്
ചോദിച്ച
സംവരണം
##ിരുന്നില്ല
##ിലേക്കു
ഉണ്ണി
ചെക്ക്
പണവും
തുടങ്ങ
വാടക
നിറം
പറ്റ
##ാനന്ദ
നൽകാൻ
ഇതര
ചേർന്ന
##േത്
ഡിസംബർ
ലൈസന്
ഇന്നുമുതല്
##രാമ
ഗു
##ക്കള
സിവിൽ
പങ്ക്
##യൻ
##വുമാണ്
വേനൽ
##മാക്കിയ
##മായും
ചലച്ചിത്രമേള
##കൾക്കും
##ില്ലേ
പെരു
അധ്യക്ഷ
താരത്തിന്റെ
കിടന്ന
കഴിയില്ല
റിവ്യൂ
പുനര്
അസ
ഭാരവാഹികള്
ബില്ല
##ത്താ
##ാണി
സാംസ്കാരിക
യാത്രാ
വസ്ത്ര
പോസ്റ്റ
ഓപ്പണ്
##രണ
##എഫ്
##മന്ത്രി
കുട്ട
ഉദിനൂര
##ക്കുളം
##ഉ
##തം
##ിയും
നീല
പ്രേക്ഷകർ
ആറാം
രൂപത
ഹൈക്കോടതിയിൽ
സ്ഥാപനങ്ങള്
അടുപ്പ
##ചി
##ാമോ
മെന്
##ദേവ
മോദിയെ
സഖ്യ
##നിന്ന
##ോടും
അംഗീകരിക്ക
ശേഖരിച്ചു
താള
ട്രോഫി
തെരുവുനായ
കാൽ
ചിത്രത്തിന്
ജഡ്ജി
##ാതിരിക്കാൻ
നാല
##യിരുന്നു
മനോജ്
##പ്രകാരം
കൊലപ്പെടുത്തി
##പ്പെടുത്ത
ഓഗസ്റ്റ്
##ഫോ
തീവണ്ടി
ഭയന്ന്
കാത്തിരുന്ന
ആവശ്യമായ
എന്നിവരുടെ
ക്കര
##വെന്ന്
ഹാളിൽ
തോന്നിയ
പടി
വകുപ്പിന്
അയല്
അധ്യാപകര്
##പെട്ട
മറക്ക
ബുദ്ധിമുട്ട
മമത
##മാകും
ണായക
വിധേയ
വരുമാന
ദാരിദ്ര്യ
##ങ
പ്രദർശനം
വയ്ക്ക
ണാടകയിലെ
മറിഞ്ഞു
പോസ്റ്റര്
വേട്ട
ട്രേഷന്
പഞ്ച
സൈ
ഗവണ്
##വിരുദ്ധ
ആഗ്രഹിക്കുന്ന
കണ്ടെയ്ന
##സ്ഥ
കാമുകന്റെ
മരുന്നുകൾ
ഇടതുപക്ഷ
ബോവിക്കാനം
മാനേജ്
മൃഗ
കുഞ്ഞിന്
പഠിപ്പിച്ച
##ംബ
ആറ
നിലവിലെ
പദ
രോഗികള്
##ശി
##ോട്ട്
അനുസ്മരണം
കൂൾ
ദേശാഭിമാനി
##ഭാഷ
##ാണെന്നും
പൊന്ന
അനാവശ്യ
പ്രിന്
ഉത്തരവാദിത്തം
കത്തോലിക്കാ
ചേച്ചി
##ലു
പാട്ട്
കാലാവസ്ഥ
അനുസ്മരിച്ചു
കർഷകർ
പരമാവധി
വൈദ്യുത
മറുനാടനോട്
രേഖകൾ
ആശംസകള്
##മാല
നൃത്തം
തെരഞ്ഞെടുപ്പിൽ
##എച്ച്
ഇവരുടെ
##ിനേയും
മദ്യം
##ക്കൂ
പൊള്ള
ദിവ്യ
കെട്ട
##ുള്ളൂ
റർ
ഹിയിലെ
ത്തകന്
ഫോ
ട്ടില്
പലിശ
##ിട്ടില്ലെന്ന്
പ്രീ
അവതരിപ്പിച്ചു
മനസ്സ്
അനേകം
ഞങ്ങളെ
കാര്യത്തില്
##ളള
അഭിഭാഷക
മൂന്നുപേര്
ചവറ
ഒരുങ്ങുന്നു
##േശ
##ജെ
കോഹ്
കുടുങ്ങിയ
##ുമായുള്ള
ബഹിരാകാശ
നിലപാട
ജ്ഞാന
ഉള്ളടക്കം
നാടിന്
പക്ഷികൾ
തെരഞ്ഞെടുക്ക
##റുകള്
##യാണു
അറിഞ്ഞു
##ദാ
തക്കല
കരുത്ത
പൈ
യുവാവിന്റെ
ദൃശ്യങ്ങള്
പ്രകാശ
##റുകൾ
കർശന
ഇപ്പോഴത്തെ
ഉണ്ട
##ിക്കാം
മുതിർന്ന
ഡൗണ്
യാത്രികർക്ക
ഇന്ത്യയെ
നിയമത്തിനെതിരെ
സ്വീകരിച്ച
സൈസ്
റു
പരിധി
##ങ്ങളുടെയും
വാഹനങ്ങള്
ബന്ധിപ്പിക്ക
വിധം
കാൻസർ
കുറയ
എംപ്ലോയീസ്
വരി
പെൺകുട്ടിയെ
പരിഷത്ത്
പൗരത്വം
##രാജ്
പാട്ട
നാസ
വക്കം
തകർന്നു
ഗള്
ഗ്രന്ഥ
യോഗി
ബസ്സ
റാങ്ക്
##ക്കൂട
കേരളത്തെ
നിർത്തി
മഹാരാഷ്ട്ര
ഉറപ്പാക്ക
ചെയ്യുമ്പോൾ
ഓട
##ബീ
സീറ്റ
നഗരം
പൈപ്പ്
കടകംപള്ളി
മന്ദിരം
പട്ടികയിൽ
ബേബി
മാരെ
സൂക്ഷിക്കണം
നിമിഷങ്ങൾ
##പോക
ഘാടനം
ഇന്ത്യയിലും
ഗ്യാസ്
ഡൽഹിയിലെ
കുലശേഖര
കൃതി
മുമ്പേ
##ആര്
ഹാജി
ഷൂട്ട്
ആഗ്രഹം
പ്രഖ്യാപിച്ച്
സിക്
##കൂട്ട
പാപ്പ
##ിപ്പിക്കുന്ന
ആക്ട്
ആകാശ
രഹിത
തോട്ട
ദാ
വാണിജ്യ
ദേശാടന
##ങ്ങ്
ഡ്ര
റസിഡന്റ്
കഥകള്
വെടി
പെട്രോള്
അന്വേഷിക്ക
സംവിധായകൻ
വീഴ്ത്തി
ജില്ലകളില്
ഫിറോസ്
സൗഭാഗ്യ
അപൂര്
ട്രസ്റ്റ്
##ുകൾക്ക്
നുണ
നാഷണൽ
നടത്താന്
##ുണ്ടാക്കിയ
ടോ
ചെയ
അറിയാതെ
ക്രെഡിറ്റ്
ഗാ
##പാത
##ഞ്ച്
സര
വൈദ്യ
കൽപ്പറ്റ
മരുന്നു
##വയ്ക്ക
വിറ്റ
ചോ
ഡിഗ്രി
ദ്ദ
സ്റ്റാന്
ആവശ്യപ്പെട്ടത്
യുവാക്കള്
മാതാവ്
സല്
വിഷ്ണു
പോകാന്
പോർട്
ഹദീസ്
കോപ്പി
ഗ്രേഡ്
പറഞ്ഞാല്
കിട്ടി
##വാള
കുറിച്ചു
ജനിച്ച
ഓഫീസർ
അസോ
ജിബി
ശ്രീലങ്ക
പാൽ
മല്
എത്ത
വകുപ്പ
വെളുത്ത
ഹൈസ്
തീവ്ര
കസ്റ്റഡിയില്
ആഘോഷങ്ങള്
സ്റ്റ
ഭാര്യയുടെ
മെഗാ
അഭിനയ
കയറ്റി
വിക്ഷേപണം
കിട്ടുന്ന
ചിത്രത്തില്
ജ്യോതി
##ുന്നതിനു
##ക്കാരൻ
തലമുറ
യൂറോപ്യന്
കലോത്സവം
##താണെന്ന്
മുകളില്
സ്ത്രീകളുടെ
##ക്കിടെ
റിപ്പബ്ലിക്
സംഭാവന
ബിഷപ്
ചട്ടമ്പിസ്വാമി
ലഭിക്ക
കണ്ണി
വോട്ടു
##യാല്
പൂവ
വോ
ചികിത്സയിലായിര
കൊടും
അവനെ
പ്രശ്നങ്ങൾ
##പേ
ഓട്ടോറിക്ഷ
പ്രാധാന്യം
ഓർമ
##ാകുന്നു
മരണത്തിന്
കുന്നു
അല്ലാതെ
##പ്പെട്ട്
അന്ത
അറിയിച്ച
കോൺ
##ുമായ
ട്രംപിനെ
വ്യത്യസ്തമായ
നേരിയ
എടുക്ക
##ുണ്ടെന്ന്
##തയും
##പര
തീരദേശ
##ത്തേ
പ്രൈമറി
ഉത്തരവ
##മാൻ
##കർ
മെലാനിയ
##ടിച്ച്
##ാലോ
ക്രൈംബ്രാഞ്ച്
സ്ഥലത്ത്
നിർമ്മിച്ച
മലയാളികളും
##ുമെന്നാണ്
അശ്വതി
ഫുട്ബോൾ
സമ്പദ്
##മാണെന്നും
ഹാവ്
ദിച്ച
##റീന്
പെൻഷൻ
പാടുന്നു
വൈകി
തൂങ്ങി
ആര്യനാട്
വീട്ടമ്മയെ
ലോകത്ത്
##ാവശ്യപ്പെട്ട്
തെറ്റി
സമ്പൂര്
തിരുനാള്
ഉദ്യോഗസ്ഥർ
തീരുമാനിച്ചു
നയം
ഡയറക്ടർ
ഘ
എന്തിന്
ഹെറിറ്റേജ്
##നെതിരെ
##രായി
മിഷന്
ലു
വ്യക്തമായ
നേര
ധോണി
വ്വം
ഡുകള്
ശം
ബുധനാഴ്ച
മംഗലപുര
##റായി
തൃ
യാഥാര്
ശനിമാറ്റ
ഇന്ത്യയിലേക്ക്
##ുമെല്ലാം
കളക്ടർ
പൂക്കള
സ്റ്റേ
റഷ്യയിൽ
കുറിച്ച
##ട്ടു
നഗരത്തില്
അതാണ്
സ്വാഭാവിക
നിയമന
സമനില
സംഘടിപ്പിക്ക
കാറുമായി
മാധ്യമങ്ങള്
ആയുർവേദ
ശ്രദ്ധിക്കുക
പദ്ധതിയില്
പാര
##പിടിച്ച
കുടിക്കാന്
ഖാന്
തട്ടിക്കൊണ്ടുപോ
പോളി
##ഷുറന്
##ക്കെ
##ഫല
##ങ്ങളായി
കീഴില്
ഭാവ
വച്ചു
താമസിക്കുന്ന
തീപിടിത്തം
സമ്മാന
വനം
ഫൈ
ഹജ്ജ്
വസ്ത്രം
നഷ്ടമായ
സ്വദേശിയായ
ഒരുമിച്ച്
സൈന്യം
##ിറങ്ങി
തട്ടിപ്പ
പരിശുദ്ധ
സെമിനാർ
##ോടൊപ്പം
കുറയ്ക്കാന്
വേര്
ഷവോമി
വേണ്ടെന്ന്
മെച്ചപ്പെടുത്ത
##പൊ
##ഞ്ചി
മാസ്റ്റർ
##ജോ
ടാ
നാട
നിർത്ത
ട്രംപും
നാടിന്റെ
കിലോമീറ്റർ
മിനിറ്റ്
ചോര
പുത്തൻ
പഠിക്ക
മരണസംഖ്യ
തല്
ഭാഗ്യ
സന്ദേശ
ബാര്
മക്കളെ
ആല
ത്താല്
##നട
ഒന്നാണ്
മനുഷ്യന്
##ദേശ
ഡെലിഗേറ്റുകൾ
##ുമുള്ള
ഡീ
നമ്പൂതിരി
##നിന്ന്
പക്ഷികളെ
മക്കള്
##ഷ്ട
അരുണ്
വൈബ്രേറ്ററി
മലബാർ
സാറ്റ്
ശരിക്കും
എസ്സ്
##ണ്ഡ
ജോൺ
മകനും
മുരളി
##െന്നാണ്
നമുക്ക
##നിന്നു
ബൈ
ചുമ
റോവർ
തടയാന്
കക്ഷി
ബേ
സംരക്ഷിക്ക
ബീ
ദാനം
അബു
ലിസി
എന്നിങ്ങനെ
നെയ്യാ
നിന്നെ
##തരം
വൃക്ക
മനോരമ
##റിലെ
ഓടിച്ച
റ്റ്
നാട്ടുകാരുടെ
ശ്രീറാം
ബീഫ്
##ത്തിൽനിന്ന്
തെളിയിച്ച
##ുവാനും
##ങ്ങിയ
കാട്ടുതീ
ആഡംബര
പറഞ്ഞാൽ
കളിക്ക
ചെന്ന
അയ്യന്
ക്കത്തയില്
കാരണ
സുഖപ്രസവം
ഇക്കാര്യം
ഗ്രാമം
എത്തുന്നു
മഞ്ചേരി
ശൈഖു
ഗാലക്സി
##യിലേക്കുള്ള
ഫയര്
കമന്റ്
##ക്കൊ
പ്രതീക്ഷിക്ക
ആവേശ
സമൂഹം
ആരോപണ
ആദരം
എത്തും
ബൈജു
പ്പെടുത്തിയ
സന്ധ്യ
ശക്തമായി
സ്റ്റേഷൻ
ജനങ്ങൾ
ഇടിവ്
പ്രാർത്ഥന
പുര
ഹെൽത്ത്
ബാഗ
പ്രവർത്തകൻ
നാരായണ
##ർച്ച
മണിക്ക്
സ്വീകരിക്കുന്ന
കാഷ്മീര
മണ്ണാര്
##ക്കാണ്
മൂക്ക
മന്ത്ര
##റ്റര്
##പതി
ഇസ്ലാം
##മ്പ്
##ക്കുകയും
പ്രതിഭ
മേനോൻ
അവസാനിപ്പിക്ക
ആരോപണവുമായി
റിമാന്
##േല്
ഹോസ്പിറ്റൽ
ഉദുമ
നിമിഷ
സിയാറത്
അബ്ദുല്ല
##ൊന്നു
ക്വിസ്
സമ്മര്
നഗരസഭാ
സയ്യിദ്
##യുമായുള്ള
കേസ
ഉണ്ടാക്കുന്ന
##പാദ
രൂപവത്കരിച്ചു
തിരിച്ച്
വികാര
കൊച്ചിയിൽ
എക്സിക്യൂട്ടീവ്
കാണിച്ചു
സൈറ്റിൽ
സ്ത്രീകൾ
വ്യവസായി
##വരുന്ന
രാജു
കണ്ണൂരിലും
കൂള
ഹരിത
##ാത്സംഗത്തിനിരയായ
##മേൽ
ചെയ്തിരുന്നു
##ാനു
##പ്പുറം
ഗുണം
അദ്ദേഹത്തിന്
മത്സരത്തില്
കാട്ട
ബ്ലാസ്റ്റേഴ്
വായിക്കാം
##ങ്ങളെയും
താത്കാലിക
ട്രോള
സൂര്യഗ്രഹണം
നബി
പ്രസവ
റബ്ബര്
മലയാളികൾ
##യാവ
##ന്മാരുടെ
പട്ടിണി
വെക്ക
അപ്പോൾ
അംഗം
##കന്
##ിങ്ങ്
മോഡല്
നവീകരിച്ച
രേഖകള്
അറിയുന്ന
##കളുടെയും
അമ്പരന്ന്
കോട്ടയത്ത്
ക്കിടയില്
സ്റ്റേഷനിൽ
കുവൈറ്റ്
മേയർ
പിന്തുണച്ച
മുള
ഡാറ്റാ
കയ്യ
##ുന്നതായി
സ്പീക്കർ
കാലമായിട്ടു
പ്രസ്ഥാന
ദേവി
നിർത്തുന്നു
ഫോർ
രക്തം
തിരിച്ചറിഞ്ഞ
സായാഹ്ന
##ാദി
ഇന്ത്യയും
സിഐ
ബലിത
ഒരിക്കല്
ആത്മീയ
വന്നതോടെ
##ഹാര
കാനഡ
ആനന്ദകരമായ
നഗരസഭയുടെ
സമാപന
ഉണ്ടാവരുത്
ജ്ജ
തണുക്കാത
വട്ടിയൂ
കണ്ടാല്
സ്ത്രീകളെ
ഇടി
##പെ
തൈ
##ഗാ
##മാണിത്
വിളിക്കുന്ന
റിലീസ്
ചിരിച്ചു
റര്
കാമുകനെ
ഗഗൻയാൻ
സെന്റർ
വിജ്ഞാന
തലസ്ഥാനമായി
കാര്യത്തിൽ
തെളിവ
##ാകുമോ
കണ്ടെത്ത
പൂര
##ക്കാരന്റെ
പീഡന
കത്ത
കടന്ന്
##ാളി
ഗ്രഹണം
ഭക്തി
ചുവന്ന
പ്രായമുള്ള
##ടിച്ച
ചുമലിലേറ്റി
ത്തക
ഭരണം
അത്തരം
മാരുതി
##പ്പോഴും
ഡെലിഗേറ്റ്സ
ബിന്ദു
ഷങ്ങള്
ാമത്
##കൾക്കു
##ബെ
ബിനോയ്
##ാനോ
മാറ്റുമെന്ന്
കോളനി
മറുനാടൻ
താരങ്ങള്
ജയില്
ശാരീരിക
ബോക്
പതാക
##ക്രമ
പറയും
നേരിട
എനിക്കു
ശാസ്ത്രീയ
ഉള്ളത്
യുഎപിഎ
ഇനങ്ങളിലായി
##പ്രതി
എന്തിനാണ്
പരിശോധിക്ക
##വിട
നിർദ്ദേശം
ട്രെയിന്
പ്രമേഹത്തിന്റെ
മഹാശിവരാത്രി
ഫെസ്റ്റ്
നിലവിൽ
##സേന
ഹദീസിന്റെ
കണക്ക
പകുതി
വ്യാജചിത്രം
ഏറ്റുവാങ്ങി
സോഫ്റ്റ്
##ുമല്ലോ
##പ്പെടുന്നത്
ഐഎ
ബോൾ
മിച്ച
ചങ്ങനാശേരി
ഷഹീന്
നൂതന
ആയുർ
സാഹചര്യം
പുളി
പാവ
##ിലേയ്ക്ക്
പിടിക്ക
പരിഗണിക്ക
ത്തുന്ന
എത്തുന്നത്
ഇട്ട
പുതുതായി
അസ്
ലിസ്റ്റ്
പ്രതിപക്ഷം
മനോഹര
കാന
##മുണ്ടായ
ചോദ്യ
##പ്പെടുത്തി
കാലാവസ്ഥാ
ജാഥ
##ലൈ
നാടന്
മുമ്പ
ഉത്തമ
##വിടെ
പ്പെടുത്തി
##ഫാ
ഹാള്
##ാലി
##െടുത്തു
വൺ
ബൈഹഖി
അരുവിക്കര
നാട്ടു
കുറ്റകരമാണ്
##ളം
ഇല്ലാതാക്ക
ഫണ്ട
ആരോഗ്യമന്ത്രി
തകർത്ത്
ജീവിതത്തിൽ
കൊണ്ടുവര
ഡിസംബര്
വാഹകർ
##േശ്വര
തെരുവ്
ഓണത്തിന്
ഫാത്തിമ
പ്രോയുടെ
കുറയ്ക്ക
കണ്ടെയ്
ഗൂഗിളിന്
##തിര
മണല്
ഇലക്ട്രിക്
വീഴ്
നേരത്തേ
പരാജയ
ഫോമ
ഡാന്
##ർജ്ജ
മുണ്ട
##േണ
##ല്ലാതെ
നെല്ലൂർ
ശര്
പിറന്നാള്
ഇരിക്ക
പുറത്തിറങ്ങിയ
അയച്ച
അടയ്ക്ക
കൊച്ചിയില്
##െത്തിയത്
റോഡിലെ
##കാലത്ത്
##ാത്തത്
##ഗിരി
ഭക്ത
##നഗര
എസ്എസ്
പ്രതിമ
പെട്രോൾ
പുറത്താക്കി
##ങ്ങളിലേക്ക്
എതിർ
ത്ര
##ബോ
അമ്പാടി
വ്യ
മലയാളിയുടേതല്ല
ഉപേക്ഷിച്ച്
കുറേ
എഴുതുന്നയാളുട
അതായത്
ശാന്ത
അപ
പാരമ്പര്യ
ബു
വരുത്ത
##ാമെന്ന
പ്രതിക്ക്
ഉയർത്തി
കേര
ശ്രീലക്ഷ്മി
സംഭവിച്ചത്
അതിവേഗ
ഞങ്ങള
കടല്
കൊടിയേറി
വ്യാഴാഴ്ച
മേഘാവൃത
ഫ്ര
പരീക്ഷണവുമായി
തേടുന്നു
##മയ
ദീപികയുടെയ
നിക്ഷേപം
കുടുംബങ്ങള്
ബൈക്കും
##ക്കല
ആഹ്വാനം
പൊലീസിനെ
സത്യപ്രതിജ്ഞ
##െത്തുന്ന
ദ്വീപ
കുഴിച്ചുമൂടി
പകര
മുമ്പിൽ
പറയാം
തിരിച്ച
ലക്ഷ്മി
##ഭാവ
##പരിശോധന
ശോഭായാത്ര
നിഷ്
##നാഥ
ആവര്
ക്ല
മധ്യ
വസ്തു
വരുമാനം
റാം
റദ്ദാക്കിയ
തസ്തിക
മാസ്റ്റര്
##ിരിക്കും
ഭഗവതി
##കഴിഞ്ഞ
##ക്കടവ്
കാണുന്നത്
ശതമാന
പോകാൻ
സ്പര്
##ഠ
ബാധിത
ആരാണ്
നിർമിച്ച
##ിയായ
ജീ
പൊന്
##ട്ടാ
അധികാരം
സഹായത്തോടെ
കോം
##ുവെന്ന
ആര്യ
നര
##യാക്ക
കളിച്ച
##െൻഡർ
പറയാത്ത
ഭരണഘടനാ
ഇതിനെ
##ഗി
യോഗത്തില്
കവർന്ന
തോക്ക്
പുക
ട്രേലിയ
വിശ്വകര്
ഇറാന്
അറിയപ്പെടുന്ന
ഇരിട്ടി
എടക്കര
##യിലെത്തി
കോളേജ
പാകിസ്താന
പോകുന്നു
താഴ്
##ർജ
തടസ
##കളിലേക്ക്
ദ്ദേശം
യുഎഇ
സ്ഥാനത്ത്
ചാക്കോ
ഇറങ്ങ
##ധന
ബിൽ
##ത്തോളം
പ്രഖ്യാപിക്ക
മാപ്പില്
അദ്ധ്യായം
ശിശു
ശ്രമിക്കുന്ന
വെളിച്ച
ത്താവിന്റെ
മധു
വയല
മീഡിയയില്
##കളോട്
നേതൃത്വ
നൽകും
സ്പ
കസ്റ്റഡിയിൽ
അവകാശം
##മെന്നും
ടാറ്റ
##ടോ
ഇരട്ടത്താപ്പ്
സിനിമയിലെ
ഡോക്ടറുടെ
ഒരിക്കൽ
കഴുത്തറ്റ
അന്വേഷണത്തിന്
##സിയ
##ുന്നതു
##കൃത
വഞ്ചി
കുറിച്ചുള്ള
ശരത്
കാലാവധി
നഷ്ടപരിഹാരം
മലകളിലൂടെ
നാമ
##ത്തല
ഫ്ല
##ധി
സ്ഥാപക
കളിയിക്കാവിള
##മ്പി
തയ്യാറാക്കിയ
ലഭിക്കുന്നത്
##പ്പെടുത്തുന്ന
##യെല്ലാം
വിപ്ലവ
സ്വപ്നം
തോന്നിയത്
##ക്കാലം
ചെലവ്
കായല
പാലാരിവട്ട
വികലാംഗരായ
##ാട
തരുന്ന
ടാങ്ക
ഏപ്രില്
ഭാഗത്ത്
##ുണ്ടാകുന്ന
തെരഞ്ഞെടുത്തു
##ൊര
##കൂട
അഖില
ക്ലബ്ബ്
രോഹിത്
വീട്ടിലെത്തി
സൗജന്യമായി
സർവ്വ
നദി
ബാങ്ക
മേയ്
ഗെയിം
സ്വാതന്ത്ര്യം
താന
ജീപ്പ്
വാക്കുകൾ
പ്പ്
കരണ
##മാണോ
##ട്രോ
##നിര
പങ്കാളിയായി
##പാല
ഷികാഘോഷം
അറിയില്ല
കടുവ
ചാര
അനുഭവം
ഇറങ്ങിയ
നവോത്ഥാന
കമ
ഡാറ്റ
ശേഷി
സ്കൂളിലെ
സമാനമായ
അരുൺ
നമ്പർ
തിരുത്ത
ഇടം
ട്രോളി
##മൊഴി
ഹാര്
മലയാളത്തിലെ
വ്യാപക
ഉണ്ടാക്കിയ
പിക്
പാക്കിസ്ഥാൻ
ദേവാലയ
ഭാര്യയും
##വർഷം
##മത
മുളന്തുരുത്തി
ഗതാഗതം
##പ്രദ
കയ്യടി
വിപണന
സുന്ദര
വിക്കി
സന്തോഷ്
##സംഘടിപ്പിക്കുന്ന
##ുപോയ
ശിച്ച്
കൊറിയ
അജിത്
അതുപോലെ
##യൊരു
ക്ര
ജീവന
##ീഷ
തള്ളിയ
സമാപനം
ശിവന്
മരിക്ക
വകുപ്പിന്റെ
പെര്
##രേഖ
##ക്കാം
സ്റ്റാ
##കളിലൂടെ
ക്കാണ്
അതും
കുറച്ച
ഒഴിപ്പിക്ക
##കൈ
ഡാ
കുന്നത്
ലീ
##ത്തുന്നു
ചോദ്യത്തിന്
##റിയാതെ
എയർടെൽ
പിന്തുണയുമായി
##ബ്ര
പ്രതികരിച്ച്
പാല്
പ്രതികൾ
##തിന
സംസാരിച്ച
കൃത്യമായി
എൻട്രി
സാധിക്കും
ഓഫീസിന്
കാറ
വാര്യര്
കപ്പ്
ക്രിസ്മസ്
കുര്
നിരോധന
##ിയ്ക്ക
ശേഷമാണ്
നിവാസ്
പ്രണവ്
വിമർശനവുമായി
സമുദായം
പലവിധം
ഉണ്ടാകുന്ന
റോഡിന്
അമ്പല
##തിനും
പോലീസിന്റെ
##ഭ്യ
വല്ല
##ജു
കുപ്പി
വാര
അദ്ദേഹത്തെ
##ചാ
കളക്ടറുടെ
ഡയറക്ടര്
ഐശ്വര്യ
സീന
നമസ്
യോഗ്യത
ഫൈനൽ
ക്കുന്നത്
##ിനെക്കുറിച്ച്
സഞ്ചരിച്ച
##മെന്റ
ക്രൂര
മീന
പുറത്താക്ക
നിരീക്ഷണത്തില
നാട്ടുകാരും
പുറമെ
മലബാര്
ഡെസ്റ്റിന
വരുത്തി
അല്പം
മോഷ്ടിച്ച
പാദ
വധക്കേസില
##പ്പെടുത്തിയ
എസ്സില്
ദീപിക
ഫോറ
പങ്കെടുക്കുന്ന
##സ്ഥല
നെഹ്
##ീസ
നീള
പോലീസിനെ
കാള
ചൂണ്ടിക്കാട്ടി
ശുശ്രൂഷ
നാടെങ്ങും
ഹർത്താൽ
ബേങ്ക്
എന്തായാലും
##പൂ
ചി
ഇടതു
പൗണ്ട്
##വർഷ
##ക്കണ്ട
മകന്റെ
അതിനാല്
തകർന്ന
നശിച്ചു
കൃത്യമായ
ശ്രീരാമ
അംഗങ്ങള്
കണ
നര്
നിർത്തിയ
##ുന്നതില്
##ിൽനിന്ന്
നഗരത്തിലെ
പട്ടികയില്
കളക്ടറേറ്റ്
മടങ്ങ
കന്യാസ്ത്രീ
##വൽ
ശരീരത്തിൽ
##ിംഗ
##തെങ്ങനെ
ഈടാക്ക
ചെയ്യപ്പെട്ട
ലഭ്യമാക്ക
പൊങ്കാല
മദ്റസ
ഫഹദ്
ഗീയ
##േൽ
ആശയങ്ങൾ
വനിതകള്
ബ്രഹ്മ
എന്ത
രാജ്യദ്രോഹ
പ്രധാനപ്പെട്ട
റൂം
നിയമനടപടി
പരിപാടികള്
വടക്കഞ്ചേരി
പ്രൊ
നടത്താൻ
റവ
ട്വന്റി
ആനന്ദ
തിരക്ക
പ്ലാന
മോഷണ
പ്ലാന്
ഉന്നയിച്ച
പുരസ്കാര
കലാപത്തിൽ
കരമന
ഗി
ഇബ്രാഹിം
ണയിക്കുന്നതില്
പരിഷ്കരിച്ച
രാജീവ്
പത
##ിക്കേണ്ട
##വായ
##ക്കേസ്
മോഡൽ
നാടൻ
തൊഴില
നടപ്പിലാക്ക
##റിയാം
പ്രവാചകന്
##േണ്ടതുണ്ട്
##ബ്ബ
##ദ്ദ
ഇതൊരു
ചോര്
##ദ്യ
ഉണ്ടാവ
വാഹനങ്ങൾ
ശൈലി
##ക്ത
ഡിന്
കൂട്ടു
മൂ
ചതുര്
##ക്കാതെ
ഓസ്ട്രേലിയ
കൃത
പുറത്ത
ബാധിക്കുന്ന
മത്സ്യബന്ധന
നയിക്കുന്ന
അറേബ്യ
കർണാടക
##േണ്ടതില്ല
ഉച്ചയ്ക്ക്
ഐക്യവേദി
വ്യാപകമായി
വീടുകൾ
ബഷീര്
വെള്ളാപ്പള്ളി
രാജ്യാതി
പ്രക്ഷോഭം
മൂന്ന
അയോധ്യ
ബെഹ്
എങ്കില്
ആയിരം
ശ്രീനിവാസ
അനുമോദിച്ചു
##ിനെതിരേ
രംഗ
ഒഴിഞ്ഞ
പണിയ
##റ്റിൽ
തീയേറ്ററ
ദിനത്തിൽ
ആസ്പത്രി
##ലാജ്
അംഗീകരിച്ച
ചേർത്ത്
മണ
ചോദിച്ചത്
പ്പറേഷന്
ഇടിഞ്ഞു
##ാണെന്ന
കാഞ്ഞിരംകുളം
തീപിടിച്ചു
സ്വന്തമായി
ജീവി
മിഷൻ
സ്വന്തമാക്കി
വാരഫല
കേരളീയ
ദീപ
##ശേരി
ശബ്ദം
അതിനാൽ
നായകന്
##ാണിത്
ഷായുടെ
പദപ്രയോഗങ്ങളും
വിദ്യാ
അദ്ദേഹ
തിളങ്ങി
ഉടനെ
##ോൺ
പേയാട്
ആഘോഷിക്കുന്ന
പോൾ
ജീവിക്ക
പുറത്തുവിട്ട്
ഒന്നിന്
ഉയര
ബസ
##ക്കൾ
സംഘടനയുടെ
##യെന്നു
കിൻ
പൊലീസും
ഫാന്
കാപ്പി
വെടിയുണ്ടകള്
##പിള്ള
ഡിവൈഎഫ്ഐ
കൊടിയ
##മാക്കുന്ന
മനോഹരമായ
ഫസ്റ്റ്
ഡെപ്യൂട്ടി
ആണോ
കമ്പി
സുല്
ഇനോക
സണ്ണി
ആശ്വാസം
ഇടിച്ച്
സാഹചര്യത്തിൽ
ഹെൽത്ത്കെയർ
നിറസാന്നിധ്യമാക
താപനില
##മര്
പൂജാരി
ലക്കം
കറ
##യോടുള്ള
സഞ്ചാര
മനസ്സിലാക്ക
##തായ
മൂവി
കാറും
ടെലഗ്രാമില
അംഗത്വ
പരിപാടികൾ
ഭാരതീയ
ട്രി
വളർത്തുന്ന
മംഗളൂരു
ദൂര
രണ്ടും
##ദിനാഘോഷം
രാശി
ജാമ്യാപേക്ഷ
ജീവിതത്തില്
##നാക
ബന്ധുക്കൾ
പ്രതിയുടെ
##പ്പുഴ
മടക്കി
##വീണ
മോശമായി
നടത്തണം
##ാകെ
ബിരുദ
നിറഞ്ഞു
നൈറ്റ്
സമ്മാനിച്ചു
പൊള്ളൽ
അവതാരകയ്ക്ക
പൊക്കി
അനുഗ്രഹ
ദൈവത്തിന്റെ
ക്ഷീര
നിർണായക
##തിലും
സെക്രട്ടേറിയറ്റ
##ിക്കുന്നതിനിടയിൽ
നഗരത്തിൽ
##ീകരണ
##ുന്നവര്
##ില്ലെന്ന
വിക്കിഗ്രന്ഥശാല
##ുകളിലും
##ാവസ്ഥ
ഒരാളെ
ഇന്ത്യയിലെത്ത
##ക്കാന
പ്രോത്സാഹിപ്പി
##ർണ
സംരംഭത്ത
ബീച്ചിൽ
താരങ്ങൾ
##ബു
##വുമ
ണയ
ഗായക
##ന്തി
ഗ്രന്ഥശാല
ബിജെപിക്ക്
മറ
അറബി
##സ്വ
##പ്പോഴാണ്
ലൈസൻസ്
കവർ
ജില്ലകളിൽ
സുഹൃത്ത്
##കൻ
ഒരൊറ്റ
##തു്
ഹൈദരാബാദ്
##ാദ
ഖാൻ
ചെറുപ്പ
##ക്കാനുള്ള
വയസുകാരി
കാഴ്ച്ച
സമ്മേളന
മാറുന്ന
##രാജ്യ
ഉത്
##ക്കെതിരായ
നോവല
വിലയിരുത്ത
ഒട്ടും
സെപ്റ്റംബർ
റിസര്
ശാല
##സംഘ
റോമ
##ണേ
ഡിലീറ്റ്
##ുടേത
##ൻഡ്
തികച്ചും
പരിഗണന
##ുകളിലെ
വിപുലമായ
ആവശ്യമുണ്ട്
എത്രയും
ഭരണാധികാരി
പ്രകടന
കിളി
##വുമില്ല
ഷഹീൻബാഗ്
കുഞ്ഞിന്റെ
പാറശ്ശാല
വേറിട്ട
##റ്റോ
അനുസരിച്ച്
ഒക്ടോബർ
കൂടും
നാലിന്
അന്നത്തെ
ആത്മഹത്യയിലേക്ക
മുരളീധരന്
രൂപയാണ്
അധ്യക്ഷന്
##ദന
ബന്ധുക്കള്
##ുണ്ടെങ്കിലും
പ്രേരണ
##ടിച്ചു
##ദിവസം
##ഭി
പ്പിച്ച്
റേ
മേനോന്
തൊഴിലാളികളുടെ
##ഞ്ജ
വൃദ്ധ
താമസിച്ച
കെഎസ്
സ്മൃതി
അബുദാബി
##മിന
വാര്യർ
##ൊരുക്കി
അവസര
ഹാരി
ആക്
##ുകളാണ്
താങ്കൾ
പ്രകാശ്
നമ്മള
ടെലികോം
പാചക
സമാജം
ബംഗളൂരു
വാങ്ങും
##ിയില്
##ങ്ങൾക്കും
എന്തോ
പിടിച്ചെടുത്തു
##തയുടെ
അതിന
##മാകുന്ന
നവംബർ
##ുള്
സീരിയ
ചക്ക
പടര്
എങ്ങനെയാണ്
മഴയ്ക്ക്
##ങ്കര
കുറ്റപത്രം
നശിപ്പിച്ചു
അഭി
ചിലര്
ഗീസ്
തണുപ്പ
##ുണ്ടായിരുന്ന
ഇഷ്
ഹിറ്റ്
സമീപത്തെ
##ിക്കപ്പെട്ട
ഗോള
ഭാരത്
##ത്തോ
ജയിലിൽ
പൊട്ടിത്തെറി
മനസ്സില്
ഡയറക്ടറ
ഗ്രൂപ്പ
##വർക്കും
ക്കാട്
ആണവ
##മാത്രം
ലേക്ക്
##ുന്പോൾ
അധ്യക്ഷത
##ക്കാഴ്ച
കാശ
മക്കള
##നുമായ
ലേ
ട്വീറ്റ്
##കൃഷി
കുതിര
അങ്ങിനെ
തുടർ
പലതും
സെൻകുമാർ
പോവ
##നാട
എങ്ങിനെ
വായനക്കാര
ആഗ്രഹ
വട്ട
നല്ലൊരു
##ാസ
##കാരി
##പ്രദേശ
അതിഥി
##കൂ
സാഹചര്യ
യേശു
യുകെയില്
ചടങ്ങ
രാ
ഒന്
##േറിയ
അറസ്റ്റിലായ
രാജാവ
വിശ്വസിച്ച
##പ്പുറത്ത
ഉണര്
പ്രീതി
കറി
##പ്പിച്ച
തൊട്ട്
കോംപ്ലക്
##വിട്ട
##ാകുന്ന
മുടക്ക
എന്നിവരാണ്
കമല്
ഹരിയാന
##ണിയ
ലീഡ്
മോര്
വിപണിയിലിറങ്ങി
പര്യ
ലിറ്റര്
##സര
തെറ്റായ
തുടരുന്ന
കന
ഗായിക
പരിപാലന
വാമ
കിലോമീറ്റര്
പോകാം
ബൈബിൾ
തുടക്ക
കല്ലേറ്
നടപ്പാക്കുന്ന
##ശു
മാതൃകയായി
കപിൽ
##നയിക്കപ്പെടാം
പ്രചരണ
തിന്ന
##ിക്
##ൊപ്പം
##തിരെ
മുപ്പതു
##പ്പുര
രചിച്ച
സമാന
ഘട്ട
സൂക്ഷിക്ക
നശിപ്പിക്ക
മനസ്
സഞ്ചാരം
ടെന്
ലക്ഷത്തോളം
പോസ്റ്റർ
രമ
ക്രീ
രമ്യ
ലൈൻ
നീര
മുന്നേറ്റ
##മുട്ട
സമ്മേളനവും
സ്മാർട്ട്
കോടികൾ
##കുമാര്
കൂളിലെ
##തിയ
പ്രശാന്ത്
ചോദ്യങ്ങൾ
ഹു
##യിന്
കോയമ്പത്തൂരിൽ
നിരോധനാജ്ഞ
മാവേലിക്കര
യാത്രക്കാര
ലളിത
നോട്ടിഫിക്കേഷൻ
സ്റ്റാർ
പത്ത
##വേഷ
നിലവിലുള്ള
ഒന്നിച്ചു
യുവതിയും
##ുന്നതിൽ
ഹൈക്കോടതിയുടെ
പമ്പ
ത്രി
##മ്പു
തന്ത്ര
ഡിജിറ്റൽ
റവന്യു
സംവാദം
##വ്യ
##യിൻ
ടെന്നീസ്
പ്രതികളുടെ
പ്രദേശ
പ്രതികരിക്ക
ക്യൂ
ഇതെന്ത്
അടച്ച്
ക്യാമ്പ
ആശ്വാസ
ഉപേക്ഷിച്ച
##ിലെത്തി
അമ്പ
എമ്മിൽ
##വരെയും
##നായിരുന്നു
##ോടുള്ള
ബദിയടുക്ക
സന്ദീപ്
ശതമാനവും
വസ്തുത
ആത്മാവ
പ്രസ്തുത
മൂത്ത
##വാസ
പരാജയം
ഉണ്ടാക്ക
##ബൈ
മുഖ്യപ്രതി
സ്മരണ
പഞ്ചായത്തില്
വായിച്ച്
മാള
##ന്മാര
അടൂർ
ആർത്തവ
അടിസ്ഥാനമാക്കിയ
##ശേഷി
കലാപത്തില്
##ുകയുണ്ടായി
കഥാപാത്ര
##താവ
##ിയാ
ജീവപര്യന്തം
കൊണ്ടുപോക
##മാരായ
വാസ
വെളിച്ചം
വളര
##ോപ
മുദ്ര
എടുക്കാൻ
പട്ടി
റൂട്ട്
തൊട്ടു
സിറ്റിംഗ്
പരിഗണിച്ച
സ്ഥിര
##തേടി
##കുല
രസ
എന്നൊക്കെ
കണ്ണൂരില്
##ില്ലെന്നു
അതിരൂപത
നവംബര്
##തിരി
##ഫോണ
ചു
ഒക്ടോബര്
വീസ
##നിറ
പങ്കാളി
പാർ
ബാധ്യത
##ിലാ
അവസാനിപ്പിച്ച
ബുക്ക
കോട
തോന്നുന്ന
തടവ്
##ശാ
മാലി
കഥാ
വിമർശനം
ഫുക്രു
സിനിമയില്
നും
പോസ്
ബോളിവുഡ്
##കൊള്ള
ഒരാഴ്ച
ക്രമക്കേട്
ഓണക്കോടി
കാണുന്നു
ദിവസങ്ങളിൽ
അനന്ത
മരണപ്പെട്ട
ഉണ്ടായത്
ഇന്ത്യക്കാരെ
ശനവുമായി
പ്പിക്ക
ഹൈസ്കൂൾ
##ുവാനുള്ള
ഹരജി
##യാകുന്നു
##മൂല
കാണാത്ത
സ്കൂളുകള്
##യിട്ട
മലയാളത്തിൽ
അക്കൗണ്ട്
ഉണ്ടാകും
##െതിരെ
##ുമുണ്ട്
കൊന്നത്
മറ്റൊരാള
##ജീവിത
കാത്തിരിപ്പ്
കെപിസിസി
ലൈബ്രേറിയൻ
കോഡ്
വ്യക്തമാക്കുന്ന
ജീവിതത്തിലെ
ചുറ്റും
ഓഫീസില്
##പ്പാല
വൈകിട്ട്
ടീമിന്
ക്കാവ്
കളയ
##ിലേ
കേന്ദ്രീകരിച്ച്
കരഞ്ഞ
ഗൾഫ്
##നാട്ട
##ണ്ടേ
വൈദിക
##പ്പണി
സഹോദരന്
കമന്റ
പ്രേമ
പീഡിപ്പിച്ചു
വാട്ട്
വരുത്തിയ
##ച്ചിറ
ശി
ഉപയോഗിക്കുന്നത്
##ങ്ങളെല്ലാം
ദിനത്തില്
ഉടനടി
കാത്തിരിക്ക
സംസ്കാര
സങ്കട
ഏറ്റെടുത്ത
വീര
ലാഭം
##കുന്ന
തുണി
##ക്കള്
സിദ്ധ
##സംഘടന
ഇമ്രാന്
ലക്ഷത്തിലധികം
മാതൃ
മോട്ടോർ
രവികുമാർ
ലൈന
##ാണെങ്കിലും
##ശ്ശ
കൊന്ന്
സംഖ്യ
ബെംഗളൂരു
അറ്റ
പട്ട
കുട്ടികളും
ഒരേയൊരു
വിര
##ീവ്
ലേഖന
പങ്കെടുത്തു
മയക്കുമരുന്ന്
തീപിടുത്തം
നേതാവിന്റെ
ദിവസങ്ങൾ
##ാംഗ
പ്രളയത്തിൽ
ആണ
മാറ്റങ്ങൾ
##ഡിയ
##പിച്ച
നാണ്
##ലൂ
കോടതിയുടെ
##ടുപ്പ
വളരെയധികം
ചേർക്ക
രാമായണ
##ോര്
ചീ
##ന്തു
സമാധാനം
##ിലധികം
വിശേഷ
ബോഡി
ഉറപ്പ
##ാപ
യോ
വീഴ
ഭൗതിക
നിരോധിച്ച
പരിചയ
പഴം
സംഭാഷണം
മന്ത്രിസഭ
വാതക
എല്ലാവരെയും
ജെറ്റ്
ഉമ്മന്
##ർത്ഥ
##ധ്യ
ലൈ
മുത്തേ
ചെടി
കുറ്റമാണ്
പോകും
ഉറക്ക
##മന്
സ്വകാര്യത
സൗകര്യ
##യോടും
##തെന്നാണ്
ഹിന്ദുത്വ
ടെക്നോളജി
ചെയ്യാനുള്ള
ഇടയ
പഠിക്കുന്ന
പിൻവലിച്ചു
ന്യൂസിലന്
ബിജെപിയിൽ
പേജ
##ുമെന്നു
കൊണ്ടുള്ള
##ദ്ര
അപ്രതീക്ഷിത
ക്ഷമ
കഴിവ
ഗീത
മാതാ
##ഭവന
മൃതദേഹ
അഭിനയിച്ച
ട്രായ്
##എംഎ
സമാപിക്കും
സൃഷ്ടി
##ല്ലാ
മാതാപിതാക്കള്
കല്യാണം
തീരുമാനിക്ക
ശ്രദ്ധിച്ച
ലണ്ടന്
##ുവിന്റെ
മസ്
കുട്ടികൾക്ക്
ണവില
പുഞ്ചിരി
പങ്കു
മാവോയിസ്റ്റ്
നൽകുന്നത്
പാമ്പ്
കുറ്റവാളി
##ലം
ഷികവും
രേഖപ്പെടുത്തി
ഗോകുല
അറിയാത്ത
സമുദ്ര
കഴിച്ചാല്
ഓഫീസിൽ
സച്ചിന്
ഓപ്പൺ
ബ്ല
##വിധി
പുറത്തുവന്ന
മറ്റ
##മിട
നടപടിയെടുക്ക
പൊലീസ
മറു
##ാതിരിക്കാന്
പ്രപഞ്ച
തെരഞ്ഞെടുപ്പില്
എങ്കിൽ
നൃത്ത
ഗുരുതരമായ
ദേവനന്ദ
ജീപ്പ
റെയ്
ജയരാജൻ
##റ്റില്
പുറത്തേക്ക്
ചേർന്നു
പൈതൃക
മാറും
പൂട്ട
സാങ്കേതികവിദ്യ
##ക്സ
പറ്റുന്ന
##ാവൂ
##ത്തോടൊപ്പം
കണ്ണൂരിലെ
നോക്കുന്ന
##ച്ചത്
##ൂരിൽ
റദ്ദാക്ക
അഹമ്മദ്
##സൈ
മികവ
ദീര്
പടിഞ്ഞാറ
##രക്ഷ
മധ്യസ്ഥ
പട്ടണ
ഡ്രൈവറെ
വിശ്വസിക്കുന്ന
നൈ
സംഘടനകളുടെ
മുത്ത
ചടങ്ങില്
നാവായിക്കുള
റഷ്യ
ഏല്
നേരിട്ടു
ആയുധ
മിസ്
##േജ്
പാഷൻ
എല്ലാവര്
കണ്ടില്ല
നിറയെ
മസാല
##ബറ
പ്രത്യേകത
പെണ്ണ
ചീമേനി
തിരിച്ചറിഞ്ഞു
പാവങ്ങളുടെ
##ിനെതിരായ
വന്നപ്പോൾ
അലക്
കാത
സഖാഫി
ജേതാക്കള്
വിവാദമായി
##സ്യ
##ൂടെ
##ക്കാരി
##ങ്ങനെ
ഇരട്ടി
ജീവനക്കാർ
നേ
തുല്യ
അസാധാരണ
##ചിന്ത
യന്ത്രം
##ഗണ
##ുമാറ
ക്രോസ്
##വച്ചു
തൂ
##മാറ്റി
##ങ്ങും
ഓപ്പറേഷന്
സ്ത്രീകളും
മ്യൂസിക്
ടേ
##ുട്ടികളുടെ
ചട്ട
ലക്ഷ്യമിട്ട്
സഞ്ജു
##റൈ
സൈറ്റ്
ചുറ്റി
ചുമത്തി
കൂളിൽ
നോട്ട
കൊള
പ്രയാസ
തറ
##േഴ്സ
ഡ്യൂട്ടി
##ിക്കാനുള്ള
കൊടുക്കാൻ
അഥോറിറ്റി
രംഗത്തെ
##ക്കാരന
##ലാണ്
പട്ടിയെ
##ിറങ്ങ
താക്കറെ
വേഷ
##യ്ക്കുന്ന
പോലീസ
കുണ്ണ
തടവും
മാനേജര്
##ാത്മക
താഴേക്ക്
അയക്ക
വീണ്ടു
ഫോണ
##യില്ലെന്ന്
കൊണ്ടുവന്ന
എട
##െടുക്കുന്ന
ശ്രദ്ധിക്കണം
ടീമില്
പ്രചരിപ്പിച്ച
ചുമന്ന്
പൂർണ്ണ
##ഡു
##ർപ്പ
ബാഹുബലി
##കൊടുത്ത
ഓണാഘോഷ
സുജോ
##ശ്രീ
##ണമെന്നു
അമിത്ഷാ
##റ്റിക്
ഭര
ബന്ധുക്കളും
സ്നേഹം
ശിച്ച
മൊത്തം
ആന്റി
വശ
കപില്
അവതരിപ്പിച്ച്
ആഭിമുഖ്യത്തില്
ഭേദ
വലിക്ക
##പെരിയാര്
ഉറപ്പുവരുത്ത
പട്ടികജാതി
ക്യാപ്റ്റന്
ഭ്രാന്ത
വയസ്സ്
വരിക
ആരോപിച്ച്
സച്ചി
ചിന്തിക്ക
##േറ
ചിത്രമാണ്
തിരുനാൾ
ദാരുണാന്ത്യം
##കയറ്റ
ദിവസങ്ങള്
ലഭ്യമായ
എത്തിയിരുന്നു
മൊബൈല
വ്യക്തമാക്കിയ
ചിറ്റ
പ്രത്യക്ഷ
മാരക
കോളര്
വരവ്
##ിട്ടില്ലാത്ത
സഹായിക്കും
അഞ്ചിന്
കാലഘട്ട
ബാറ
അന്നു
പാപ
##ോല
കാത്തിരിപ്പിന
നീക്കി
ചിത്രങ്ങള
പേജ്
സംഘടനകള്
വീട്ടില
മോഡല
വേണ്ടിയുള്ള
കാമ
തലവേദന
വാഹനാപകടത്തിൽ
##ർമ
നടപ്പാക്ക
##ീകരിക്ക
##ദാസ
ഭീഷണിപ്പെടുത്തി
ജനന
തെളിവ്
##ക്കാരനായ
ശ്രദ്ധിക്കേണ്ട
പ്രമേയ
സംസ്ഥാനതല
##സ്ഥാനത്ത
സിജി
ആദരാഞ്ജലി
##വന്റെ
##ീന
ഇഷ്ടം
അധ്യാപിക
തന്നെയോ
##വേദന
വഴിയിൽ
##പോർട്ട
ഗ്ര
##ിലോ
##കുള
##മൊരുക്കി
കുരു
റിപ്പോർട്ടിൽ
തന്ത്രി
മോട്ടോര്
നാഥ്
##പ്പൊ
ചുണ്ട
##പ്പെടും
##യില്ലാതെ
പശു
ഏഴാം
വേല
അക്ക
ഫൈനലിൽ
പങ്കെടുക്കും
തമാശ
മന്ത്രിസഭാ
ജൂനിയർ
സമ്പൂർണ്ണ
റിപ്പോർട്ട
പദ്ധതിയിൽ
ആരിഫ്
കാത്തലിക്
അദാലത്ത്
സൂക്ഷിച്ച
ഉപദേശം
##ക്കാണ
##പ്പോഴ
കിഡ്സ്
##യിലേക്കു
ശ്രദ്ധിക്ക
കണക്കുകൾ
സുവര്
##സംരക്ഷണ
##ദ്ധ്യ
പതിപ്പ
നേടുന്ന
മൃഗശാല
##പ്പടി
പരമ
##പ്പോയ
പിഴയും
##ബന്ധം
##യാന്
പ്രഭാത
##മേല്
വിമുക്തി
ശുചിത്വ
പുറം
എഴുതുക
കാണും
ധരിച്ച
##ിക്കണം
സൗമ്യ
##ഗ്രഹ
##മുണ്ടാക്ക
വിശാല
മൂന്നിന്
ആയിരങ്ങള്
##ുമില്ല
കടിച്ചു
ഫൈസി
ഇരിങ്ങാലക്കുട
വധിച്ചു
മതങ്ങൾ
പത്
സമ്മതിച്ച
തമിഴ
അന്ത്യ
വിമാനത്താവള
ചതി
തോറ്റ
വടക്ക്
അക്
ഗുണങ്ങള്
സൗന്ദര്യം
##േണ്ടതാണ്
##യാര്
ശ്രീജിത്ത്
എന്തും
ജീവിക്കുന്ന
മുത്തലാഖ്
ശിവകുമാര്
##ൊന്ന
ഉയർന്നു
ഉൾപ്പെടെയുള്ള
##മർ
അവള
ദിനാഘോഷം
##തന
##കളില
കൂറ
സന്ദർശിച്ചു
സദാചാര
##സ്വാമി
ഡയമണ്ട്
ആരോ
അതോറിറ്റി
##മാർക്ക്
നേർ
സ്റ്റാഫ്
##വച്ച്
മനുഷ്യന്റെ
ധാർഷ്ട്യത്തിന
അമേരിക്കയിൽ
വിജയിച്ച
പിലിക്കോട
കടലില്
വാർഷികം
ഓൺ
കാറ്റ
##താരം
വയ്യ
പാക്കിസ്ഥാന
ഡും
കിടന്നു
നാഗ
സ്റ്റോ
ദേവീ
ലുക്ക്
നാളികേര
ഡിസൈന
വർക്ക്
##ത്തുള്ള
മണ്ണ്
ഡീസൽ
##ത്തേയും
പ്പെടെയുള്ള
അഡ്
ദുബായിൽ
കൃത്രിമ
മടിക്കൈ
വായനക്കാരുടെ
പ്രവേശിക്ക
##ാർഥ
കോളജ
തടഞ്ഞ
മനുഷ്യര
##ക്കുറിച്ചുള്ള
ഭൂചലനം
വൈറലായ
സാന്ത്വന
കാണാതായി
നാട്ട
ലണ്ടൻ
ടീസര്
രണ്ടര
രചയിതാവിന
പൈസ
ബസിൽ
എന്നൊരു
##മ്ബ
സമിതിയുടെ
സംഗമ
##മ്മി
ട്ടിഫിക്കറ്റ്
ഇഷ്ടപ്പെട്ട
##ുകയില്ല
കീഴിൽ
##യോടനുബന്ധിച്ച്
കഷ്ടപ്പെട്ട
##ക്കണമെന്ന്
ദൃ
കപ്പ
രക്ഷാ
##ികളെ
സംഗീതം
ഉദ്യോഗസ്ഥരെ
മുട്ടി
ശീല
സംഘടനാ
രാശിഫലം
പ്രതാപ
##യാള
പ്രതിഫല
താരമായി
കാത്ത്
ഗ്രസ
ഓട്ട
നൂ
വാച്ച്മാ
സമീപിച്ച
കരുതുന്ന
അടിസ്ഥാനത്തിൽ
വമ്പന്
##െന്
ശിക്ഷാർഹമായ
##പോയ
##പ്രശ്
വിരാട്
പരിപാടിയുടെ
എന്നിവയ്ക്കെതിര
മാസത്തെ
##റപ്പ
##സമ
##ഷ്ഠ
അട്ടിമറിച്ച
യുവാവും
ബ്രെസ
അല്ലാഹു
കലോത്സവത്തിൽ
അടിച്ച
നിരാഹാര
സന്നദ്ധ
ഭരണകൂടം
##ഷനേഴ്
ലാണ്
കടമ
##ിച
വിശദമായ
ബൈൻഡർ
കീർത്തി
പ്രക്രിയ
##മല്ലാത്ത
കേരളകൗമുദി
തൊട
ഒഴിവാക്കാന്
തൃശ്ശൂര്
ഗ്ലാമറു
നിഷേധിച്ച
കടത്ത്
##സിസ്
നിശ
സാബു
റ്റോ
ഒട്ടേറെ
##ഞ്ഞ്
അടുത്ത്
ഉദ്ഘാടനവും
മുങ്ങിയ
##രൂ
വെളിച്ചെണ്ണ
കഴിക്കുന്നത്
ക്വാറി
ആഗ്രഹിച്ച
അനുഭവിക്കുന്ന
##കുമാര
ടൂറിസ്റ്റ്
പൗര
ഭിത്തി
തിര
കുറുകെ
കാമുകി
കീഴ
##എൽ
തിരുവോണ
ഇരിപ്പിടം
അഴിക്കുള്ളിലാ
മോശ
സ്ഥാപിച്ചു
പാകിസ്ഥാന്
ധനകാര്യ
കമ്മറ്റി
പന്ത്
ഫെബ്രു
അക്രമി
നരേന്ദ്രമോദി
രക്തസാക്ഷി
മണ്ഡല
വരവ
ആവേശം
സ്കൂളിന്
വേതനം
##ഞ്ചേരി
റിപ്പോർട്ടുകൾ
ഇരിക്കുന്നത്
പ്രോയും
ഗോൾ
പൊരുതി
ജന്
##പ്പിക്ക
മരണത്തില്
താളുകൾ
ന്നത്
അധ്യക്ഷൻ
സേവ്
##മെത്തി
ആയിരുന്ന
എന്നിവരെ
പ്രസിഡണ്ട്
##താണോ
##ജാ
അനുയോജ്യമായ
##കെട്ട
ലോറിയും
##ഘട്ട
വൈറ്റ്
വില്ലൻ
അറ്റകുറ്റപ്പണി
സംഭവിക്ക
ന്നാണ്
ക്ഷണിച്ച
വേണമെന്ന
കുഞ്ഞി
##കൾച്ചറൽ
സിഡി
ഗസ്റ്റ്
##ിട്ടുണ്ടോ
സ്വർണവില
ഏരിയ
##ുകാർ
ഇസ്ലാമിക്
കണ്ണ്
വാങ്ങാൻ
അക
പങ്കുവെച്ച
ഇയാള്
ബാലകൃഷ്ണന്
##ിലേക്ക
##വറ
നവീകരണ
ദുരൂഹ
വ്
നേതാക്കളെ
സഹായിക്കുന്ന
സാധിക്ക
ബിഷപ്പ്
മൂന്നാമത്തെ
മധ്യപ്രദേശ്
##സിഡ
ഗ്രസിന്
ഫോണിൽ
##കട
അവിഹിത
##പ്പോലെ
മതത്തെ
ഡ്രൈവറുടെ
സ്ത്രീയും
അല്ലേ
കണ്ണൂരിൽ
വിനോദ്
വിലയിൽ
ഹോട്ടല്
മായ
നമ്മെ
##ലിംഗ
##ളു
ആയതിനാൽ
##ക്കേസ
##കൊണ്ടിരിക്കെ
പ്രവാസികള്
ചടങ്ങിൽ
മഹിളാ
##ത്തിലേക്ക
കൂലി
##യുടേത്
രണ്ടാംഘട്ട
ബ്ലാസ്റ്റേഴ്സ്
ആഭ്യന്തരമന്ത്രി
##ഭരണ
കോളേജിലെ
##ഭാഗം
നിലച്ചു
അറിയിക്ക
ചക്ര
ആത്മഹത്യാ
ചിലർ
ചെയ്യേണ്ട
ഓർക്ക
സാധിച്ച
ന്യൂയോ
എഡി
റഹീം
##എന്
കൊണ്ടും
പരിശോധിച്ച
ചൂണ്ടി
മുൻപ
കോർപറേഷൻ
ജിഎസ്ടി
രാജിവെച്ചു
എമ്മിന്റെ
##വാദം
നിശ്ചയിച്ച
##ില്ലല്ലോ
വലിയൊരു
ഇടപെടൽ
ജാമിയ
കശ്മീരിലെ
മാറ്റമില്ല
പ്രകടനത്തിന്
സൂചിപ്പിക്കുന്ന
##ാതിരിക്ക
രണ്ടിന്
റിയൽമി
സ്ഥാപിക്ക
##എല്
പുഷ്പ
യഥാർത്ഥ
ഒരാള
##വാര
സിസ്റ്റം
പുലർച്ചെ
ഗ്രീന്
മനസ
##കൊണ്ടുള്ള
സുവിശേഷ
ആയിരിക്കും
##ിടുന്ന
സംസാര
ലീഗ
##മുണ്ടാക
വോട്ട
മുമ്പില്
സയന്
അംഗങ്ങൾ
ഒളിമ്പിക്
ദമ്പതികളുടെ
##പ്പുറത്ത്
##മേറ്റ
ഇരിക്കുന്ന
കണക്കാക്ക
##ീന്
കള്
##സർ
ജുലൈ
തരത്തിലുള്ള
അമേരിക്കയിലെ
കുത്തനെ
##ങ്ങളില
##ബര്
ബഹിഷ്
സമകാലിക
ഹനുമാന്
തോക്കുകൾ
ബാന
അനുവദിക്കില്ല
##യിന
തളര്
സ്ഥിരീകരിച്ച
ജമാഅത്ത്
പശുവിനെ
മാത്രമ
##ായാലും
വലുത
ഭരണി
##ഭാഗ
ആരോഗ്യത്തിന്
ഇന
ചെയ്തിട്ടുണ്ട്
##രഹിത
അജയ്
രക്ഷിക്ക
മുഴ
രചന
##യാർ
##ീര
റാണി
##േന്ദ്ര
##യൂട്ട
##ഹോ
##ൃത
ചെറുതോണി
ഇതിഹാസം
പഞ്ചായത്തിന്
തകർന്ന്
തിരഞ്ഞെടുപ്പ
ബജറ്റ
അബ്ദു
##ക്കേ
രൂപീകരണ
ഭാര
##കൊ
പ്രവർത്തക
ഹൈവേ
കിട്ടിയില്ല
അനുസ്മരണ
കുടുംബത്തിലെ
കുടുംബവും
പാട്ടു
പാത്ര
##നുമായി
ഗ്രന്ഥശാലാ
പുറമേ
ഖത്തറ
##ത്തിലേക്കു
എലി
##ടിഎ
ജീവനക്കാരെ
##നിന്നും
കിട്ടും
##വിഷയ
വർഷത്തിൽ
മണിയുടെ
ദുബൈ
നിർമ്മാണ
##ണ്ണി
പ്രളയം
മാതൃകാ
##ാഘോഷം
ഇരുട്ട
ടീച്ചര്
ഒറ്റമൂലി
ശസ്
ഗാര്
##മൊന്നും
കുത്തിത്തുറന്ന്
##വ്വ
ധർണ
കൈമാറ
##ാണു്
പൂർണമായും
മാറ്റാൻ
ഭാഗമായ
തിരിച്ചെത്തി
സാക്ഷരതാ
##ാലയ
പിൻ
##ത്താൽ
ആണെന്ന
##ലിനെ
ഉപ്പും
പ്പെടുത്ത
കണ്ടക്ടർ
ഭാഷയില്
##ിനാണ്
രാജ്യത്തിന്
ചിത്രത്തിലെ
ഡിപ്പോ
സുരേന്ദ്രനെ
മുന്നേറ
ജീവിതവും
ട്രംപ
ജനിപ്പിച്ചു
ച്ചില്
കഴുക
അളവ്
രജിസ്റ്റർ
പതിവ
കോല
ഏജൻസി
പറയുക
മുറിച്ച
റൈ
കാമുകിയെ
അതിർത്തി
മ്മിച്ച
വായ
കേന്ദ്രങ്ങളില്
ഉദയ
വിവാഹിത
ആദി
കൂട്ടം
നിക്ക
ഡോക്ടർമാർ
ലൂ
ജയിൽ
പുകയില
##ളവർ
##ക്കൂടി
യുവാക്കൾ
ഏതാണ്ട്
പ്രശ്നങ്ങള്
പ്രഖ്യാപന
പറന്ന
വിസ്മയ
ആന്റ്
ഞ
എംജി
##യുന്ന
എട്ടാം
വ്യാഖ്യാന
##രംഗ
ക്കെതിരേ
ഇസ്ലാമി
മുഖത്ത്
##മുണ്ടോ
പേരാണ്
##ിക്കൽ
ആക്ഷന്
കിഷ്
വലിച്ച
ശിഷ്യ
സില
അട്ടപ്പാടി
നിറയ്ക്കാൻ
ശ്വാസം
ഇൻസ്റ്റിറ്റ്യൂ
കെട്ടിയ
നകം
##ാനാവാതെ
കുഴപ്പ
##ുമ്പോഴാണ്
ക്രമ
ളാറ്റ്
അന്വേഷിക്കും
##ിലേക്കും
ഫ്രഞ്ച്
പരസ്യം
അറിഞ്ഞത്
ഫ്രാങ്കോ
മിസ്ഡ്
##ഓ
കരാറ
തുമ്പ
ന്യായ
##ണ്ടു
മോഹ
പ്രതികാരം
ചോദ്യങ്ങള്
മകളും
##തെല്ലാം
കുറുപ്പംപടി
##മായിരിക്കും
##ചരണ
##ുവാ
##േന
ബലാത്സംഗം
ട്രാക്ക്
ഫോം
##യൊരുക്കി
##ീകരിച്ച
വയനാട്ടില്
ചിത്രത്തിൽ
പറഞ്ഞിരുന്നു
##ിഞ്ഞ്
##ക്കം
സിയിൽ
പ്രവർത്തകരെ
##യാണിത്
ഘടന
രാം
മറിച്ച്
എക്സൈസ്
അടിമ
##ാന്തര
വരാന്
പത്രിക
##ാതിരിക്കുക
##വിധ
മുറിച്ചു
നങ്ങൾ
വിചാര
##നുസരിച്ച
പശ്ചാത്തലത്തിൽ
അതിക്രമം
കൂട്ടിയിടിച്ചു
നായകൻ
മന്ദിര
അനുബന്ധ
##പക്ഷ
##പ്രചാരണ
വിറ്റാര
ഐഡിയ
ഉൾ
മലയാളത്തില
എന്നായിരുന്നു
പ്രതിമാസ
വിശദീകരണ
കിണറ്റില്
ബോണസ്
ബലാത്സംഗ
ശ്രീജ
വടകര
ദാന
നഷ്
ഷമായി
കടക്ക
##റൂ
ഭംഗി
എടിഎമ്മ
മറികടന്ന്
ശരാശരി
മില്യണ്
പൂച്ച
##ക്കുവേണ്ടി
തെളിയിക്ക
കഴിയാതെ
##ക്കൂട്ടം
ടെലി
##സേ
മാറ്റങ്ങള്
ജന്മദിനാഘോഷം
നേത്ര
ബദിയഡുക്ക
സെമിനാരി
ടീച്ചർ
കമ്പനിയുടെ
ജയിച്ച
സിബി
ബഹു
##വിൻ
ഗുരുവായൂർ
ജീവനക്കാര
##ോണ്
ഗാന്ധിജിയുടെ
ഗതി
രക്ഷപ്പെടുത്തി
നർ
ഭരണകൂട
സ്ത്രീയെ
##ുന്നത
നഷ്ടമായത്
##ുവെന്നും
കുറ്റി
ജൂൺ
ആരു
അനില്
തലയിൽ
##ിരിക്കെ
ലേഡി
മുറിയില്
ത്രീ
സയൻസ്
##ന്മാരെ
ജസ്റ്റീസ്
##ുകളുള്ള
പ്രതിയായ
##വരോട്
അടുക്ക
അപേക്ഷകരുടെ
അഭിനന്ദന
പാക്കിസ്ഥാനിൽ
തകർത്ത
##മറ
മീര
##പ്പട
കണ്ടെത്താൻ
കോടതിയെ
മുന്നറിയിപ്പു
രൂപീകരിക്ക
##ത്രേ
സൗദിയില്
മുന്നോടിയായി
നെഞ്ചു
##വാല
ഒഴുക്ക
ബിന്
കുട്ടികള
ആഗസ്റ്റ്
##ക്കാട
മുതലെടുത്ത
റോള
##ൊന്നുമില്ല
ആർഎസ്എസ്
ക്ലൈമാക്
പ്രോഗ്രാം
##നല്ല
ഫോഴ്
ശുഭ
വംശജ
അസിസ്റ്റന്റ്
യുവി
ഹേ
കേസരി
നാരങ്ങ
പോലിസ്
ക്കറ്റ്
രേഖപ്പെടുത്തിയ
ശ്രീകൃഷ്ണസ്വാമി
സത്യാഗ്രഹം
വായ്പാ
##ഹര
##മായത്
##ുകൊണ്ടിരിക്കുന്ന
ആസിഡ്
കഴിഞ്ഞാല്
അഷറഫ്
കിട
ബ്ലാക്ക്
അയാളെ
തോന്നല
##വരിൽ
ഗംഭീര
വേഗത
നിരീക്ഷണത്തിൽ
പുല്ല
ഇദ്ദേഹം
കണ്ണീരോടെ
പുണ്യ
##ുന്നവർ
നല്കണം
ഉണ്ടാക്കി
തടസ്സ
##മുതൽ
തുടങ്ങിയത്
സഹോദര
ചെവി
കഷ്ട
##തെന്നു
ന്യൂസിലാന്
പതിവ്
##യമ്മ
##യൊന്നും
വരവേല്
ജനതാദള്
##മെടുത്ത
ഫുൾ
##നാവ
##ബ്രാ
മനസിലാക്ക
യോഗത്തിൽ
##യാളെ
ഇക്ക
അയ്യേ
മത്സരിക്ക
ആദായ
##ത്രി
എന്നോട്
ഓഫിസ
ഇലക്
വൈറസ
റൂമ
പനജി
ജമാ
തൊട്ട
വൈവിധ്യ
##യിട്ട്
##ിക്കാന
ജൂണ്
ആളുകളെ
ടീമ
യൂറോപ്പ
വിവരങ്ങളും
കാര്യമായ
റ്റ
നടപ്പിലാക്കുന്ന
##ബല
വധുവിനെ
ബാറ്റ്
വിവാഹത്തിന്
ആരെയും
##ാരി
##കളോടെ
##കഥ
##ത്തോട്ട
ഉസ്താദ്
മട
സ്വർണ്ണ
ട്രല്
വീട്ടുകാരുടെ
നെയ്യാറ്റിൻകര
വരണ്ട
##ക്കാർക്ക്
##റ്റെ
മനുഷ്യന
ആർട്ടിക്കിൾ
ആഹാര
##േദ
പൊതുയോഗം
ആല്
സാര
ചത്ത
വാട്ടർ
##പടി
##ഫീ
വായിക്കുക
പരിഭാഷ
കളിക്കാര
ത്തും
പുൽവാമ
##സംഗമം
റാന്നി
കുടിക്ക
##ിലൂടെയും
കമ്മിഷന്
ആരാധകരെ
നെടു
പെട്ടി
പരിശീലക
##പ്പെടുകയും
##യുളള
##തിനെതിരെ
##ിരിക്കണം
ഫെഡറേഷന്
വാഹനാപകടത്തില്
പറമ്പ
കൃഷ്ണന്
കത്തിച്ചു
##ാവശ്യ
കറന്
ചെയ്യുമെന്ന
ബന്ധു
##മുണ്ട
തുട
മാട
സമർപ്പിക്ക
വാക്
മുക്കം
ശനത്തിന്
ബാങ്കിന്
കൗൺസിൽ
ദുബായില്
പ്രദേശം
ചാനല്
പിന്നിട്ട
ഒരുമിച്ചു
ഒഡീഷ
വിനീതിന്റെ
കിഴക്ക
സുപ്രീയ
ചെറുകിട
കാണപ്പെടുന്ന
##യപ്രകാരം
ആശുപത്രിയിലെ
##െടുപ്പ
ഭദ്ര
ചിറ
വേഷം
ആദര
അഷ്ടമിരോഹിണി
നൂറ
പൊന്നു
കടക്കുമ്പോള്
##ക്ഷേത്ര
##ൊഴ
##ാണെന്നു
##വേലി
##തിനുള്ള
പരാതിയുമായി
ആർക്കും
വയസ
##ാന്ത
##പ്റ്റ
നായക
##രാക
##ളവ
##പ്പേര
റോസ്
ഓണച്ചന്ത
ട്രോള്
##ിയൻ
ഗാന്ധിയുടെ
##മാറ്റം
കുറിക്ക
ചെമ്മങ്കടവ
പകൽ
ആക്ടിവ
##പ്രാ
കൂര്
നിശാഗന്ധിയിൽ
ഒരുക്ക
ഓപറേറ്റർ
ഷെയർ
##ന്നി
##കേ
തെറി
അക്ഷയ
പിന്മാറി
കാറിൽ
എത്തിച്ച
ഉണ്ടെന്ന്
മെസി
മോണ
##ുവിന്
അങ്ങ
വാന
കിഴക്കൻ
ഹൈപ്പർ
ക്കൂട്ട
ആക്രമിക്ക
ത്രക്രിയ
വേദിയിൽ
സച്ചിൻ
രക്ഷിക്കാൻ
സസ്യ
ക്കെതിരായ
ഇറക്ക
വിദ്യാർത്ഥിനി
രംഗം
താമസം
വിചാരിച്ച
കാത്തു
പോക്കറ്റിൽ
വചന
##പ്പൂ
തുടർന്നു
##യാൾ
ഗിരീഷ്
പ്രവാചക
കൂട്ടക്കൊല
കാഴ്ചയില്ലാത്ത
തീവ്രവാദി
##മാസം
അടക്ക
വാക്കുകള
##ഭാഗത്ത
##വശ
ലിങ്ക്
സ്റ്റെ
പത്തനാപുരം
സാമുദായിക
പുറപ്പെടുവിക്ക
##ാട്ടു
കേന്ദ്രസർക്കാർ
മദ്
വഹിക്കുന്ന
നേതാവിനെ
ചാലക്കുടി
##ുടേയും
രക്തസാക്ഷിത്വ
തുടങ്ങിയവർ
സുരക്ഷിത
##പ്പിന്
രണ്ടാഴ്ച
ചുവടു
ദൃശ്യം
##ലുകള്
വ്യോമസേന
പത്മ
കത്തിനശിച്ചു
ഒറ്റയ്ക്ക്
##ശ്വ
പ്രണവിന്റേ
അംഗീകാര
##ിതാ
ഗ്രാം
ടൗണ്
വിവാഹിതനാകുന്നു
ഉദ്ഘാടന
ഇറക്കുന്ന
കഴിക്കാൻ
സിൽ
കാമ്പയിന്
കൈയ്യ
എന്നിട്ട്
ലോറസ്
രീതികള്
##യ്ക്കൽ
ഗുരുവായൂര്
##ഥി
എസ്ഐ
ഇടപാട്
##േര
മണ്
നാള്
കുളത്തൂപ്പുഴ
ക്രൂരമായി
യെച്ചൂരി
ബ്രസീല
##മാണു
##ആക്രമിക്കപ്പെട്ട
ഓടുന്ന
##മാക്കാന്
ത്ഥ്യ
ത്താവ
##ൻസ
##താണു
ഭൂരിപക്ഷം
നിവേദനം
കെട്ടിടത്തിന്
വേതന
ഷത്തില്
തയ്യാറ
വീടും
എടുക്കാന
സാന്നിധ്യം
രിവാള്
##യാണെന്നും
ആസ്
വിറ്റ്
##ിയ്ക്കുന്ന
യൂണിറ്റ
വയറ
നിശ്ചയം
പ്രതികരണ
പുതുമ
രക്തദാന
സൗജന്യമാക്കാന
##ക്ഷി
കരുതല
പറയാന
വിഷം
##ലക്ഷ്മി
വിശദാംശങ്ങൾ
ലാലേട്ടൻ
മുറ
പുറ
ലിമിറ്റഡ്
##സാര
ഇളയ
കൂളുകള്
രോഗബാധ
തിയേറ്ററിൽ
ആകര്
തച്ചങ്കരി
##ാണെങ്കില്
##ടിയ
കല്യാണിയുടേ
ബ്രാന്
ഡാമ
അറിയിച്ച്
ഡോളര്
സ്വയംഭരണ
ഭരിക്കുന്ന
വഫ
##ക്കാനും
അതിശയിപ്പിക്ക
##െത്ത
പങ്ക
സിസ്റ്റ
##ളോ
##ഈ
##ണമെങ്കില്
##ജീവിതം
തിരുവ
കരയ
അഭിമുഖം
ഞങ്ങൾക്ക്
##ഷാ
താഴ
മരുന്ന
ടൈ
അഗ്നി
##പ്പറ്റി
രജ
##മന്ദിര
മോഹനന്
കൊടുത്ത്
##പഠന
വീടുകളില്
കൂരാച്ചുണ്ട്
##ക്കാരായ
ഉപതിരഞ്ഞെടുപ്പ്
കാട്ടു
ഡൈ
ഉദ്യോഗസ്ഥരുടെ
ഏബ്രഹാം
കെജ്രിവാൾ
ഒപ്പ
മറയൂർ
##ജയന്തി
എന്നിവയാണ്
ക്ലബ്ബ
പണ്ഡിത
##കെട്ടി
താഹ
ഒറ്റപ്പെട്ട
ഡോളർ
ബാറ്റിങ്
യുഎസ
##ുണ്ടെങ്കില്
പിന്നില
##ങ്കി
കുട്ടിക്ക്
ഏറെയും
സമരത്തിന്
തങ്ക
##ാകട്ടെ
ഇംഗ്ലണ്ട
##ങ്ങളോ
##ർത്തി
ഡോക്ടറ
ലേല
ഇഞ്ചി
പാകിസ്താന്
എച്ച്എസ്
വിധ
##പൂജ
രാജ്യത്ത
##ങ്ങൾക്കു
തമിഴ്നാട്
വൈറലാകുന്നു
ലിങ്ക
സാര്
ഉണ്ടോ
കന്നി
##രിച്ച
മോദിയും
ത്ഥിനി
വിളവെടുപ്പ്
മുല്ല
കശ്
വട
ജയില
കുറഞ്ഞത്
ചരമവാർഷിക
ചികിത്സയില്
പുൽപ്പള്ളി
ലിഫ്റ്റ്
അഗ്
##കോട്
##ോട്ടു
##ക്കാരും
അടിപൊളി
ജൂനിയര്
സ്ഥാനാർത്ഥി
പഠിക്കാന്
##ധര്
പ്രവേശനമില്ല
ട്രീയ
എല്ലാവർക്കും
ചൊ
കാലത്തെ
##സൂ
ഫൊക്കാന
വിറ
ഹോമ
മേഖലാ
നാടു
അവതാരം
മുന്നേറ്റം
##പ്പിടിച്ച
പരസ്യമായി
മലേഷ്യ
സൈന്യത്തെ
ത്തവ
റോഡ
##ിപ്പിച്ച്
ചിരിച്ച്
##ദർ
ചരിത്രത്തിൽ
##സൺ
അച്ചാ
##ാകണം
ധ്യാന
നയിക്ക
പ്രതിഭാ
അടച്ചിട്ട
ഓഫീസ
നാവിക
##ക്കെട്ട
അമേരിക്കയുടെ
ഗേറ്റ്
ഇളവ്
##ക്കീ
ഫോട്ടോഷൂട്ട്
##ിനോ
##ിയന്
##ക്കൊണ്ട
കേന്ദ്രത്തിന്
##മ്പല
പരിക്ക
ച്ചയായും
ഈഴവ
മേക്കപ്പ്
കമ്മ
ഗോത്ര
ക്കാ
##ത്തറ
##യാന
എഡിറ്റർ
##ടക്കമുള്ള
ക്രിയേഷന്
തൊ
##കുളം
##ിട്ടുണ്ടെന്ന്
വേണ്ടിയാണ്
രാജ്യങ്ങളിൽ
തമ്പി
ശ്ര
ആചാര
##വളര്
നിർ
സംഘർഷ
നിലവാരം
വസതി
##ക്കർ
മഹല്ലുകളില
മാർഗം
ഓഫ
മാസിക
നൂറ്റാണ്ട
ആപ്പിൾ
ക്കുക
##ില്ലെങ്കിലും
സാധാരണയായി
##മായിരുന്ന
മെഡി
മുക്ക
ശക്ത
##കുഞ്ഞാലിക്കുട്ടി
സിസിടിവി
ഇടതുമുന്നണി
ക്രോ
പിൻവലിക്ക
##വിദ്യ
ഉദ്ധവ്
കരിക്ക
പാർശ്വഫലങ്ങൾ
വടക്കു
തിരഞ്ഞെടുപ്പില്
##യോടു
##ക്കോട്ട
ആരംഭിക്കുന്നു
ബെഞ്ച
നയിച്ച
മുന്നില
അബ്ദുൽ
ബോർഡ
മാദ്ധ്യമ
ജനിതക
കനയ്യ
എഴുതുന്ന
ജീവനൊടുക്കിയ
തിരക്ക്
പൂട്ടി
ഖത്തര്
അവന
##ിനുള്ളിൽ
ആക്ഷേപം
വിളിച്ചാൽ
ഗൂഗിൾ
വൃത്തിയാക്ക
എന്നാ
##മൂലം
ജുവനൈല
തുടക്കമിട്ട
##ണാ
വിജയിച്ചു
##ാനായില്ല
ഭാഗ്യം
ഷാര്
കരുത
ചിത്രപ്രദർശനം
സുഭാഷ്
##ഗ്ഗ
തുറമുഖം
##വരില്
പുത്ര
##ഫെ
##ടങ്ങിയ
##വയാണ്
പാകിസ്ഥാന
ഡിവൈഎഫ്
അടുക്കള
കമ്പ്യൂട്ടര്
ടൊവിനോ
മ്മാണം
##റ്റിന്
സൂക്ഷിക്കേണ്ടത
അയ്യപ്പൻ
തുടർച്ചയായ
##മാറ
കരുതിയ
##യാളുടെ
അടിമുടി
##ഞ
കായികമേള
നൽകുന്നു
ഓയില്
ആഴ
##ങ്ങുന്ന
##ഗതി
##്രീപദ്മനാഭസ്വാമി
സഹായിച്ച
കാനം
പിച്ച
ഐഫോൺ
##ൊഴിയ
കാണിക്കുന്ന
ജാര
മൂടി
അനി
രോഷത്തോടെ
പറയണം
അച്ചടി
ശ്
വാർഡ്
##ണ്ടാ
അഭിപ്രായങ്ങളുടെ
പേരെടുത്ത
ഹാജരാക്ക
##യെത്തി
മക്കൾ
കടൽ
##ിക്ക്
ആരംഭിക്കുന്ന
##ഗുരു
നിന്
പുറത്തുവിട്ടു
കണ്ടെത്താന്
##ത്തുക
സ്പോർട്സ്
ഏഴിന്
##യുമ
സഹായിക്കുക
മന്ത്രിയുടെ
വെയ്ക്ക
##ാനാകാതെ
പ്രത്യേകിച്ച്
വിമാനത്താവളം
അതിലെ
കച്ചവട
ന്യൂസില
കുടിശിക
സൗ
ഇൻസ്
##യൊ
തിരിഞ്ഞു
ആണെന്ന്
മുട്ടു
പം
ഇന്നിങ്
##ത്തിലേ
സാന്
ശക്തമാക്കി
##ല്ലാത്ത
ദുരുപയോഗം
വഴികൾ
ഡിപ്പോയിലെ
##ോത്സവ
പറയാനുള്ളത്
ഉള്ളി
എഴു
##തീയേറ്ററിലെത്തിയ
കൂട്ടുകാര
##ജാഥ
മീശ
വിമുക്ത
ശൈഖ്
##പ്പോക
##ീൻ
തൊണ്ട
മതേതര
##ിറക്കി
ഫിറ്റ്
ആവശ്യമാണ്
ശക്തിപ്പെടുത്ത
##ഖാ
പൂർത്തിയായി
സുനില്
ടീമിൽ
അന്തരീക്ഷം
അമ്മായി
വയസ്
ധരിക്ക
##സമ്മേളന
കേസെടുക്ക
പോക്
ഭീകരാക്രമണ
ചെയ്യാന
പക
സ്ട്ര
##ുറങ്ങ
മാധ്യമപ്രവർത്തക
കത്തോലിക്ക
കറൻസി
അമല
ഉൽ
##പ്പം
കലാം
നാടിന
അയ്യപ്പ
കുറിപ്പ
##ിത്ത
പാങ്ങോട
##വെള്ള
##തോടെയാണ്
ഫെഡ
തിരിച്ചറിയല്
സാംസങ്
കുടിശ്ശിക
ഡാൻസ്
കൂട്ടുകാരി
ഉപ്പ
ചവിട്ടി
##പിഎ
പെരുമാറ്റം
##ലന്
ഐസി
##പന
കുത്തിക്കൊന്നു
തക്കാളി
##ുടമ
താങ്ങ
ബംഗ്ലാദേശ്
ടൈം
##ഫ്ര
സന്ദർശിക്ക
വർധന
സാമ
തയ്യിൽ
##ബർ
വിക്കിനിഘണ്ടു
കേന്ദ്രത്തില്
ചാന്
ശക്തം
##സ്റ്റർ
നേതാക്കളുടെ
വീടിനു
##ിരുന്ന്
##ക്കേണ്ട
അലര്
കോളജിലെ
ജിദ്ദ
##േറെ
##മ്
നസ്
വെളിപ്പെടുത്ത
ജീവിക്കാൻ
മാറ്റാന്
ട്രേഡ്
പൃഥ്വി
ഉത്തര്
##ിക്കാതെ
പല്ല
നൂറ്
എത്തിയപ്പോൾ
ഹൂ
ഓഫീസിലേക്ക്
നല്കിയ
##റ്റർ
ആദര്
ജസ്ല
പരിഹാസം
ബോട്ടപകടം
##ായത്
ഉദ്യോഗസ്ഥന്
ഭക്ഷണങ്ങള്
##റ്റിന്റെ
ഥിനി
##വിഭാഗ
##ന്മാരും
ഡൊണാ
ടെലിവിഷൻ
ഡെന്നീസ്
ആദായനികുതി
##മെന്നു
പേരില
പറ്റില്ല
##പറഞ്ഞ
പാളി
ഗ്രേ
രാജേഷ്
ട്ടുകള്
വിശേഷിപ്പിച്ച
നെല്
ദിശ
രൂപീകരിച്ച
ബോംബ
##ുടെയും
എടുക്കുന്ന
##മിട്ട
##പദ
##യല്ലേ
സൈറ്റ
ജോയി
ചോദിച്ച്
എത്തുമ്പോൾ
##മാറി
ഒഴിവാക്കാൻ
പ്രസിദ്ധ
ശേഷമുള്ള
##പ്പോയി
യാത്രയായി
ഗ്രൂപ്പുകള
അനീഷ്
##തെങ്കിലും
മാറുന്നു
സംവാദ
മറന്ന
ചെല്ല
പ്രഭാഷണം
ക്ലാസ
ഗിന്നസ്
##മണ്
തട്ടിപ്പു
ത്ഥം
പോലീസുകാര്
##പാര്
അഭിമുഖ
വർഗ്ഗത്തിൽ
പരിശ്രമ
വൈറലാകുമ്പോൾ
മദ്രസാധ്യാപക
ഗണപതി
##ട്ടിയ
ടാസ്
പ്രതീക്ഷിച്ച
##ൊന്ന്
കഠിന
യാത്രക്കാരുടെ
കഴുത്ത
##കേരള
വർഗീയ
കടലിലെറിഞ്ഞ
കന്യാകുമാരിയില
അതൊരു
സേവ
##യായിരിക്കും
സമൂഹത്തിന്
##ിനുള്ളില്
പരിഹസിച്ച്
റെക്കോർഡ്
##കൂടിയ
##മുള
റേഡിയോ
തയ്യൽ
ട്രംപിനു
##സ്റ്റാ
ഇതിനായി
ബൂ
##ഴിഞ്ഞ
കുടുക്കിയത്
##സ്സ്
ഏഷ്യ
വർഗ്ഗം
മുന്നറിയിപ്പ
മാനേജർ
ലാഭ
കാഴ്
കാഴ്ചവച്ച
ലുലു
ഗണ
റിന്
വെള്ളത്തിൽ
മതിയായ
പരേഡ്
സീനിയര്
ധിപ്പിച്ചു
പുനര
##ർമ്മ
##കണ്ട
പ്രിൻസിപ്പൽ
എയ്ഡഡ്
ടീമിനെ
##സന്
നവീകരണം
##കളോ
ഇരുവരെയു
ഡയ
മനസ്സിൽ
സമ്പത്ത്
മുസ്ലിയാര്
ഇന്ത്യക്കാർ
കാമറ
തെളിഞ്ഞു
എന്നിട്ടും
അസുഖ
##രാവ
വാങ്ങുന്ന
കഥകളി
ലക്ഷക്കണക്കിന്
ഒഴിയ
കൊല്ലപ്പെട്ടത്
കരട്
ത്തല്
അവസാനത്തെ
##രാഗ
##സില
തുറമുഖ
പരിവര്
ഭക്ഷണത്തിന്
മറന്നു
##രുന്ന
ചന്ദന
##ദീ
സമ്പന്ന
ആസൂത്രിത
കോയമ്പത്തൂര്
ശില്പ
പദ്ധതികളുടെ
സ്വീകരിക്കും
വെളി
ദേ
നിനക്ക്
നിയോഗിച്ച
നീണ്ടു
ബോസിൽ
##തുകൊണ്ട
പോകുമ്പോള്
ബാവ
ഫൗണ്ടേഷന്
വെടിവയ്പ്
സെമിനാറും
ഏഷ്യന്
##മാണെന്ന
##ിരുന്നെങ്കില്
കടത്തിയ
ലോൺ
##ഡേ
വിസ്
##യിലെത്തിയ
##പ്പഴ
##ാഹ
രണ്ടുപേർ
ഉപകരണ
പെരുന്നാള്
##നെയും
നമുക്കു
പ്രദേശത്തെ
##ങ്ങളോട്
##ട്ടേ
ജമാഅത്തെ
തുര്
ശതാബ്ദി
മൈക്രോ
വിരാമം
പോക്കറ്റ്
സ്റ്റേഷനിലെ
ആലപ്പുഴയിൽ
അഭ്യര്
വന്യജീവി
ആരാധന
നിഴല
തൃശൂരിലെ
തോക്കു
സാംസംഗ
ഭാവന
##സമര
നിഗം
##താള
ട്വന്
എൻഐഎ
പൊതുമരാമത്ത്
##യാക്കിയ
##കണ്ഠ
മദർ
തീർഥാടന
ഇരുചക്ര
തെക്കേ
##യ്ക്കെതിരെ
സംയുക്തമായി
##നേയും
##ശാസ്ത്രം
വാളയാ
അനുഭവിച്ച
പങ്കാളിത്തം
ദ്രാവിഡ
##ാങ്ക
നാട്ടിലേക്കു
ക്വ
വധം
സമൂഹത്തിന്റെ
##റായ
##ക്കോണം
ടിക്കറ്റ
ആഭരണ
മതില്
##ിലെത്തിയ
വാള
വൈകിയ
അവസാനിച്ചു
പടരുന്നു
തിരുവമ്പാടി
അജ
കൺ
ജന്മദിനം
##യെടുത്ത്
##തിക
##യ്ക്കല്
ഇംഗ്ലണ്ട്
സ്വയംഭോഗ
മക്ക
ലാബ്
ഖാസി
വധക്കേസ്
കുഴഞ്ഞു
##നാമ
എഴുത്ത
കൈക്കൊള്ളുന്നത
കുടുംബസംഗമവും
സെക്യൂരിറ്റി
എട്ട
പിറന്ന
##ട്രാ
ഓള്
##യാകുന്നത്
##ന്നൂര്
##െടുത്തത്
എഴുത്ത്
ധരിച്ച്
ഡ്രൈവിങ്
##ാഭ
നാട്ടിലേക്ക്
ബാങ്കില്
വയസ്സുള്ള
സ്രവ
##വത്കരണ
സഹകരിക്ക
പുച്
അബ്ദുള്ള
ജിഹാദ്
കുഴ
കൊട്ട
പിന്നീട
തുര
പെഷല
വ്യാപകം
സുധ
നിർമ്മാണം
##കൊണ്ടിരിക്ക
##ിക്കല്
##ുള്ളതാണ്
അഭിനയം
പാപ്പാ
ചെലവിട്ട
പ്രതീക
പേരിലുള്ള
ഉപതെരഞ്ഞെടുപ്പ്
മാധവ
തേട
ധ്യാനം
##കുമാർ
ദശ
ഗുസ്തി
വ്യത്യാസം
ടൂ
##മെങ്കിലും
സായ്
##കാർ
കേട്ടു
വികാരി
ഉൾപ്പെടുത്ത
സിലെ
സ്വാശ്രയ
മടി
തിരി
##ണും
ഭാരവാഹി
സുപ്രധാന
സൃഷ്ടിക്ക
ശിവഗിരി
നിപ
##തിനേക്കാൾ
വളർത്ത
##േല
ആർട്ടിസ്റ്റ്
കൂട്ടിച്ചേര്
പിടിക്കാന്
##പള്ളി
സാഹിബ്
സ്വദേശിനി
ഗ്ലാസ്
സന്ദർശന
ദുല്
ജ്യൂസ്
##നാശ
പാന്
സുൽത്താൻ
നിർബന്ധ
##കാണ
അയയ്ക്ക
വെയ്
ബൈബിള്
കോവളം
ജേതാക്കളായി
നിറവില്
കുമാറിനെ
##ാവും
ഖാ
പരാതിയില്
ഓർത്ത
സദസ്
ഭൂരിപക്ഷ
ഉമ
##മായാണ്
കമ്പ
പൂർണ്ണമായും
ഉയർത്ത
ഏല
ഒടുവിലാണ്
##കൊടുക്ക
പായ
##ാരംഭിച്ച
##നയ
നിഗമനം
മറുനാടന്
ജൈവപച്ചക്കറി
പൊള്ളലേറ്റ
മിസ്റ്റർ
##റേത്
വാശി
വിയാന്റെ
കൗതുക
പ്രതിരോധം
വർധിപ്പിക്ക
നല്കുന്ന
കാരണങ്ങൾ
സ്ഥാപനങ്ങൾ
ജീവകാരുണ്യ
ലേഖനങ്ങൾ
വിതരണംചെയ്തു
യാത്രക്കാരെ
പൂർത്തിയാക്കി
സംസാരിക്കുന്ന
##കരണ
വേണ്ടെന്നു
പരീക്ഷണ
വാണ
മാമാങ്കം
സന
##െഴുതിയ
ദൗത്യ
സർവേ
##പറയ
മഹാദേവ
##ക്കൊണ്ടു
ആവർത്തിച്ച
എത്തിച്ചത്
##ജന്
വരുമ്പോൾ
എസ്ബിഐ
ഒന്നിച്ച
##സന
സൗഹൃദം
പാലത്തിന്
ക്രി
##തായിരിക്കും
##ഡിൽ
പോയിന്റ്
പ്രതിസന്ധിയിൽ
റഫ
##റ്റും
മോർട്ടം
വെറുപ്പ
അണ
ഗൗരി
ഞെട്ടല
സജി
പട്ടാള
ഏഷ്യാനെറ്റ്
ചൈനയിലെ
കെട്ടിപ്പിടിച്ച
##ൂരി
ടൺ
ചോപ്ര
പോള
ആന്ധ്ര
ശുപാര്
സുഹൃത്തുക്കള
താല്പര്യ
പൊട്ടുന്ന
##ചാര
##ുമ്പോഴ
ഒളി
ജനനം
കൊച്ചിയിലെ
മറ്റോ
##വശത്ത
ആസ്വദിക്ക
##മുണ്ടെന്ന്
തിരിച്ചെത്തിയ
പരീക്ഷയെഴുതും
##പ്പറ
##തന്ത്ര
നിങ്ങൾക്ക
ബ്യൂറോ
##കുളങ്ങര
അച്ച
വിദേശകാര്യ
ദൃശ്യങ്ങളും
കുര
ആരോഗ്യനില
അംഗത്വം
##ക്കാവ്
ട്രോ
സ്ഥാനത്ത
##രുവ
##ത്തുന്ന
അകലെ
##മൂട്
ഫലകം
അടിസ്ഥാനത്തില്
ജേക്കബ
##ൈല
കിടിലന്
ജെയ്
ഇന്ത്യക്കാര്
കേജ്
സത്യത്തിന്റെ
നീന്തല
സാധന
തെളിഞ്ഞ
നേരിടാന്
ശേഖര
മാനവ
ആയിരക്കണക്കിന്
ഖത്തർ
പങ്കുണ്ടെന്ന
ചെമ്പ
ഇന്ധന
##ബിയ
പരിഹരിക്കാന്
ഫീ
അജണ്ട
പാലിച്ച
##പണി
ഉള്ളൂ
സിംഗ
##എസ്എ
വൃത്തി
നെട്ടൂര
##നിയമ
ഫര്
ഉറച്ച്
##വരി
പ്രോജക്ട്
ഡിപ്ലോമ
അരങ്ങ
ഗർഭിണിയായ
##ുകയാണെന്ന്
മനുഷ്യൻ
ച്ചയായ
##ഹീ
##ഷ്ണ
##ബാദ
കണക്കുകള്
ഷഹീൻ
നിരോധിത
അടയ്ക്കുന്ന
ഒന്നിലധികം
ഇല്ലെങ്കിലും
പുഴയിൽ
മറ്റുള്ളവർ
##മേറിയ
##ോളജി
ജീവിക്കാന്
##ജാലം
##ുവാന
ഉപയോഗിക്കുന്നു
കല്ലട
##നിധി
വന്നാല്
##പോയി
മാഫിയ
വഹിച്ച
അന്തരീക്ഷ
##പ്പാട്ട
മുത്തൂറ്റ്
വാദി
##വനും
സദ്യ
ഭാരം
ശ്രീധരന്
##പ്രവർത്തിക്കുന്ന
ഉപയോഗിക്കാം
എസ്ഡിപിഐ
അടുത്തിടെ
കഴിച്ചു
കാണാന
സ്റ്റോറി
##ന്ധ
ബോധവത്കരണം
ആശംസ
##യാൻ
##ച്ചാ
കുരുക്ക
കുടി
പിന്നാക്ക
എൽഡിഎഫ്
ഒന്നുമില്ല
സംഗമവും
##്യൂണ
ബുക്കിൽ
##വർഗ
ലാല
മാനസികാരോഗ്യ
ഈശ്വര
##ദാസ്
##റിനു
ഷെട്ടി
പിടിക്കുന്നു
##ിയോ
##യോഗ്യ
കുറയുമെന്ന്
##യിലേ
പകർത്തിയ
സമ്പാദന
##രചന
##ധര
പോഷക
ഒരുക്കുന്ന
##ായും
രക്ഷപ്പെട്ടു
തനി
ഭാവം
യുണൈറ്റഡ്
തെളിയിക്കുന്ന
##പ്പുറ
കമ്മീഷണര്
കുളത്തൂര്
##ജീവന
റൈൻ
##ടക്ക
അപൂർവ
വടക്കേ
##ജൻ
കേസുകള്
ച്ചാ
##ായിരിക്കണം
അടിച്ച്
വെള്ളത്തില്
പഠിപ്പിക്ക
ഹൈടെക്
##ശന
മീൻ
##ാഘോഷ
ആസ്ഥാന
##ോര
ബ്
##ാണെങ്കിൽ
തിരുനക്കര
അടിമാലി
വിരൽ
##ക്കോട്
പരിഗണിക്കുന്ന
##കൂടെ
ഹൃദ്രോഗ
സംഘ്
തയ്യാറാക്ക
കൈക്കൂലി
##വെച്ച്
ശങ്കര
വാക്കു
പരിശോധനാ
രസകരമായ
തകരാറ
ദ്
അലന്
ചെയ്യേണ്ടത്
##ക്കൃഷി
##കാന്
പാക
കാറിടിച്ച
പൊളിച്ച
ഗൗതം
വിജയി
കമല
##ല്ലി
ഷേ
ഡയറി
എത്തിച്ച്
തീയതികളില്
യുഎഇയില്
ഹൈസ്കൂള
തുർക്കി
പഞ്ചാബ്
ആശ
മൂന്നാർ
##ാട്ട്
അംഗീകരിച്ചു
മട്ട
യുഡിഎഫ
പാഠം
വയസ്സ
മതമൗലികവാദി
ശിവകുമാറിന്
അറബിക്
നാവ
##േര്
##ക്കാത്ത
തുടങ്ങുന്ന
നിഷേധിച്ചു
##കേന്ദ്രങ്ങളിലായി
മക്കളുടെ
ഇവിടുത്തെ
##ാട്ടി
ചിലപ്പോള്
##പ്പന്
സാഹചര്യങ്ങള
എവിടെയായിരുന്നു
##രവ
##ലോകം
ഹോട്ടലില്
ആക്രമിച്ചു
പ്രധാനമായും
രഹസ്യം
കിടിലൻ
മനുഷ്യനെ
ആരംഭ
വയസില
ആധാര്
തലയില്
വകുപ്പുകള
സൈക്കോ
ക്രിസ്
തടഞ്ഞ്
ഭിന്നത
മൂര്
തകര
ആരാധനാ
##രിപ്പ
ധൈര്യം
വിക്കറ്റ
##ഴുത
ട്ടികള്
##പ്പിക്കുന്ന
യുവാക്കളെ
##െത്തിച്ച
അനുവദിക്കണം
##മറ്റ
എന്തുകൊണ്ടാണ്
ശാ
അങ്ക
ഫ്രാൻസിസ്
ആഞ്ഞടിച്ച്
കേരളത്തിലും
##പരമായി
സാധിക്കുന്ന
##കളെല്ലാം
കൊട്ടാര
##േയ
ചിറക
എന്നാലും
##പ്പൻ
തിരിച്ചുവിട്ടതു
തട്ടിയെടുത്ത
ഓക്
##രുത്ത
ചെയ്യാനെത്തിയ
നല്ലതാണ്
##പാറ
സുറിയാനി
##കളേയും
പൂട്ടിയിട്ട
ആഞ്ഞ
സവിശേഷത
നേടാൻ
##പൂര
ടോം
പ്രയോഗം
കാരിയുടെ
സതീശൻ
അസി
കോൺഗ്രസിൽ
ആത്മവിശ്വാസ
##മതി
മോഷ്ടിച്ചു
ബിജെപിയെ
ഭിന്നശേഷിക്കാര
ഇക്കാലത്ത്
##മൊക്കെ
##യുമൊക്കെ
##നൽക
രാത്രിയിൽ
എസ്റ്റേറ്റ്
എളുപ്പ
ബന്ധുക്കള
സെക്രട്ടറിയേറ്റ
ധീര
തരത്തിൽ
തട്ടിയ
മാക്
##മൊരു
സൃഷ്ടിക്കുന്ന
ശുചീകരണ
തർക്ക
ചെമ്മ
##ണമെങ്കിൽ
വത
##ച്ചെ
മാസത്തിനിടെ
തെളിവുകള്
വൈക്കം
നോവല്
മാത്രമുള്ള
##ത്തിൻറെ
സ്വീകരിച്ചു
##ബ്ല
കണ്ടാൽ
കീഴിലുള്ള
ട്രാ
ആശ്രമ
##ിയിൽ
സുരേഷിന്
ഉറപ്പു
##േനെ
കാറുകള്
കൊതി
ാമത്തെ
##കീ
##ോടി
അധോലോക
കശ്മീര്
ടാക്
അതിനുള്ള
പെരുമ
##ശ്യ
ജനിച്ചു
##റിയാന്
##കുത്ത
ഗൃഹ
മകന
ക്ലബ
##നേക്കുറിച്ച
പിതൃ
രാജ്യങ്ങളില്
നമ്മ
വരില്ല
##ാണല്ലോ
കാഴ്ചപ്പാട
തടവ
കേജരിവാൾ
ച്ചയില്
ഖാദര്
ലക്ഷങ്ങൾ
വാരി
കച്ചവടം
ജനസംഖ്യാ
##ികളും
ഫോട്ടോകൾ
നോക്കുക
മമ്മൂക്ക
ഉംറ
മുതല
രൂപീകരിച്ചു
രഞ്ജി
സംബന്ധമായ
ചോദിച്ചപ്പോൾ
##ത്താന്
ഡിന്റെ
##ിദ്ര
സുമാര്
താടി
കിരീട
പോയിന്റ
##പ്പും
തസ്
അണിയറ
കണ്ടുകൊണ്ടിരി
റിസ
മുഹമ്മദ
ഇതെല്ലാം
കൊമ്പ
പുരുഷന്
ച്ചകള്
##േട
പ്രാവശ്യം
##ുകയായിരുന്ന
കാമുകനെതിരെ
##ദോഷ
ആറുപേര
തിന്നുന്നു
കോൺഫറൻസ്
തരംഗ
പ്രതിരോധിക്ക
വയറ്റത്ത
ഇപ്പോഴ
ഗുരുതരം
വീട്ടു
##മുളള
പ്രവേശിപ്പിച്ചു
ഗൗഡ
നമ
പ്രദേശത്ത്
മറിയ
##ക്കുറിപ്പ
##നീയ
##കിട
കഥകൾ
##സാധ്യത
ഇറ്റലി
ബ്ലോക്ക
പോലീസുകാര
അനിൽ
രജതജൂബിലി
പ്രസിഡന്റ
പരിശോധനയിൽ
വെട്ടിയ
##ർഗ
കല്ലു
ഉത്തരവാദിത്ത
##ീല
വയോധിക
എച്
ഇഞ്ച്
##ുവിനെ
##മറിയ
അധ്യാപകന്
മിക
പ്ലാന്റ
ലും
പൊലീസുകാര
പുകഴ്ത്തി
കളിക്കുന്ന
തായ്
##ലിസ
വടംവലി
##ഗു
വിപണനമേള
പെൺകുട്ടിയുടെ
##ങ്ങാ
അനാഥ
ഘട്ടത്തിലേക്ക്
ഒരി
##ശീല
താമസിക്ക
മലയാളികളെ
നാദാപുരം
ഹരീഷ്
ഉച്ചഭക്ഷണ
##സ്റ്റര്
##ൊരുങ്ങി
##ാകാന്
ചെറുപ്പക്കാര
##ൊരാള
കിഴക്കേ
പ്രതിഷേധവുമായി
എത്രയോ
##സ്ട്ര
ഇന്റർ
ചിത്രീകരിക്ക
യിലെ
കൈയടി
പങ്കുവച്ച്
പണ്ട
പര്
മണിക്കൂറുകള്
ദ്ദേശ
പുനർ
പാടശേഖരത്തിൽ
തേനീച്ച
ഏത
മുപ്പത്
വിട്ടത്
##രന്
വിനോദസഞ്ചാര
##ാരോ
കഴിയുന്നത്
മുഖേന
നല്ക
##തുക
വരുന്നവരുടെ
വളരുന്ന
സഹായവുമായി
കാറില്
തെരുവിൽ
അകറ്റി
പാലിയേറ്റീവ്
വിനയ
ജനപ്രിയ
സംഘത്തിലെ
##ുകാരി
ആക്രമണത്തില്
##ബേഷൻ
##റൽ
എന്താണെന്ന്
##ുകാരുടെ
സിംഗിൾ
മാറ്റിവെച്ചു
##ാനം
##ിറ്റ
പൂർത്തിയാക്കിയ
ഐഎസ്
##ലായി
ഥാന
വിടുന്നത്
മനസില
##ിക്കാനും
യാത്രക്കാരി
പാർക്ക
കൈവരി
നന്ദ
പിടിച്ചെടുത്ത
മെഷീൻ
##ിമ
മുരളീധരൻ
കഴിഞ്ഞില്ല
##ിലായിരുന്നു
മേഖലകളില്
നോക്കാം
##ോളൂ
വ്യക്തിയുടെ
##ക്കിന്റെ
കഫ
ജിഡിപി
വഴികള്
സൂക്ഷിക്കുക
ഓവര്
ചാറ്റ്
അറിയാവുന്ന
പ്പണത്തിന്
ചില്ല
നോക്കൂ
പ്രശംസ
##േക്കു
അസ്വസ്ഥത
ദ്ര
ദരിദ്ര
അഖിൽ
റാങ്ക
##തൊക്കെ
യിൽ
##യുട
കമ്പനികള്
മേക്ക
പരാജയപ്പെട്ട
കയ്യിൽ
##നേതൃത്വത്തിലുള്ള
നിയന്ത്രണംവിട്ട
ഉയരുന്നു
അകത്ത
അവിട
വാങ്ങാന്
മലയാളിയുടെ
ചിലര
രംഗങ്ങളും
നിർദേശ
സേല
അധ്യക്ഷനായി
കന്യാകുമാരി
സ്ഥാനാർഥി
സുഗതകുമാരി
ബാച്ചിലേക്കുള്ള
കാര്യങ്ങള
വീട്ടമ്മയുടെ
ചെയ്തതോടെ
സുഹൃത്തുക്കളും
ജയരാജന്
##ഞ്ഞി
ചൊല്ല
തികഞ്ഞ
ഉരു
മാന്യമായ
പ്രവാസ
എന്നറിയ
എഡിറ്റര്
തടാക
ചുമതലയേറ്റു
അടിയ
വന്നാൽ
മറക്കരുത്
കത്തിച്ച
നികത്ത
ഥികളുടെ
##റ്റാ
ചിദംബരം
ശബ്ദംകേട്ട
വ്യാപാരികൾ
ചെയ്താല്
അങ്ങ്
എന്നിവര
ചെയ്യാനും
പദ്ധതിയുമായി
##ുണ്ടെന്ന
ശോഭ
ദില്ലിയില്
ഉദ്ദേശ
എളേരി
തിയതി
ആക്കിയ
ബെഞ്ച്
വായനശാല
##ബിൾ
അമ്പൂരി
ദാസ
കപ്പലിലെ
പുല്ലൂര്
മനസ്സിലെ
പ്പിക്കാന്
വിവോ
ഗുഡ്
പ്രദർശന
കലർന്ന
കുളി
കോഴഞ്ചേരി
ഭൂമിയുടെ
ഡിലെ
വെയില
വഴക്ക
##ഞ്
ഭാഗങ്ങള
ദേവാലയത്തില്
ഡോസ
പരുക്ക്
പരമ്പരാഗത
പ്രതിശ്രുത
ചികിൽസ
നിരോധിക്ക
സജ്ജ
##ുണ്ടാക
അന്ധ
##കളുണ്ട്
തീർത്ത
സഹായിക്കാന്
വാതിൽ
കൗൺസില
മോഷ്ടാവിനെ
ഒഴുകി
വളർച്ചാ
##നൂ
##വെന്നും
റ്റേഷന
##വീഴ
##ത്തിനൊപ്പം
##ലുകൾ
ടൂർണമെന്
വെള്ളക്കെട്ട്
ഉപയോഗിച്ചു
ലന്
##വൈകല്യ
ബ്രിട്ടീഷുകാര
കർഷകർക്ക്
##കരിച്ച
##ാവകാശ
സാധാരണക്കാര
അവിടുത്തെ
ഉണ്ടെങ്കിൽ
ഡാം
വാച്ച
##ീക്ഷ
പ്രദീപ്
ഗ്രഹ
##സമൂഹ
പ്ലാൻ
ബിരിയാണി
കസേര
സാഹസിക
ബുദ്ധ
സൂക്ഷ്മ
ഹോണ്ട
മരണപ്പെട്ടു
##ദ്രി
ദാസ്
##ോറ
##ാംശ
##ക്കുമെന്ന്
സംഭാഷണ
വാതില
പേഴ്
പ്രൈവറ്റ്
നൽകണം
##ക്കുകയാണ്
ജീവനക്കാരന്
##എൻ
##ലക്ഷ്യ
വിമർശിച്ച്
അല്ലെ
മനു
പ്രായപൂര്
റേഷൻ
വലതു
ഗർഭിണി
നായകനാകുന്ന
റിട്ട
അയ്യ
മോചനം
##െക്കുറിച്ച്
മാമ
മാത്രമായി
കയർ
##വിഷ
പ്രേത
ഇടപെടല
ഒരുക്കങ്ങള്
##പ്പിച്ചു
ഫുഡ്
വൻഷൻ
മനോരമയുടേത
വിജയിക്ക
സുനിൽ
തിരിച്ചുവര
ശിക്ക
പ്രസവിച്ച
##കല്
നോട്ടുകൾ
##മിനി
പൊളിച്ചു
ഫോണില്
പിതാവ
വയസുകാരനെ
ഹ്യുണ്ടായി
ഓശാന
കായ
കീപ്പറുട
ട്ടം
രംഗത്തെത്തിയ
##ിയിരിക്കുന്നു
##ച്ചന്
ജീവനൊടുക്കി
ഖൊ
##പത്ര
വിളംബര
ഇറക്കി
രൂക്ഷമായി
##ുകാരന്
സല
ബാലി
വെടിയേറ്റു
അവരോട്
രക്ഷിക്കാന്
ശുദ്ധജല
അവതാരക
വിഭാഗത്തില്
സിനെ
##നുള്ള
നാട്ടിലെത്തിക്ക
ഹാന്
വിലക്കി
##ാറുള്ള
##ിടത്ത്
ക്കാറിന്റെ
ഇരിപ്പിട
മൃഗശാലയിൽ
തലശ്ശേരി
##ാമത്
##ത്തീ
സ്ഫോടനം
ത്താവിനെ
ഷത്തിനിടെ
രൂപവത്കരണം
ഉണ്ടാവാത്തത
മീറ്റർ
##ണര്
രോഗികളെ
സഹിക്ക
അടച്ച
കാര്യമില്ല
വിലക്ക
ആശ്രയ
##രൂപം
പ്രവാസികൾ
ചേർത്ത
ഇറക്കുമതി
നെടുമ്പാശേരി
ശാസ്ത്രസാഹിത്യ
പ്രേക്ഷകരുടെ
ത്തിച്ചു
എഡ്
##ോളി
പന്തു
പണ്ട്
എറിഞ്ഞു
പുഴു
വിവാദത്തിൽ
കുത്ത
ഡോണൾഡ്
രിവാൾ
ആഘോഷിക്ക
##കുടുംബ
വയര്
പെട
ഹൈമാസ്റ്
പാഷ
നാശം
##ക്കുഴി
വരുമ്പോള്
കൈവശം
തലസ്ഥാനം
ബാബ
മഠ
വടി
മുറിവ
##ാവുന്നത്
ച്ചയായി
ഐസിസി
ക്രൈം
വ്യതിയാന
ആരംഭിക്കണം
പത്രം
##ക്കില്ല
ഉദ്യോഗസ്ഥനെ
കൂട്ട്
ചെമ്പന്
##രില്
കേന്ദ്രമായി
അത്താഴ
##ൊതുക്കി
നിനക്ക
ജന്മദിന
മുറിയിൽ
സിറിയ
##യോടൊപ്പം
നേരിടുന്നു
വീതി
ഇള
അഭയം
കുടുംബത്തിൽ
യഅ്ഖൂബ
കരുതുന്നു
##ല്ലൂർ
പറയാതെ
വരാം
ഇടപെടല്
തോക്കുകള
നിഷേധിക്ക
##യപ്പോൾ
വ്യക്തിത്വ
കയറ്റ
ബ്ലൂ
##മുഖം
##പ്രതിസന്ധിയിലായി
എഫ
കമ്യൂണിറ്റി
രാശിക്കാരാ
ആവശ്യമില്ല
##ട്ടും
ആശയം
പാഠ
അഖിലേന്ത്യാ
ജീവിതത്തെ
മറ്റാര
##ക്ല
ജൂ
ശ്രേണി
ആവാസ
എത്തിച്ചു
സുകള്
അറയ്ക്കൽ
ശിവകുമാറിന്റെ
അന്വേഷിക്കണം
വേളി
കോൺഗ്രസിന്
സംരംഭക
കാര്യങ്ങളെ
തേങ്ങ
രോഗികളുടെ
##റീ
കൊണ്ടുപോയി
ടണ്
സമീപത്ത്
എംബസി
കോപ്പ
കേശവ
ജലോത്സവം
വഴിയില്
ഭയം
സാന്നിധ്യ
##മൂര്
അത്രയും
പുനരധിവാസ
ശേഖരിച്ച
കോറ
##കൃതി
രക്ഷിച്ച
ദിലീപിന്
ലക്ഷ്യത്തോടെ
ഡോളറ
തലച്ചോറ
കുതിക്കുന്നു
##പറ
സമൂഹമാധ്യമങ്ങള
ഇടയിൽ
ഗോവിന്ദ
കഴിക്കുന്ന
##ാനാവാത്ത
ഐസക്
മതില
പ്രായോഗിക
##വാചക
ചെയ്തില്ല
ഫ്ലാറ്റുകൾ
യുക്തി
ചെന്ന്
പന്നി
കാമുകനും
##കൾക്കായി
കൊതിയൂറുന്ന
കാർത്തിക
ഉമ്മൻ
പ്രധാനം
##ക്കാട്ട്
ജയിക്ക
##തെന്ത
സഹകരണത്തോടെ
ഹരികുമാറിന്റെ
വികാസ്
വാള്
മരത്തിന്റെ
ഗാംഗുലി
അബ്ദുള്
സമീപനം
##ിയാല്
മുടങ്ങി
ച്ചും
പഠനോത്സവം
പാക്ക
##ീട
മത്
വഖ്ഫ്
മോഹൻലാല
അവസാനിപ്പിക്കണം
ഷൂട്ടിംഗ്
##ബേ
ടൈംസ്
വിത്ത്
##ിര
കാലു
ലാബ
പരീക്ഷണം
ഓടെ
എൽപി
എബ്രഹാം
ബ്രാഹ്മണ
സിന്ദാബാദ്
ഫോട്ടോഗ്രാഫർമാർ
കൂട്ടുകെട്ട്
പൊതുമേഖലാ
വൈക
സർവ
##ചെ
##യിലോ
ലോകത്തിന്റെ
##യ്ക്കാണ്
രാമചന്ദ്രൻ
##ണീ
വൃക്ഷ
ചുര
തയാറ
##ൊന്നുമല്ല
മറച്ച
കുറു
സ്വാധീന
അണക്കെട്ട
ബിസിനസ
ലെവൽ
രാജ്യങ്ങൾ
കാത്ത
ഒരാളുടെ
##ഗ്രാഫ
സ്ഥാപനം
##പ്പിച്ച്
##രാണ്
ഫീസ
##ുകാരന
ശ്രമിച്ചത്
##ട്ടിയിലാക്കി
സിപിഎമ്മിന
വെയര്
##യിരുന്ന
ജയിലില
സമർപ്പിച്ച
ഈശോ
പവൻ
കുരങ്ങ
തേടിയ
##ുന്നുണ്ടോ
ജനപ്രതിനിധി
നിർവഹിച്ചു
ഇറാനി
##ുണ്ടെന്നും
നാരായണന്
വിലക്കുറവ
ഡ്രൈവിംഗ്
##ങ്ക്
രോഗങ്ങള്
മാർക്
##ത്തോടു
ജീവിതത്തിന്റെ
ജലം
ആശുപത്രിക്ക്
ക്കെ
സെല്ല
നീര്
ചലഞ്ച്
##െടുക്കുന്നു
കോൺഗ്രസ
ഇലവന
ഓമന
പണമ
വിമർശന
ചെങ്ങന്നൂർ
ഷിക്കാഗോ
പ്രവർത്തിച്ച
ബിരുദം
മനസ്സു
ഇരയായ
##വിവര
കൂടിന്റെ
കാരവും
ജോസഫിന്
അനസ്
കർ
വയറു
ലക്ചറര്
ചൊവ്വ
സ്പീഡ്
രാധാകൃഷ്ണന്
സംസ്കാരം
പൊതുജനം
##ാണുള്ളത്
സൈന്യ
ചീര
പാർലമെന്
കീറിയ
സലൂണിന്
വൈക്കോൽ
യോജിച്ച
ചാരിറ്റി
പപ്പ
പുള്ളിമാ
അഹ്
മുന്നിലെ
റേഞ്ച്
എന്നോർത്ത്
മദ്രസ
കേരളത്തിനു
മാറുന്നത്
##ത്തിലോ
അനുഭവകുറിപ്പ
ക്കിണ്ഡ
തിറ
##വൊളി
##ഥാ
സഖ്യം
സുബ്രഹ്മണ്യ
കെയുടെ
നീളുന്ന
നീന്തിക്കടന്ന
അഭയ
##സ്റ്റി
ഉദ്ഘാടനംചെയ്തു
സൂചിപ്പിച്ച
വിവരാവകാശ
സമാന്തര
കണക്കു
കീഴടക്കി
മീറ്റര്
കോന്നി
പ്രസക്തി
പരിപാടിയില്
ഡേറ്റ
സീതാരാമൻ
സുഹൃത്തുക്കൾ
കറിയുമായി
സംഭവിക്കുന്നത്
ജൈവകൃഷി
##ങ്ങു
മൈന
##സംസ്
##ണമെന്നാണ്
##ക്ഷന
അറിയാൻ
വിമാനങ്ങള്
##പ്പില്
##മത്സ്യത്തൊഴിലാളി
##ാഹ്
മിമിക്രി
അംഗങ്ങള
തോട്ടം
മനി
മറ്റൊന്ന
ശവ
മൈസൂര
ഹാള
##മുറുക്ക
പിതൃത
ദോഷ
അജിത
ഉറപ്പിച്ച
##റാണ്
തൊഴിലാളിയെ
പായുന്ന
സ്വരാജ്
സാധ്യമാ
ധാര്
എനിക്കും
കരുതലോടെ
തോന്നലിൽ
ബലി
##ഗുണ
##റേഷന
ലാൽ
മദ്ധ്യ
##ർവ
##ിറങ്ങുന്ന
ആരോഗ്യവും
##കുട
ഗോപിക
സ്റ്റേഷനു
##നാര
##പാഠ
ഉപയോഗിച്ചപ്പോള
കണ്ണന്
കരിമ്പ
കണ്ടതോടെ
അവസാനിച്ചത്
ചേരുന്ന
തെറ്റുകള്
ധിപ്പിക്ക
##ൂരില്
##തിനെക്കുറിച്ച്
##മുറ
ധൈര്യ
ദിലീപിന്റെ
മുഖപത്രമ
നോവ
പുറത്തിറക്കിയ
വസന്ത
യജ്ഞം
വരച്ച
തകർത്തു
##യിലേയ്ക്ക്
നിശ്ചയിക്ക
ഉപജില്ലാ
##ബിള്
##ിട്ടുണ്ടെന്നും
പ്രകടിപ്പിക്ക
യൂറോപ്യൻ
തെളിവെടുപ്പ്
നൗ
റോഷന
ഹോസ്റ്റ
എതിരാളി
ബഹുമാന
പങ്കുവച്ച
##ത്താല്
നറുക്കെടുപ്പ്
സത്യവേദപുസ്തകം
തെറ്റിദ്ധരിപ്പി
##ാനാകില്ല
ഫാൻസ്
കിട്ടാതെ
ഉത്പാദന
ലൂസി
സംവിധായകന
നെയ്
ഭാരവാഹികളെ
നാൾ
നിശ്ചിത
ഉണ്ടായി
##പിടിക്ക
ടോക്
##ായിരിക്ക
സിപി
സജീവമായി
ഭവ
മലയാളത്തിന്റെ
##നാം
ആധാർ
മുകേഷ്
ഇവരാരും
പഞ്ചസാര
മുൻപത്തെ
ജീവന്റെ
അവസാനിക്ക
വോട്ടർ
സെര്
മൗ
##ചിത്ര
രാമചന്ദ്രന്
ലീല
##ലക്ഷ
കോർ
##ഡെ
വാർഷികവും
##സിനും
##ികളായ
##ത്തിനുശേഷം
പ്രഫ
കൂട്ടിയിടിച്ച
##പ്പട്ട
##വാരത്തെ
റൂട്ട
ഇവയുടെ
നോമ്പ
പുറത്തുവിട്ട
പിടികൂടിയത്
##സിനു
മോഹൻ
ലക്ഷണങ്ങള
##ഴിച്ച
ദിവസങ്ങളില്
##വള്
സ്റ്റേഡിയ
മുള്ള
ഇതുപോലെ
പൗരന്മാര്
എന്തൊരു
നാട്ടുകാര
നിയമത്തെ
അനുവദിക്കുന്ന
##വണ
പ്പത്തിയഞ്ച
പതിനൊന്നുകാരന്
ത്തകരെ
ബഡ്
വ്യക്തമായി
സാധനമെന്ന
##യ്ക
നാളുകള
ചുമര
കപ്പൽ
ചിങ്ങ
മനുഷ്യരെ
വിധവ
കാഴ്ചകൾ
നേതാവുമായ
സഹായിക്കുന്നു
കൗ
പ്രായമായ
നിയമങ്ങള്
##തുമാണ്
പ്പന്
കുറിച്ചും
ടാൻസി
തരത്തില്
##ക്കാട്ട
ഗണിത
സേ
പ്രകടിപ്പിച്ച
കടത്തി
മർകസ്
##ാർത്ഥ
എന്തെല്ലാം
പോരാ
##രിച്ചു
##ീക
##റോഡ
##ാക്കുന്ന
കുടുംബത്തെ
ശിഹാബ്
ആരോപിച്ചു
മൂലധന
വയോജന
സഹോദരൻ
##ാധി
സംഗതി
പിടിയിലായ
എസ്എംഎ
വുഹാനിലെ
അംഗമായി
സോണിയയും
അമേരിക്കയും
ത്തിയാക്കി
ഇരുന്ന
പതിറ്റാണ്ട
പ്രഭാഷണ
വിശ്വാസി
##ക്കണ്ണ
കുമരകം
ബാംഗ്ലൂര
പുനലൂർ
നാണയ
ഇതിലും
ചെലവു
ഷോട്ട്
അഭിനയിക്ക
##മില്ലെന്ന്
ഏട്ടന
വിവാദത്തില്
തൊലി
സഹായി
കർത്താവ
ജനസംഖ്യ
മനോ
റെഡി
സല്യൂട്ട്
വംശീയ
##മനസ്സ
##ത്തിൻ്റെ
കഥാപാത്രങ്ങള
വ്യൂ
##ടം
സ്വര
##എന്ന
വിനയ്
കേന്ദ്രത്തിന്റെ
വിശേഷിപ്പിക്ക
ആകാം
ദമ്പതികള്
വിശദീകരിക്ക
ശ്രമിക്കുന്നത്
മട്ടാഞ്ചേരി
ഉപദേശ
രക്ഷപ്പെട
അക്രമികള്
കൊക്ക
ഇടയാക്കിയ
മുത
വിളമ്പി
##പത്രം
ആതിര
നന്ന
കിലോമീറ്ററ
പാണത്തൂര
കണ്ണീരണിയിക്കു
നട്ടെല്ല
##ങ്ങല
സംഭവിച്ചു
ട്ടര്
ആഴ്
പുന്ന
##വട്ട
പേപ്പർ
മൂന്നര
##യോട
ദല്
കം
ഇങ്ങ
ചിക
പാവപ്പെട്ടവരുടെ
തിളക്കം
ഭേദഗതിക്കെതിരെ
സഹോദരങ്ങള്
##നേരം
ഭാരവാഹികൾ
ശ്വാസകോശ
ഹൗസിൽ
എന്തേ
കുമാറിന്
തള
##സഹ
മികവ്
ദിനങ്ങൾ
ലിംഗ
ഞാ
ബന്ധപ്പെട
##മാത്ര
ചാടിയ
മൂല്യം
ബെൻസ്
യൂണിയന
വില്ലനായി
ഗുണ്ടാ
പോസ്റ്റുകള്
ഡിങ്
തെരഞ്ഞെടുപ്പു
ചെയ്തിരുന്ന
എൻജിനിയറിംഗ
ചിക്കാഗോ
നമ്പറ
ത്തിച്ച
നഷ്ടമായി
കുമ്മനം
സഞ്ചരിക്ക
സെറ്റ്
മേല
ഒപ്പിയ
##ക്കൊണ്ടിരിക്ക
##ത്തിനൊരുങ്ങി
ചെസ്
##യാഗ
##ൈഡ്
വായ്
ലൗ
രാസ
താഴെയുള്ള
##പ്പോര
ലിറ്റിൽ
ജഗതി
ഗുണ്ട
സർക്കാര
ക്ലാസും
പുത്ത
ഭൂമിയില്
##ൻസി
ത്താവും
ക്കൊള്ള
കിടന്ന്
സാം
തന്ത്രം
നിലവിളി
ലേലം
ദുരന്തനിവാരണ
മെച്ചപ്പെട്ട
സംവിധാനവും
തെരുവു
ട്രാക്ക
മത്സരിച്ച
ഗുരുതരമായി
കിഴക്കന്
ദില്ലിയിലെ
ഹാളില്
പിന്നിട്ടു
##ങ്ങളുണ്ട്
പെൺ
കമ്പ്യൂട്ടർ
പുരോഗമന
തീർത്ത്
രാശിക്കാർക്ക്
കെയർ
സാധിച്ചില്ല
നെല്ല
##ിഷ്
നിഷ
മുട്ടം
##വിധം
ചെയ്യുമെന്ന്
ബസ്സുകള്
നിയമഭേദഗതി
സ്റ്റിറ്റ്യൂട്ട
അദ്ധ്യാപക
പുതിയതായി
ഭക്ഷണവും
ഗ്രാന്
##ിഷ്ട
##ിക്കു
##ചിത
ജോഡി
##വാഹ
##നിരോധന
പശ്ചാത്തല
##ുരു
മൈല
മോദിക്ക്
ഹോട്ടല
കേസുകൾ
ചെയ്യുകയും
ലൈവ്
##രണ്ട
##നഗർ
ത്തകരുടെ
മാതാപിതാക്കളുടെ
ഉത്തരവാദിത്വം
വരാൻ
സ്വീകരണ
ബാങ്കിൽ
##ക്ടര്
ജീവിച്ച
സിസ്
ഇംഗ്ലീഷ
വിവേക
തലസ്ഥാന
##യുണ്ടായ
ദൂരം
കോടികളുടെ
ഏർപ്പെടുത്തിയ
ഒരുപോലെ
സോമ
##ക്കഴിഞ്ഞ
ജീവിതത്തിലേക്ക്
സിസ്റ്റര്
ഇലക്ട്രോണിക്
അതില
##ുന്നതിന്റെ
കർമ്മ
##ശ്വാസ
ആഘോഷക്കമ്മിറ്റി
നിയമിച്ച
താഴ്ന്ന
മുകളില
ഭീകരാക്രമണം
ഗുണ്ടർട്ട്
പറക്ക
ലമെന്റ്
വള്ളി
അന്തര്
കാലി
തെരഞ്ഞെടുത്ത
താത്പര്യ
കാരന്
പിടിക്കുന്ന
സംശയിച്ച്
രാജാ
##ഫു
പഞ്ചാബി
ഇറച്ചി
അവലംബ
പൊലീസിലെ
വവിദ്യാ
കഴ
മുഖ്യമന്ത്രിയെ
ഷൂട്ടു
ഓപ്പോ
നടു
നാണക്കേട
ടീമും
നവോദയ
##യൂർ
തൊട്ടടുത്ത
ഒന്നിച്ച്
##ദാര്
##മുതല്
നിയമങ്ങൾ
സാധ്യതയുണ്ട്
പിടികിട്ടി
വ്യക്ത
പ്പം
ഭാര്യയെയും
മമ്മൂട്ടിയുടെ
പ്രകട
##സൽ
ജനിച്ചത്
##ത്തരം
പ്രമേഹ
##തീര്
ഗ്രാ
ശുദ്ധ
##ട്ടിൽ
തിളക്ക
##പ്പാട്
ട്രെയിനുകള്
ഓഡിറ്റോറിയം
നേതാക്കളും
ജീവിതത്തിന്
നമസ്തേ
ശ്രീദേവി
വിവേചന
ലഭിക്കുന്നതാണ്
##പുഴ
കോന്നിയൂ
കാണാതെ
മത്സരിക്കും
പാലിക്ക
ക്കേണ്ടി
##തിനിടയിൽ
ക്രിക്കറ്റ
##വട്ടം
വിശ്വാസികൾ
വണ്ണം
കൂടുന്ന
##വാത
വളവ
ദോഹ
അസ്ഥി
ക്കുള്ളില്
##യുണ്ടാക
രൂപയായി
ഇതിന
തെറ്റിദ്ധാരണ
ശുപാർശ
ഞെട്ടിപ്പോയി
##യ്ക്കിടെ
ശബരിമലയിൽ
പരുക്കേറ്റ
##ഹു
കണ്ണാടി
കടിച്ച
ചേച്ചിയുടെ
##ദർശനം
പിടികൂട
നഗ്ന
##ടുക്കം
കടലിൽ
##തുടങ്ങി
ക്ഷണക്കത്ത
ത്തുന്നതുമായ
##ടീ
കഴുതയ
നിവാസി
കസവ
##യുദ്ധ
നിർമ്മിക്ക
##ാബ്
##ക്കരുത്
തുറ
ലഭ്യമാകും
ചെയ്താൽ
പത്രോസ്
യാക്കോബായ
##ച്ചൻ
അതാ
##പ്പന
എതിര
##സ്ഥിതി
ഷൈ
യാദവ്
വിശദമായി
##റിയപ്പെടുന്ന
ഇന്ത്യയുമായി
ഉത്പന്നങ്ങള്
തട
പരിപാടിയിൽ
ഓൾ
സിദ്ദിഖ്
##മുണ്ടായിരുന്നു
മേഘ
ഗർഭ
വയസുകാരന്
പോലീസിൽ
കടം
##ുണ്ടാക്കുന്ന
ഇംഗ്ലീഷിലോ
റോയി
വകലാശാലയില്
ആളപായമില്ല
##വാണ്
##ുണ്ടെങ്കിൽ
ക്ഷണിക്കുന്നു
ചെയ്യണമെന്ന
പഠ
സാബുവിനെ
ജയറാം
##മൺ
##ുമായിരുന്ന
സംഭവത്തിലെ
ജിന്
ആദരവ
ആവിഷ്
പിതാവിന്റെ
നിയമിച്ചു
വിളിക്കുന്നത്
ഗൈഡ്
മിത
അധ
മർദിച്ച
പിറന്നത്
പുസ്തകങ്ങൾ
ലംഘിച്ച
പാവം
തൽസമയ
വമ്പൻ
സമീപിക്ക
പരിചയപ്പെടുത്ത
ചെയ്യപ്പെടുന്ന
പ്രസിഡന്റിന്റെ
ആവശ്യത്തിന്
ബന്ധപ്പെടുക
സൗകര്യങ്ങള്
##നേര
ഉറ
ഇറങ്ങുന്നത്
നോർത്ത്
വേനൽമഴ
മഹോത്സവം
##ുണ്ടാക്ക
വല്ലാതെ
##ക്കുള്ളിൽ
തേന്
##ത്തൂർ
##പ്രിയ
ഉറങ്ങിയ
മോഹനൻ
സംഘത്തെ
നിറച്ച്
കുമെന്ന്
ആംആദ്മി
ചെല്ലാനം
ആശ്രിത
ഫോണിന്റെ
അക്കാദമിയുടെ
ഷോര്
കൊലയാളി
വിലാസ
കരിച്ചു
പരസ്പര
ഓർത്തഡോക്സ്
ബോട്ട
അവയവ
അതുകൊണ്ടുതന്നെ
##ക്ഷേത്രത്തില്
##മാണ
നിരക്ക
പോല
ഫോക്കസ്
തൂങ്ങിമരിച്ച
##കോടി
കയ്യില
ഭരണസമിതി
മണിക്കൂറ
വധ
##ർഹ
ലോകകപ്പില്
##റ്റിംഗ്
ഇരുന്നു
പാർട്ടിയുടെ
ലിന്
കാവല
ജയസൂര്യ
ഗ്രീൻ
തോട്
##യുഗ
പരാമർശ
##ദിവസ
##ത്തിൻ
##ക്കിട
##നെന്ന്
പ്രണയിക്കാവ
##രുടേയും
പുരാണ
കൈത്താങ്ങ്
##ുമ്പോ
വഹിക്ക
##ൊപ്പ
എകെ
കെട്ടിടങ്ങൾ
അമേരിക്കയില്
കശ്മീരി
ഉടമയുടെ
സഹിതം
ജമാഅ
##ുകയുള്ളൂ
സ്ക്രൈബ
##അറിഞ്ഞിരിക്കേണ്ട
ധന്യ
##കാമെന്ന്
സ്ട്രീറ്റ്
ലോക്സഭാ
ശശീന്ദ്രൻ
അവയവദാന
ജേതാവ്
പ്രയോഗ
##യിസ്
പുറത്തിറങ്ങ
ജവാന്
അമ്മിണി
പൊട്ടിച്ചിരിക്ക
ഭീകരത
പരിഹരിക്കണം
##ിരിക്കുക
വീസുകള്
ഭർത്താവും
##മിന്റെ
അട്ടിമറി
മാവോയിസ്റ്റുകള
തളിപ്പറമ്പ്
##ഞ്ചു
ആദിത്യ
മൃതദേഹങ്ങള്
##ങ്ങാട്
ഫൈനല്
##താപ
ഥ്യ
പോലെയുള്ള
നേതൃ
ലക്
സപ്തംബര്
പറഞ്ഞാലും
കൂട്ടിയ
കടലാസ
പീഡിപ്പിക്ക
മരങ്ങള്
പതിവായി
ഡേറ്റ്
പ്രചരണം
മണ്ണിൽ
##ചെയ്തു
പൊട്ടിയ
വിഭവ
വിറ്റു
##ഹം
പുഴയില്
താങ്കളെ
ഡിഎഫ്
സ്ഥാപനങ്ങളുടെ
ആൾക്കൂട്ട
വിലയില്
ചന്ദ്രൻ
##ൈറ്റ്
പ്രതിജ്ഞ
യാത്രയയപ്പ്
##പീ
ഇടവേള
##ത്തെപ്പറ്റി
സ്റ്റേഡിയം
##ീഷ്
ആരെ
ലംഘന
ചെയ്യുന്നതാണ്
മൈക്ക്
ഡിജിറ്റല്
സൗദിയിൽ
ക്കോ
ഷവും
വീട്ടുകാർ
ക്രിസ്ത്യാനി
##തനുസരിച്ച്
##കത്ത്
മേയര്
ടോയ്
##ിക്കുമ്പോള്
സ്വന്തമാക്കിയ
ആലോചിക്ക
കോയ
##ീകരണം
##ിനായുള്ള
കാട്
മിന്നി
നേരേ
മൂട
##കാര്
മാണത്തിന്
മലപ്പുറത്ത
കന്നഡ
കൂടുതലാണ്
##ങ്ങാടി
ദേവീക്ഷേത്രത്ത
സന്ദർശനത്തിന
ഭൂമിയിൽ
റോഡരികില്
##കയറി
ഒന്നായി
ഇതുമായി
ആശാ
##കരം
ദിനപത്രമാണ്
ജു
##ാജി
ഇത്തരത്തില്
റോയൽ
##ിച്ചിരുന്ന
നടത്തുക
നിലനിൽക്കുന്ന
പ്ലാനുകൾ
നഴ്സ
വ്യത്യാസ
ബീച്ച്
ബാഫഖ
മുൾമുനയിൽ
കുറക്ക
അതൊക്കെ
തടസ്സം
നഷ്ടപ്പെട
ഒമാനില
വർഷങ്ങൾ
പഴക്ക
പോളിസി
പരാതിയിൽ
കെയര്
മനസ്സിലായ
മിണ്ട
##വേട്ട
അച്ചടിപ്പതിപ്പ
അഭിവാദ്യം
ചെങ്ങമനാട്
പടവാളുമായ
ഷാനിമോള
##ക്കിടയിൽ
കൊലപാതകത്തിൽ
ലിറ്റർ
ചന്ദ്രശേഖരന്
അനധികൃതമായി
ഞെട്ടിപ്പിക്ക
തലശേരി
ഖാദി
വിഭാഗത്തിൽ
##കാവ്
നെല്ലിക്ക
പാള
പാകിസ്ഥാൻ
സഹിക്കവയ്യാതെ
##ിച്ചാല്
നിരോധിച്ചു
ബാധിതരെ
##യുമില്ല
എന്നോർത്ത
സംവിധാനങ്ങള
രാജ്യങ്ങള്
ഏകതാ
##ുണ്ടാവ
കട്ട്
ശർമ
ആസാദ്
ഐബി
സീറ്റുകള്
പ്രാർഥന
സീറ്റുകള
ട്രെയിനിൽ
##ടയര്
ജുഡീഷ്യല്
സസ്പെന്
മമ്മി
സ്റ്റേഷനില്
##വാർത്ത
##ഗാന
##മ്മാ
ലാമിക
ഒരുങ്ങുന്ന
##ാകാം
കരയിലെ
റിമ
ഇഹ്റാം
സ്പീക്കര്
ഭാരതത്തിലെ
നരേന്ദ്രനാഥ്
തലമുടി
##സൗകര്യ
ആക്രമിച്ച്
സ്വത്ത
വേനല്
എതിർപ്പ
വെഞ്ഞാറമൂട്ടില
റോഡു
##വിട്ടു
കുംഭ
##യജ്ഞം
കേഡറ്റ
കൺവൻഷൻ
ഇക്കുറി
തൊഴിലവസര
ഗുപ്ത
ഗുണങ്ങൾ
ഉദ്യോഗസ്ഥൻ
##വിലെ
##രുന്നു
തിരുത്തി
രാജാവ്
വിജ്ഞാപനം
കെയ്
ടോക്ക്
##െടുക്കാൻ
ഒഴിച്ച്
ഉര
നിരത്തി
മദ്യവില്പന
സാമാന്യ
റായി
പൂർത്തിയാക്ക
ഫോമാ
വിഭവങ്ങള
##ങ്ങളെക്കുറിച്ച്
##മാം
ബന്ദ്
ലക്ഷങ്ങളുടെ
അഹമ്മദാബാദ്
പങ്കെടുക്കാന്
##പെട
പൗരന്
തരണം
ആറിന്
കാണുന്നവർ
അതിവേഗം
ഇരുപത്തി
എഴുത്തുകാര
ഡോക്ടറെ
ഗെ
ചേരാനല്ലൂര
സംഘത്തിന്റെ
ബാങ്കിൽനിന്ന
തീരത്ത്
നെഞ്ച
വേള്
യി
ആലപ്പി
ഭൂമിയിലെ
കൈരളി
ക്യാമ്പില്
##യുക്ത
ലങ്ക
വിസമ്മതിച്ച
##നിർത്തിപ്പൊരിച്ച
കബഡി
##ൊട്ട
എടത്വ
ജോലിക്ക്
ഡിഎ
കല്യാണി
ഗെയിമ
നിൽക്കെ
നടപടിയുമായി
ഹാക്ക
കമ്മ്യൂണിസ്റ്റ്
കൊടി
##കും
പീഡനത്തിന്
ഇളവ
മൂന്നംഗ
സ്ഥിരമായി
കാമ്പസ്
ഫ്ള
സിംഹ
മനസ്സിലാക്കി
കലാകാരന്
##മുണ്ടാക്കുന്ന
വിജയികള്
ചോറ്റാനിക്കര
വിവേകാനന്ദ
##മുമ്പ
ഒഴിവാക്കിയ
പാളം
##ക്രി
പാട്
നാടിനെ
##െട
പുതുക്കി
##ദം
വണ്ണ
കൽ
കാരണമ
ഓപ്ഷന
മാധവന്
ഏറ്റെടുത്തു
##യ്ക്കാ
ആരുടെ
പട്ടയം
സംഘത്തിന്
സുഹൃത്തുക്കള്
ചുരുക്ക
##പ്രകടനങ്ങൾ
ഓഡിയോ
മടക്കം
കൂടുതല
ഗുളിക
##രംഗത്ത്
കൈത്താങ്ങ
കാർഡ
ഫ്രാൻസ
സെക്രട്ടറിയുടെ
##ജ്ജ
ടീമിന്റെ
മിഥുന
വിശ
പരീക്ഷയ്ക്ക്
ഗാന്ധിയെ
##കുത്തി
ആശയങ്ങള്
##െടുക്കാന്
സഹപ്രവർത്തക
കാശ്
പാസ്പോര്
കേന്ദ്രങ്ങളിൽ
ഹിന്ദ്
##േയുള്ളൂ
സൊ
ആസിഫ്
##സ്നേഹ
കാണിച്ച്
യുവതീ
കോഡ
പുല
##ത്തോടുള്ള
നഗ്
രാജിവച്ചു
മൂവ്
റോയല്
##പ്പാട്ട്
ഇടിച്ച
##ിയേറ്റ
വർഷമായി
സമസ്തയുടെ
സംഭവിക്കുന്ന
അല്പസമയ
ഫുക്രുവിനെ
ദൗത്യം
##മാക്കുന്നു
ട്രെയ്
ചേർത്തു
ചെയ്യപ്പെട
ഭർത്താവിനെ
ആചാര്യ
തത്വ
രാജാക്കാട്
ഉള്ളടക്ക
വെൽ
പെരുമാതുറ
സോഷ്യൽമീഡിയ
കുരുമുളക്
സെഞ്ച്വറി
ജൈവവൈവിധ്യ
പങ്കിട
വിരമിച്ച
പ്ലാറ്റ്
##വനെ
ബാക്ക്
പട്ടികവര്
കൂളുകള
മെയില്
അധ്യാപകരുടെ
ആളുകള
ലഭിച്ചിട്ടില്ല
സ്ഥിതിചെയ്യുന്ന
##റർ
ഇണ
ചെയ്യിച്ചു
##പോല
മുക്ത
രാജേന്ദ്രന്
##ംബര
മട്ടന്നൂർ
സിബിഎസ്ഇ
ലോകത്തിന്
മറ്റുള്ളവര്
കലി
ത്തിയാക്ക
ബോധ്യ
പൊതുജന
ക്വാര്
##ജന്യ
##ണു
ശരീരത്തില്
ഇതിഹാസ
കീറിയെറിഞ്ഞ
കീഴാറൂ
പഞ്ചായത്ത
ഉണ്ടാകുമെന്ന്
##വാദി
മികവിന്റെ
സിന്ധു
പ്പെടുന്ന
##യിലാ
##ോദ്
പദം
##മാക്കുക
കമ്മി
കുടുംബാംഗങ്ങള
ആളിനെ
നീങ്ങുന്ന
##ാഗ്രഹ
സംസ്കൃത
വാർഡ
തണൽ
##താക
പിഴവ്
പോവുക
ആശുപത്രിയിലെത്ത
##ക്കഴിഞ്ഞു
കലാമിന്
വാഹനങ്ങളുടെ
മർദ്ദിച്ച
പ്രബന്ധ
ലക്ഷ്യമാക്കി
കെജ്രിവാള്
##മ്പാ
തടങ്കല
എത്തിച്ചേര
പിടികൂടിയ
മത്തായി
വൃക്ഷത്തൈ
ഭിണി
നിർമല
ഇറാന
സമ്മേളനത്തിന്
##യാല
കൊയിലാണ്ടി
കവളപ്പാറ
നാള
ഫോറസ്റ്റ്
പെറ്റ
##ചതുര്
ചരിത്രവും
വീഴുന്ന
ചിര
വൈറ്റില
മഴക്കാല
##ൂട്ട
ഹോട്ടൽ
ഹോമിയോ
ഒരിടം
തെരഞ്ഞ
വാർത്തകൾക്ക
##കലാ
##ാധിപത്യ
പാർക്ക്
##കിട്ട
ഗൃഹനാഥ
##ഡില്
ബില്ലിനെതിരെ
##ിള
കൊല്ലുന്ന
മറിഞ്ഞ
രീതിയിലുള്ള
സ്പോര്
##ക്കേട
നിമിഷങ്ങള
പരിശോധിക്കുക
##നവും
പുറത്തിറക്ക
##ത്രെ
ബാഴ്
ചരിത്രത്തിലെ
ബ്രിട്ടന്
സെൽ
മെമ്മോറിയൽ
##ിത്
##ക്കിടയില
സയനൈഡ്
ആയപ്പോൾ
സമയവും
തലത്തില്
ജിയില്
പേളി
തെറ്റു
നാലുപേര്
ആർക്ക്
കൂളുകളില
ചൗധരി
##ചെയ്യുന്ന
ഇമെയിൽ
മുറുക്കി
വിയോഗം
അർ
##ായതുകൊണ്ട്
വിശകലനം
തരൂര്
നിശബ്ദ
സഞ്ചാരി
##യാണെന്ന
ഫില്
സ്ത്രീധന
ആരാ
പൗരത്വനിയമ
അബ്ദുൾ
ആസ്പത്രിയില്
വിശപ്പ
കൂർത്ത
പ്രസാദ്
പതുക്കെ
ഉപന്യാസ
##മട
ചലന
തേച്ച
മടിയ
കണ്ണുകൾ
അവാർഡുകൾ
സമ്മിശ്ര
ബഹുമതി
ഫീല്
മണ്ഡലത്തിലെ
അഴിമതിക്ക്
ഇമെയില്
രാജ്യസഭാ
എടുത്തുപറയ
##ക്കന്
ചര
ഇടപാടുകള
തന്നു
##ങ്ങളോടെ
സാധിക്കാത്ത
##പക
ജയരാജനെ
സൈറ്റില്
അഭിനന്ദനങ്ങള്
വർഗ്ഗ
ജെയ്റ്റ്
ജീവനക്കാരനെ
പ്രതികരണവുമായി
ഫോറൻസിക്ക
കടംവാങ്ങി
രജിത്തിനെ
##പ്പതി
വരികയും
ലോഡ്ജ
##ടച്ച
മുന്നേ
മേഖലയില
കുറയ്ക്കാൻ
ദീർഘ
വ്യാപിപ്പിക്ക
ക്യാ
വിപ്ലവം
##ത്തിലായിരുന്നു
വാസ്തു
കോള്
##ഹൃദയ
കൊലവിളി
##രുതെന്ന
ഥികളെ
ബസില്
എടുക്കാം
വെളുത്തുള്ളി
ലഘു
ഓണാക്കി
മീതെ
കസ്
ഗ്ലോബൽ
കിട്ടാൻ
##വചന
##ൂരിലെ
മുഴു
പാചകവാതക
ഇറാനില്
കഴിഞ്ഞതോടെ
##പ്ല
തത്സമയ
തൊഴിലാളികളെ
പരിസരവും
റേയും
##ാവാം
റാവു
വേട്ടയാട
ചിന്ന
എഴുതാന്
റീജിയണ
##മ്പാറ
ഏതൊരു
ദുരിതത്തില്
ക്രിക്കറ്റിൽ
ഒരുമണിക്കൂർ
മാതൃഭൂമിയിലെ
വിലയും
ബാധിച്ചു
ഓണസദ്യ
ജലസേചന
##മാതാ
##ൈന്
ബ്രെ
അടിത്തറ
കൗമാരക്കാര
##ലീന
##ക്കോള
ഐപി
സുര
##റിഞ്ഞു
കരുത്ത്
തണല്
ഇയാൾക്ക
##ത്തൂ
ഗൗരവ
തെറ്റുതിരുത്ത
തോന്നയ്ക്കല
##ീല്
ആശങ്കയിൽ
ദാമ്പത്യ
##തിലൂടെ
ആരംഭിക്കാൻ
പവര്
റോഡുപണി
ഇടിച്ചുകയറി
വൃത്ത
ഹ്യൂ
ഉപയോഗിക്കുക
കാവ
കനക
ആവശ്യമുള്ള
റോഡിലൂടെ
##വരുന്നു
എന്നിവയും
വില്ലത്തിയെ
##മാകുന്നത്
ടോപ്പ്
വിൽക്ക
പമ്പാ
ഉദ
ദഹന
സുഗന്ധ
യന്ത്ര
സമ്മാനിക്കും
ശോഭന
ഓവറില്
വിശ്രമ
കാര്യമാണ്
നടക്കുക
##ക്കുമെന്ന
പേഴ്സണ
ഭിന്നിപ്പിക്കാ
മുണ്ടുമണ
ബഹുജന
തുറന്നടിച്ച്
റണി
കുതിപ്പ
മ്മം
ശ്രമിക്കും
##ിക്കാത്ത
തർക്കം
അപമാനിച്ച
##ിസ
ശ്രീജയുടെ
ചികിത്സാസഹായം
##ഭേദ
കാരണങ്ങള്
മാതാപിതാക്കൾ
പരിചരണ
##തിനാല
പുസ്തകങ്ങള്
ബാങ്കിന്റെ
നീങ്ങുന്നു
കയറിപ്പിടിച്ച
വെബ്സൈറ്റ്
അവരവരുടെ
റൺസ്
ക്രിസ്തു
##നാൾ
##മിന്
##ശ്രമ
ശാക്തീകരണത്തിന്
##ക്രമം
മില്
റിയാദ്
തീർച്ചയായും
ബ്രേക്കിങ്
മന്ത്രാലയത്ത
മധൂര്
പ്രമേഹം
##സ്മൃതി
വിശദ
അഷ്
##ണൽ
കൺമുമ്പി
##യായത്
മഡ്
ത്ഥികളെ
സ്മാന്
ഫേസ്ബുക്ക
##ഷേ
ആട്ട
അനുഭവിക്കാത
തുടരുകയാണ്
ക്രിസ്ത്യന്
ബൈക്കില്
സത്യകഥ
കയറ്റുന്ന
##റിക്
തോറ്റു
##കൊണ്ടും
##പ്രകാരമ
ഉട
അതിരു
കുഴിത്തുറ
##രാശി
##ച്ചേരി
##യാസ്
##ഗ്രാമ
കുത്തേറ്റു
തുടർച്ചയായി
ജപ്പാന്
ബംഗാളി
##റിയാ
കളഞ്ഞ
മെറ്റ
##ാമെന്നും
കേസെടുത്ത
ജയത്തോടെ
##ുതന്നെ
തീരെ
കോളനിയിലെ
കേസിന്റെ
നശിക്കുന്ന
പുരയിട
ഷകരുടെ
##വില്പന
മെത്രാപ്പോലീത്ത
ലോറിയസ
സഹോദരിക്ക
നിഷേധിച്ച്
ക്കുമ്പോള്
മഹാസഭ
ശ്രദ്ധേയ
അശ്രദ്ധ
കൊടു
##പട
കാര്യങ്ങളും
##സാമ
ദുരിതം
വശത്തുള്ള
ചീത്ത
##ിലാക്കി
അയൽപക്കത്തു
കൊള്ളയടിച്ച
ക്രൈസ്റ്റ്
ആരോഗ്യവകുപ്പ്
സീരിയസ്
നിയന്ത്രിക്കാൻ
ലര്
അസിസ്റ്റന്
ഡ്രൈവ്
##ാണ്ട
അവിനാശിയിലെ
ബോള
ശബരിമലയില്
ജുന്
നോക്കിയാണ്
കലാകൗമുദി
ഞാനാണയാ
സ്വാഗതസംഘം
ഉരുള
ണവും
ദ്ധന
പൊതുവിദ്യാഭ്യാസ
കണ്ണും
മറ്റുള്ളവര
##ർദ്ദ
##യുവ
പ്രമാണ
##ലായ
സ്റ്റിറ്റിയൂട്ട
ഒരുമിച്ച
##മോണിയ
ജസ്
ജപ്പാൻ
##ത്തിലേക്കുള്ള
ഖു
കയ്യില്
##രക്ഷാ
വാർത്തവായ
റഷീദ്
മന്ത്രാലയ
ഐപിഎല്
സമ്പത്ത
ലീഗില്
##യാമ
##രുതെന്നും
ശല്യ
വികസനത്തിന്
ദുഖ
പിന്തുണയ്ക്ക
ഗ്രസിന്റെ
##നിന്നുള്ള
വിഭജന
ട്യൂ
വൈകീട്ട്
##വീട്ട
##കളയ
കഴിക്കാം
ഷെയര്
ചിരിക്കാന
പാവപ്പെട്ട
##യെടുക്ക
രക്ഷിതാക്കള
##പ്ലാ
##ളുടെ
ഹാപ്പി
സഭയില്
അഭിരാമി
കടയ്ക്കാവൂര
രശ്മി
കാഞ്ഞിരപ്പള്ളി
ത്തകര
പരിസര
ജോയ്
ശോഭായാത്രകള്
സാധിക്കാതെ
##പ്പിള്ളി
ച്ചറല
റോബോട്ട
##പൊട്ടിപ്പോയി
##ക്കളുടെ
പൊളിഞ്ഞ
വിളവ
ഹോള്
പ്രസ്ഥാനം
ബാധകമ
പ്രദേശങ്ങള
ബിസിസിഐ
മാംഗല്യം
എക്സ്പ്രസ്
ചിത്രീകരിച്ച
വയസുകാരിയെ
എസിന്റെ
തരി
അല്ലാത്ത
വിദഗ്
ശകര്
##ക്കാരനെ
അശ്
ബാലന്
വിശദീകരണവുമായി
##ളാ
അത്യാധുനിക
ഡൊണാൾഡ്
ബൈക്കപകടത്ത
ചെയ്യുന്നതിന്
സ്വാഗതാര്
##ന്നാ
കടപ്പുറത്ത്
പാക്കേജ
താരതമ്യം
ഘടക
തലസ്ഥാനത്ത്
കൊടുങ്കാറ്റ്
##സ്പര്
ഒമാന
ഖണ്ഡ
ഥന
ലേറെ
ചെളി
ആഘോഷമായി
അഗ്നിബാധ
നൈപുണ്യ
സെക്കണ്ടറി
##ുൾപ്പെടെ
ശരീരത്തെ
ബില്ല്
പരിചയക്കാര
നേതാക്കള
##ൈസ
##യിലായിരുന്നു
പണിമുടക്കും
സമീപമുള്ള
##ുണ്ടാകും
##റാം
ചന്ദ്രന്
##ശബ്ദവു
##രാണയാൾ
സൈഡ്
കുളിര
തൂണ
പ്രതീക്ഷിച്ച്
##ിക്കുകയാണ്
ക്യാംപ
ജോബി
സ്റ്റാൻഡ
ഇരുപത്തിമൂന്നാമ
കോഹ്ലി
##ുന്നവരെ
പ്രചരിക്കുന്ന
കുമാറിന്റെ
തേടുന്ന
##മിൽ
##വാൻ
വിജ
##നാന
മെഡല്
കയറിയത്
##ച്ചില
കുഞ്ചാക്കോ
ഡെലിവറി
ഓറഞ്ച്
ത്തല
സ്കൂളില്
ആധാര
വായു
ഹൈബി
ദ്ദം
പ്രവാസികളോട
കട്ടില
നിർണയ
അധ്യാപകർ
ഷെയ്ന്
തരൂര
പന്തില്
കൈയ
മുദ്രാവാക്യ
ആസ്തി
താക്കോൽ
വൊക്കേഷണല്
ഇതിനകം
##ിസ്റ്റ്
ഒരുക്കങ്ങളായി
##റിയാൻ
കൂട്ടുകെട്ടിൽ
മോഡ
##ടച്ച്
വിഗ്രഹ
##ൊലി
ഹാജരാക
കഞ്ഞി
പ്രായപൂർത്തിയാക
കാന്തപുരം
കൂർമ്മ
##ിടത്ത
ഉറങ്ങ
വാച്ച്
##ിയാണ്
തീയതികളിൽ
##തിനുശേഷം
തലക്കെട്ട
കമ്മ്യൂണിറ്റി
ചാനൽ
പൊലിഞ്ഞ
തളി
##ദിനാചരണം
അരങ്ങേറി
ഗവേഷണം
വൈകാതെ
സംഘപരിവാര്
സിസ്റ്റർ
ഗുരുനിന്ദയ
പറ്റാത്ത
ഭീകരതയുടെ
##ൻറ്
എന്നിവരും
ലിസ്റ്റ
##ചു
പോഷകാഹാര
ഓപ്പറേഷൻ
വിലാസം
സംഗമങ്ങള്
ലോകാരോഗ്യ
പകല്
ആരാധകര
കവറ
##പോവ
##കളിലാണ്
##ത്തീര
##ാശേരി
##ത്താൻ
##ിങ
##ിലേറെ
അന്വേഷിച്ച
ശരീരത്തിന്
ജയിക്കുമെന്ന
##ർമാർ
ഹജ്ജ്്്
ആരാധകന്
##യുണ്ടോ
##പ്പറമ്പ്
##ക്കളി
##തായാണ്
വെള്ളപ്പൊക്ക
താളുകളിൽ
അടുത്തു
മണ്ട
ആക്കി
സമ്മതിക്ക
##മഴ
നിറവേറ്റ
അറിയേണ്ടതെല്ലാം
ചെക്ക
##നൊ
ഏറ്റുമുട്ടൽ
കോര
സ്ഥലങ്ങളില്
രാഘവ
രജിസ്ട്രേഷൻ
കോടഞ്ചേരി
##ിലി
##ൊത്ത
പടര
അണലി
ലോകത്ത
മേഖലയുടെ
വർധിപ്പിച്ച
അനുസരിക്ക
സ്റ്റുഡന്റ്
ലഭിക്കാൻ
വെടിവെപ്പ്
കവിതാ
##ോല്
സ്വാ
##തിനാലാണ്
ലീഗിൽ
മുബാറക്
വിദേശമദ്യ
ഡാളസ്
##ക്കഥ
ഫിനാന്
ദയനീയ
##ബലി
അണിയിച്ച്
ഗവൺമെന്റ്
##ത്തേയ്ക്ക്
വന്നിരുന്നു
തീയേറ്ററുകളിൽ
സിയുടെ
കുണ്ടറ
മാറ്റുന്ന
കാട്ടിയത്
മ്യൂസിയം
##ുവിള
രംഗത്ത
വേണമെന്നും
അനുഭവിക്ക
##റ്റീവ
മിന്നു
പുനലൂര
അമ്മയുമായി
വംശഹത്യ
പരത്തുന്ന
മന്നം
ലോകകപ്പിൽ
നിരക്കില്
പ്രചാര
സോളാര
കണ്ടെത്തല
ഡു
കുറവാണ്
##വന്നു
ഇന്ത്യക്കെതിരായ
കനാല്
നേരിടാൻ
കുട്ടികളിലെ
##ാത്മ
ലധികം
കാരണങ്ങള
ഇന്ദ്രജിത്
താവള
ദം
മൈതാന
രോമ
##മണ
കാരൻ
സമാ
ആചരിക്ക
ഇൻഷുറൻസ്
നാടും
ഉജ്ജ്വല
തണുത്ത
പുറത്തായ
##റെയും
ചാണക
##സിറ്റി
പ്രവാസികളുടെ
അങ്ങാടി
ദ്ദനം
പ്രകടിപ്പിച്ച്
മൂത്ര
##കളുള്ള
റിയല്
ശക്തമാക്ക
##ുണ്ണി
കാളിദാസ
ജീവിതശൈലി
പ്രസംഗിച്ചു
എത്തുന്നവർ
പണിയെടുക്കുന്ന
ഏകാന്തത
##മൊ
സംരക്ഷിക്കാന്
ബാധിക്കുന്നു
##യടി
##ാനാകും
രചനാ
വരെയും
അവബോധ
##ഗ്രാമപ്പഞ്ചായത്ത
ഇറാൻ
സങ്കേത
##ട്രി
വെയില്
യുവാക്കളുടെ
ഡിവിഷന്
##യെപ്പറ്റി
##ർട്ട്
തയ്യാറായാല
എന്നതു
വിദേശികള
##മറിഞ്ഞ
##ത്തിന്റേയും
വനിതകളുടെ
ഷോപ്പ
സാദ്ധ്യത
ജൈന
ആഹാരം
സാഹ
##ക്കുറവ
കഴിക്കൂ
സവം
##യിലേക്ക
ക്കത്ത
##സമയത്ത്
##ാമി
##യിട്ടു
ശുദ്ധി
##യിലേക്കും
വിവരണം
##ാകാണ്ഡം
യൂസഫലി
ലഘൂകരണ
രാജിവെച്ച
സെഞ്ചുറി
കേവലം
ചിരിപ്പിച്ച
എല്ല
പരോക്ഷമായി
എന്നിവയ്ക്ക്
ദ്ദേശങ്ങള്
തലത്തിൽ
ലാം
##െഴുതി
ഡിസിസി
ഇല്ലെന്ന്
പരിരക്ഷ
പെഷ്യല്
സെന്ററ
ഐക്യദാര്
ചെയ്യാത്ത
പുറത്താക്കിയ
നിക്
##ിറക്ക
തെളിയിക്കാനുള്ള
പക്കാ
##പ്രകാശ
പ്രോജക്ട
##താന
കാസ
##ാവു
##ന്റെയൊപ്പം
##ശ്രമം
മോചന
ആയിര
കുര്യാക്കോസ്
പ്രശ്നങ്ങള
മലയാളപരിഭാഷ
സ്വന്തമാക്ക
ആദ
അയാള
പേടിക്കേണ്ട
സിറ്റ്
പ്രതികരിച്ചു
##ക്കാലത്ത്
നേപ്പാള
ചിലവ
ഫോട്ടോഷൂട്ട
ഷട്ട
കാരനായ
നൽകുക
ഞെട്ടിച്ച്
മേഖലകളിൽ
രൂക്ഷമായ
കൈയടിക്കുന്ന
ഇക്കാര്യത്തില്
മദ്യപിച്ച
##ററി
കൂടിയായ
അയൽ
##ിക്കപ്പെടുന്ന
ചെറിയൊരു
രണ്ടാമത്
വിജയത്തിൽ
വ്യാപാരം
ത്തന്നെ
നാസി
ഈദ്
ഡബ്ല്യു
##ാക്കാന്
സദസ്സ്
##വൃത്തി
##ഗ്ല
തുമ്മാരുകുടി
മദ്രാസ്
ഹബ്ബായ
ബൈക്കിലെത്തിയ
മടിച്ച
വർഷത്തിനിടെ
ഏറ്റ
അവസാനമായി
കസ
ഉല
സാക്ഷ്യം
വള്ള
ജോസഫ
ഗുഹ
##ാവണം
കുഴഞ്ഞുവീണു
കൈവശ
പതിവുപോലെ
കഴിയുന്നില്ല
എണ്ണി
ചൂടു
നടപ്പാക്കിയ
ഒത്തുചേര
##ങ്കല്
പൊടിച്ച്
ഉപ്പു
നിസാര
അവലോകനം
മേഴ്
നൈജീരിയ
ഫെഡറേഷൻ
എതിരെയുള്ള
തലനാരിഴയ്ക്ക്
പ്രയോജന
സെക്കന്റ്
ചെയ്യുന്നവരെ
ക്കരണ
##പ്പിള
ടെസ്റ്റിൽ
പ്രതിസന്ധികളിൽ
പിന്നാലെയാണ്
യൂണിഫോം
അതിജീവിച്ച
പെക്ടർ
വിദ്യാർഥിനി
കുരിശുമല
##വായി
പ്രി
ഏക്കർ
##വിളി
ട്രഷറി
തന്നെയായിരുന്നു
നോട്ടുകള്
##ർക്കും
##പ്പൂര
സുഖങ്ങള
അപ്പീല്
ണയും
ദൈവമേ
നിർമിക്ക
കൃപ
ട്ടിന്
##ഭൂ
ഉപരോധം
റീജ്യണല
അഞ്ചുപേര്
തകർച്ച
ബ്രിട്ടനില്
വിളിക്കാമെന്ന
അണ്ണാ
സ്വദേശിയും
ബാക്കിയുള്ള
ഇന്ത്യക്കാര
രണ്ടോ
ഹണി
നമ്പറുകൾ
ഉത്തരവാദിത്വ
സാക്ഷരത
ദീപ്
വാങ്ങിയത്
സൈന
നട്ടു
മറ്റൊന്ന്
അർത്ഥ
##കാലത്തെ
ധനു
അനുസരിച്ച
പെരുകി
ലജ്ജ
ചായം
രാവ
കഴിയുമോ
നാടുവിട്ട
സനേഹ
ബോറിസ്
കന്പനി
കലവറ
##വേദ
പൂർവ്വ
സുധാകരൻ
കേൾക്കാൻ
ആയിരിക്ക
ദേഹ
ആരോപണത്തിൽ
സമർപ്പിച്ചു
വീണത്
പോക്സോ
പ്രചാരണജാഥ
കുഡ്
ചിരിപ്പിച്ചു
മാപ്പ
മത്സരത്തിനായി
പിഞ്ചുകുഞ്ഞ
വ്യക്തമാക്ക
ഇത്തിരി
##ാദ്യ
സദസ
പ്രതികളായ
മുരളീ
ഗീതു
ശരീരത്തിലെ
ചിത്രീകരണം
സ്കൂട്ടർ
രാമകൃഷ്ണന്
ഫൈനലില്
ജാമ്യ
അടങ്ങുന്ന
##ിലുണ്ട്
പുറത്തും
ശത്രു
മകളായ
രോഗങ്ങൾ
ആഞ്ജനേയ
കവണാറ്റിൻ
പ്രതീക്ഷകള്
ജാല
കാട്ടിയ
പൂരം
ഇങ്ങിനെ
പില്
##സാഹിത്യ
കഴിയുമെന്ന
ഹോളി
ച്ചയ്ക്ക്
അടച്ചുപൂട്ട
##െക്കാൾ
സോണി
ആഘോഷത്തിന്
എന്നിവിടങ്ങളിൽ
കുമാരസ്വാമി
മാലാഖ
ഭാഗത്തിരുന്ന
വറ്റി
##റുമായി
ഒക്
മുതലായ
സ്പെ
അറിയുക
ആക്രമണത്തിന്
##്യാ
പറക്കുന്ന
കുത്തിയ
മാധ്യമങ്ങൾ
പീഡ
ഉദ്യാന
ബട്ടണ്
ലക്ഷങ്ങള്
##മാനം
മൊത്ത
രംഗങ്ങള
നേതാവിന്
കഴിഞ്ഞിട്ടും
അസമ
##മത്സര
##ന്പ്
ക്ള
വ്യാപ
വിളയാട്ടം
ദിനപത്ര
ആധികാരികതയോടെ
മോനെ
##ച്ചെടി
മീറ്റ
സ്മാർട്ട്ഫോണ
സേവനങ്ങള്
##റ്റുകൾ
ഉൗ
പെണ്ണ്
##മലയാള
പോട്ട
##താണെന്നും
##യാകുന്ന
തൻ
ആകുന്നു
ചങ്ക
##വയൽ
ശ്രീജയ്ക്ക
റൗണ്ട
പ്രതിസന്ധിയില്
##ിയിട്ടുണ്ട്
ഉണ്ടെന്ന
##ശീ
ഉദ്ദേശിച്ച
പക്ഷ
കേമ
##യേറ്റ
കാര്യത്തെ
##റുകള
മക്കളും
സെയ്
നിരപരാധി
ഫൗണ്ടേഷൻ
കസ്റ്റഡിയിലെടു
എഞ്ചിനീയറിംഗ്
നടപടികളാണ്
##റിംഗ്
ബർ
##പോള
എഴുതിയത്
ഉണ്ടാകരുത്
മിടുക്ക
വെടിക്കെട്ട്
ഇതിനിടെ
ഫോണുമായി
കെണി
##തുകൊണ്ടാണ്
പ്രോത്സാഹന
ജംബോ
##ിന്റേയും
വായിക്കുന്ന
ഉപേക്ഷിച്ചു
ശനവും
നിസ്
എസ്പി
എറണാകുളത്ത്
##ാക്ഷ
വിദഗ്ദ്ധ
കാമുകന
വിവാഹത്തിന്റെ
മീഡിയയുടെ
വയസ്സുകാരി
ഭീതിയില്
##കേട്ട
തൃശ്ശൂർ
ക്കാറിനെതിരെ
കോവില
ണ്ണം
ഇതിലെ
വേദിയില്
പതിയെ
പതിനാറ
കാണാനുള്ള
ഇവര
അസോസിയേഷന്റെ
ചൂടോ
നൂറ്റാണ്ടിന്റെ
##ാശ
റസ
നിറഞ്ഞ്
പോലീസുകാർ
ആക്ഷേപ
##ക്കല്ല
വ്യാ
ആരൊക്കെ
ക്യാമ്പസ
സ്യൂട്ട
വേർ
ഭീഷണിയില്
ഭൂമികയ
##പ്പൊടി
ജയിലിലേക്ക്
##ക്കോടി
##ക്കുറിച്ച്
ദർശനം
സംഭരണ
ട്രെയിലര്
##േട്ടന്
വയസുകാരൻ
ട്രെയിനില്
ഉപാധി
നടത്താം
ബട്ടൺ
തുളസി
##രാഷ്ട്ര
റഹ്മാന്
ജനങ്ങൾക്ക്
##ലാൽ
##പ്ത
വാർഡിൽ
##മാക്കും
നോവൽ
##ുകൊണ്ടു
##േയ്
രാമചന്ദ്രന്റെ
മലയാളിയായ
നാണം
##ാപ്പ
##യത്ത്
തീർത്ഥാടന
മഹർഷി
സുപ്രിംകോടതി
ഫാര്
ഐഎഎസ്
##ുകയെന്ന
കേന്ദ്രത്തിൽ
ബന്
ചുമത്ത
##ുകളുടെയും
വം
ഗേറ്റ
##ിട്ടില്ലെന്നും
കസ്റ്റഡിയിലായ
മന്ദ
സാധനം
കാപ്പ
##ുണ്ടാക്കി
വരുത്തുന്ന
വിളക്കൂതി
വലുപ്പ
പരിശീലനത്തിന്
സ്നേഹിക്കുന്ന
കരുതല്
മുൻപിൽ
##ടിക്ക
##ിലെന്നപോലെ
അറിയിച്ചത്
##ുകയാണെന്നും
##ചേര്
കൈപിടിച്ച
പിള്ളയുടെ
സാരഥികൾ
ട്രൈബ്യൂണല്
നീങ്ങ
യൂറോപ്പില
കുവൈറ്റില്
##ില്ലാ
##ായാണ്
##വയസ്സ
ഹോസ്പിറ്റല
റൂ
തിന്മ
ഉത്സവത്തിന്
അപകടത്തിന്
എട്ടിന്
ഉണ്ടാകില്ല
ബയോ
എന്തിന
##ായുധ
സഹപാഠി
ഘട്ടം
സൃഷ്ടിക്കാന
##ജീ
കാണണം
ലഭിക്കുക
ഇസ്രായേല
വർദ്ധിപ്പിക്ക
അമ്മൂമ്മ
കുറ്റിക്കോല
പിളര്
പൂവച്ചല
##ുണ്ടായി
പാവങ്ങൾ
##തിനാണ്
##ഗുട്ട
ക്കില്
തള്ളുന്നു
ആത്മവിശ്വാസം
ആലോചന
ചാണ്ടിയുടെ
പ്പള്ളി
അറുപത്
വീക്ക
##തയെ
കിലോഗ്രാം
യുകെയിലെ
ദമാനി
ഭിന്ന
ലാറി
##പറഞ്ഞു
##രംഗം
അൻ
കിഫ്ബി
ചൈനയുടെ
മഹോത്സവത്തിന്
എൻഎസ്എസ്
പ്ലാസ്റ്റിക്ക്
ബാർ
ഇമാമ
ഡബ്
വയനാട്ടിലെ
ഇങ്ങനെയൊരു
##ത്തോട
അവയെ
പ്രോഗ്രാമ
സമരക്കാർ
എസില്
യ്ക്ക്
സെപ്റ്റംബര്
ദാരുണ
പരിക്കേല്
ഇഷ്ടപ്പെടുന്ന
വിളവെടുപ്പ
സവിശേഷതകളും
കഴിക്കേണ്ട
##യങ്ങള്
സർവീസുകൾ
ഹൈക്കോടതിയില്
ട്രെയിനി
ച്ചെ
ഹാസന്
റാലിയും
കരുതുന്നത്
മിഴി
പകരുന്ന
##പ്പെട്ടി
കണ്ടുപിടിക്ക
ചുറ്റ
ടൗണില
പരീക്ഷയെഴുത
സിസി
വെളിപ്പെടുത്തൽ
സെന്ററിലേക്ക
സമൂഹത്തെ
ക്രൂ
പാശ്ചാത്യ
ശിബിരം
തറക്കല്ലിട്ടു
##ിൻെറ
ശമിച്ചത
പണിയിടങ്ങള
ആനുകൂല്യം
ന്യു
ട്രെയിന
റ്റേഴ്
സമ്മേളനത്തില്
ശര
ത്തിയാക്കിയ
റിലീസ
അവസാനിച്ച
അടയ്
മൊഗ്രാല്
യഹോവ
വിശ്വാസികളുടെ
നിരസിച്ച
##യിലേക്കൊരു
റയല
ധാര
കാണുന്നില്ലെന്ന
##ത്തിലായ
അമ്മയ്
വിവരണ
വളർന്ന
അംഗങ്ങളുടെ
നന്നായ
ഭാഗികമായി
വർണ
തഴ
സവാള
##ിയായി
അമ്പലത്തിൽ
അണി
ക്രീന
##യായും
പൗണ്ട
ദുഷ്
റിസോ
ഒത്തുതീര്
രാജന്
കൂടുതലായി
സ്ഥാപിക്കും
ഭീകരരെ
വരികള്
വാതില്
##പരിഷ
##മത്സരം
പുറത്തെടുത്ത
ഡയറ്റ്
വയസിൽ
ത്തിയാകാത്ത
നരസിംഹ
തടയണ
##റിയുന്ന
ദ്രാവിഡ്
തനിക്കും
##സണ്
##കുഞ്ഞ
അറുത്ത
ചവിട്ട
ഇയാൾ
സിലിണ്ടർ
അദാലത്ത
പ്ലൂട്ടോണിയ
##മിയ
##ഷെ
##ണർ
രാധ
തുടങ്ങിയവര്
വകുപ്പും
##ർവ്വ
ജോയിന്റ്
മതേതരത്വ
ഹര
അഭിഷേക
ഹെർമ്മൻ
മാർച്ചിൽ
##ുണ്ട
കളഞ്ഞു
യാത്രക്കാരന്
കേരളത്തിലേക്ക്
##ാഴ
വീട്ടിലെത്തിയ
വിമർശിച്ച
മണിയോടെ
##വേള
ഒൻപത
##മുന
വെയി
ചെന്നു
പെയിന്
##വ്യവസ്ഥ
##മം
##ത്തിര
ലീഗിന്റെ
ബിഐ
തുറക്കുന്ന
##മാകുമെന്ന
##സിസി
അബൂബക്കര്
നമ്മളെ
കോട്ടിഷ
കൊണ്ടിരുന്ന
കാലിക്കറ്റ്
##ാനുമുള്ള
നാട്ടില
ഇതൊന്നും
ഫാസ്റ്റ്
##ീട്ട
ആലോചിച്ച
##നുമ
പോളിടെക്
മലിനീകരണം
കണ്ണീർ
മുഴുവനും
ഗവർണറ
##െക്കുറിച്ചും
മലങ്കരസഭാ
അമ്പലപ്പുഴ
മാർക്ക്
##രസ
കഴിച്ചത്
പൊലീസിൽ
പ്രൗ
സുഹൃത്തിനോട
വിൻ
ഒതുങ്ങി
കുടിച്ച
ഭയപ്പെടുന്ന
കാമുകനായി
ഡിവൈഎസ്
##ശല
പുരാതന
വിരവിമുക്ത
അടയ്ക്കണം
അതിജീവന
സമ്മതം
ജ്യോതിഷ
##കോട്ട
അനിശ്ചിതകാല
ഒപ്പുവച്ച
ഏറ്റുമുട്ടിയ
##ുല്
നിറയ
ഇരുപത
##മുണ്ടായിരുന്ന
നായകന
നടപ്പാത
##ണമാണല്ലോ
എൻസിപി
ആദ്യഘട്ട
##പകട
മണ്ണെണ്ണ
##ബാങ്ക
##േണ്ടിവരും
യെല്ലോ
കലാപത്തിന്
കംപ
ഞെട്ടിച്ചു
സരിത
വഴങ്ങ
പ്രഖ്യാപിച്ചത്
നിയമവും
പൈലറ്റ്
റ്സ്
മിനിറ്റ
##പരിപാടികള
ഒഴിച്ചു
ചക്രം
പേർക്കു
പശ്ചിമ
അനാർക്കലി
കായംകുളം
കൈയെഴുത്തുപ്രതി
എളുപ്പത്തിൽ
വാരാഘോഷം
##സമയം
മസ്ജിദ
ത്വ
യൂട്യൂബ്
ആരംഭിച്ചത്
ശ്രേഷ്ഠത
ശ്രദ്ധേയമായി
##ജീവി
സീത
ഉപയോക്താക്കള
ഗൂഡല്ലൂര്
കാര്യമായി
വേഗത്തില്
ഒന്നാമത്
ളാറ്റ
സാധനങ്ങള്
##ക്കുട
##വാർ
ഹോളിവുഡ്
ആപ്ലിക്കേഷന
ആൻഡ്രോയിഡ്
ട്രൈനിംഗ്
കോടീശ്വരന
ആലപ്പുഴയില്
സുജ
മുത്തശ്ശി
##വഹ
അവശ്യ
നീട്ട
##നുഭവ
മയക്കുമരുന്നു
കവല
നെഹ്രു
##യുള്ളൂ
നിശ്ചയ
##ഗത
##ുകാരനായ
മാഷ
ട്രെയിലർ
നിര്യാതയായി
തളർന്ന
നമസ്കാരത്തിന്
അംബാനി
സിപ്പല്
ഹരിദാസ്
##കൂട്ടി
ആധാറുമായി
തല്ലി
ഗോപാല
##സിലേക്ക്
സമരത്തില്
സ്വാതന്ത്ര്യസമര
ഇറാനിൽ
##തുകൊണ്ടു
പരാമർശത്തിനു
##ിലിരുന്ന്
##ാധികാര
ഏറ്റു
##ബിന്
പാതി
മന്ത്രിയും
ലാമിക്
##പ്പുകള്
പ്രതീക്ഷിക്കാതെ
അർബുദ
ക്രിസ്തീയ
പോത്ത
നാഥ
പ്രസിദ്ധീകരണം
##യെക്കുറിച്ച
ബൗ
##ക്കുന്നതും
കൊല്ലപ്പെടുന്ന
സൺ
##െഴുത
സാദ
##െന്ത്
##മാകാം
ഫോണുകള
ആർമി
വിഭൂതി
വൈകാരിക
എസ്എഫ്ഐ
##ാഴ്ച
മതസ്ഥാപനങ്ങള
##ാലേ
ഷീറ്റ്
ആലാപനം
##ദൂര
വീട്ടുകാര
മരത്തിൽ
ബ്രൗസർ
ഡോണ
വിടാതെ
ക്യു
പിജെ
ദയ
എന്നിരുന്നാലും
ഇടയ്ക്കിടെ
##ബോധം
##ടന്
മണിക്കൂറുകൾ
##ന്തടുക്ക
ആരാധകരുടെ
വേഗത്തിൽ
പരിധിയിൽ
ആഘാത
കുല
സ്വഭാവം
ചിഹ്ന
##ാരും
##ടിൽ
റൊ
ഹൗ
ആഹ്ലാദ
ഇത്തരമൊരു
നെഗറ്റീവ്
എഎപി
തീരുമാനമെടുക്ക
സെറ്റിം
പൊന്നാനി
മെറ്റൽ
നേതാവും
ബോധം
റുവിനെ
തട്ടിക്കൊണ്ടു
കെഎം
വാല
സറി
ആണു
##ധികം
കഴിവ്
സിലര്
##മാക്കണം
സിനിമകൾ
വാല്
ഓഫറുമായി
വയനാട്ടിൽ
നമ്മേ
സാർ
വാഹനവിപണി
പള്ളിക്കര
മാറ്റാവുന്നതാണ്
##ബാധ
വികസിപ്പിച്ച
പറ്റിയുള്ള
കൂട്ടിയത്
പാഞ്ഞ
##ുകളിലേക്ക്
നിറച്ച
പത്രാധിപ
##ത്തിനെതിരായ
വായിച്ചവ
ബന്ധുക്കൾക്കും
പാറ്റേൺ
പ്രതികാര
എന്നാണു
മാറ്റിയത്
പ്രത്യ
പ്പടെ
##നൊപ്പം
വൃ
പുറപ്പെടുവിച്ച
അസാ
ഗ്രിൽ
##ക്ഷണ
മൽസര
##യല
ജന്മം
ആരംഭിക്ക
കോഫി
ആലത്തൂര്
മരണത്തില
പ്രതികരിക്കുന്ന
##ീമ
##ോദയ
നിതീഷ്
ഒഴിവുകള്
സുധാകരന്
ഒഴികെ
ക്രിമിനല്
മാരും
ആപ്പിള്
വേഷത്തിൽ
കാഞ്ഞാ
പ്രയോഗിക്ക
സ്ഥാനത്തേക്ക്
പെട്ടെന്ന
തുടങ്ങുന്നു
വിമാനത്തിന്
ഷെഡ
രജത
സ്റ്റുഡന്
ഫോണുകള്
##മാട
തിരിച്ചറിവ
##ാട്ടം
കണ്ണുകള്
മൗനം
സഹോദരനെ
##ിരുത്തി
##മേഖലയിൽ
##ന്ത്
##മുണ്ടാകും
##ത്തൊഴിലാളി
അന്വേഷണത്തിൽ
വെള്ളപ്പൊക്കം
അതുകൊണ്ടു
എഞ്ചിന
അങ്കി
വിരമിച്ചു
##ദീപം
സ്കൂള
വിശേഷങ്ങൾ
##തൊ
##കിട്ടിയ
ക്രിമിനൽ
ഇത്തരത്തിലുള്ള
വെടിവെച്ചു
താമര
സാന്ദ്ര
സർഗ
തക
ഭാഗമാണ്
ആവശ്യവുമായി
ജോബ്
ണമായി
നടപ്പി
വില്യം
##വേല
ഷോക്ക്
വിമത
റോൾ
സേവനങ്ങൾ
കഞ്ചാവ
##സൃഷ്ടി
എസ്എപി
കാരിയായ
അധികൃതര
ആർട്ട്
##വർഗ്ഗ
അഡ്മിനിസ്
കോമഡി
ഒഴുകുന്ന
മഹത്തായ
മറികടക്ക
##ഭവ
നോമ്പ്
ചിലപ്പോൾ
നടപ്പാക്കണം
കുറ്റപ്പെടുത്തി
താക്കോല്
ലളിതമായ
##പിത
ചിറ്റൂര്
ബാങ്കിംഗ്
##േച്ചി
തുല്യത
പയ്യ
വോട്ടെടുപ്പ്
ലക്ഷണ
റഷ്യൻ
അഞ്ഞൂറ
ശങ്കരൻ
ഹ്രസ്വ
ചെങ്കല്
ഷോറൂ
##ക്കായുള്ള
രാസവസ്തു
##കളുടേയും
രക്ഷിച്ചു
##തിനേക്കാള്
പൗലോസ്
മുസ്ലീങ്ങൾക്ക
ഉയരുന്നത്
അമര
##ധാന
മഞ്ഞള
ബാറ്റ
ഏലൂര
അറിയേണ്ട
മുംബൈയിൽ
മുപ്പതോളം
##സ്പെഷൽ
പരാമർശം
##ശാഖ
പോകാനായി
ലോക്കൽ
ലൈറ്റ
##വാന
##ചികിത്സ
പാപം
##ക്കുള
പിതാവിനെ
കഴുകി
ഏഴായി
##ക്കൊപ്പമ
##ുകിടക്കുന്ന
നിവാരണ
ധർമ്മ
ക്യാപ്റ്റൻ
ഗ്രൗണ്ടിൽ
കിഡ്
എഫ്സി
##വാസി
താഴെക്കൊടുത്ത
തരംഗം
പശ്ചാത്തലത്തില്
നൽകണമെന്ന്
വഴിയോര
പ്പിട
സംബന്ധിച്ചു
##വരുത്ത
##േക്കുള്ള
ഷൂട്ടിങ്
പഞ്ചായത്തിൽ
##ങ്സിൽ
അഗ്നിശമന
അസഹിഷ്ണുത
ബിഗ്ബോസ്
സംരക്ഷിച്ച
വെടിയേറ്റ്
അമ്പരപ്പിക്കും
മീരി
ചിത്രങ്ങളും
##ഡർ
ആമസോണ
ചൈതന്യ
ചെയ്യണമെന്ന്
ബെസ്റ്റ്
സമരത്തിൽ
ദിലീപിനെ
മനുഷ്യര്
##വെന്ന
മഞ്ഞള്
##ത്തിനായുള്ള
സ്വീകരിക്കാൻ
ആടു
പണിത
അർപ്പിച്ച്
ഒഴിവു
കേന്ദ്രങ്ങൾ
##മാക്കാൻ
##യെടുത്ത
വഴിയുള്ള
കറുപ്പ
കൊഴുപ്പ
##ത്തിനുവേണ്ടി
ബഷീറിന്റെ
തോളിൽ
ജപ്തി
അമൂല്യ
കുർബാന
ശ്രീമദ്
##ദീപ
സദ്
പ്രസിദ്ധീകരണ
കൈയില്
ക്ഷണിക്ക
മര്യാദ
ഗൃഹസന്ദ
തദ്ദേശസ്വയംഭരണ
ഒരുപാടിഷ്ട
കഫീല്
##കൊല്ലാൻ
മഞ്ചേരിയില്
ബാസ്
##ബിള
കാവൽ
ബീച്ച
സേവാ
മുങ്ങ
വീട്ടുകാര്
ചെറുകഥ
##ത്തന
പ്രബന്ധങ്ങള
തിളങ്ങുന്ന
പൊതുവായ
ആവശ്യപ്പെട
##യാകുമ്പോൾ
വിംഗ്
ഏഷ്യാ
ഹിന്ദുവാണ
ജന്മദിനാശംസകള്
ക്ലബിന്
ആരാധക
മഹോത്സവ
റിയൽ
മുതലായവ
ജോളിയുടെ
##നീക്ക
ശാസ്ത്രജ്ഞര
കൊണ്ടോട്ടി
ഡേഴ്
സൈക്കിള
ഉദ്യോഗാർത്ഥി
##ശ്രദ്ധ
യാത്രക്കാർക്ക
ആപ്
സമീപന
നെന്മാറ
ഫാസിസ
##വേണ്ട
##ാനാകാത്ത
ദിവസമാണ്
വാഗ്ദാന
##കൃഷ്ണ
അമ്മേ
ക്രിസ്റ്റ
പൊതുവേ
ബ്ലോഗില്
തണല
മിഷന
വലയുന്നു
വസ്തുക്കള
ചെയ്യുന്നതിനെ
തെരേസ
ദേവാലയത്തിൽ
ഇടപാട
കമാന്
തികയ
മദ്യപിച്ച്
ക്വട്ടേഷൻ
അനാവശ്യമായി
തീരുമാനങ്ങള്
ഇറ്റലിയില്
ഐഎന്
പുണ്യം
അട്ടിമറിക്കാന്
പുള്ളി
പരിഹാസ
##വർക്കെതിരെ
പട്ടേല
വാരാചരണം
ഐഡി
കവാടം
വയോജനങ്ങള
നടത്തുകയും
സംഘടി
##ബന്ധിച്ചിടത്തോളം
പെയ്
ഉണ്ടെങ്കില്
##ക്കണക്ക
കുറുപ്പ
##ൊരുങ്ങുന്നു
വഹിക്കും
ജെഎ
എഫിന്റെ
ബ്രിട്ടന്റെ
ചിലത്
സമ്മത
ഗോകുലം
അതൃപ്തി
അറിഞ്ഞ്
പരീക്ഷകൾ
ഡ്രൈവറും
ദ്ധിപ്പിക്ക
മുതലാളി
ഏഷ്യയിലെ
അദ്ധ്യക്ഷൻ
സവിശേഷതകൾ
ആനി
ബെര്
തുടർന്ന
അതിനായി
മറ്റുള്ളവരെ
സലിങ്
കൈയേറി
വിരമിക്കുന്ന
കഴിഞ്ഞാൽ
ദിര്
ഉത്പാദനം
ശൗചാലയ
ഇന്തോനേഷ്യ
ചുവര
##ക്കൊള്ള
നെറ്റി
രക്ഷപ്പെട്ട
ഒളിപ്പിച്ച്
വളർത്തിയ
ഭരിച്ച
ലംഘനം
അപേക്ഷിച്ച്
ത്തിയായ
##വെയ്ക്ക
കിട്ടാത്ത
ഒഴിവ
പിറന്നു
പരിശോധനയ്ക്ക്
രാജ്ഞി
ടീസർ
കാവല്
വേണോ
അറിയാമായിരുന്നു
##കാരൻ
##ത്തിനകത്ത
ബ്രേക്ക്
കണ്ണികൾ
ജങ്കാ
തൈര്
ശാസ്
##സഫര്
അത്ലറ്റിക്സ
വ്വകലാശാല
ശാസ്ത്രം
പുകവലി
വിജയിപ്പിക്കുക
വിലയിരുത്തൽ
വർ
##ക്തി
ഗെയിംസ്
##ക്കുല
##ഹരി
ജോലിയും
വിരുന്ന
തവണയും
ക്ലോ
ആദ്യകാല
കുത്തേറ്റ്
ത്ഥത്തില്
##ഫീസ
##ക്കളെ
ഖജനാവ
കോളേജുകളില
നേത്രദാന
##ഖം
##ുണ്ടല്ലോ
##ുണ്ടായിരുന്നത്
##വൾ
ഉൾപ്പെടുത്തിയ
കയ്യൂര
പിടിക്കാൻ
സ്റ്റാള്
##തന്നെയാണ്
ഭാവിയിൽ
കാറ്റ്
ഇളം
ജെസ്ല
യാഥാർഥ്യ
പുതുക്കിയ
##രത
വശത്ത്
പിന്നെയും
ആചരിക്കുന്നു
##ീകര
രൂപത്തില്
ഫാഷൻ
ഡന്
##ന്യാസ
കരണം
##ിക്കുമെന്ന്
ഉത്തരേന്ത്യ
ഖലീഫ
പിഡിഎഫ്
വിക്രം
അതുകൊണ്ടാണ്
വ്യായാമ
ലോണ്
മണ്ഡലത്തില്
##തല്ലേ
വോട്ടർമാരാണ
##െത്തുന്നത്
നേവി
കൊച്ച
##നിലെ
ഭദ്രാസന
കഴിഞ്ഞത്
കരിപ്പൂര
ദ്രോഹ
പൈപ്പ
നാളെയും
ക്ഷേത്രത്തിന്
ഹിക്കുന്ന
##യ്സ്
##ാവോ
താരത്തിന്
സൂത്ര
ജോസഫിനെ
മാഷ്
പാടില്ലാത്ത
ക്ഷണം
ക്രിസ്ത്യൻ
സംഘപരിവാർ
##മ്മയുടെ
മയ്യിച്ച
##ക്കൊരു
പാഴ്
ഉത്തരവിട്ട
ട്രെയിനുകള
മതവും
പ്രണവ
##ിട്ടുണ്ടെങ്കിൽ
പ്രണവുമായ
ക്ലിനിക്ക
റജിസ്
റ്റേ
സമ്മാനിച്ച
അഴക
##േക്കാള്
നിർമിക്കുന്ന
അനുമോദന
തോപ്പുംപടി
ശേഷവും
എടിഎം
കെട്ടിടത്തില്
പരീക്ഷയിൽ
ഷിപ്പില്
വീട്ടുമുറ്റത്തെ
ഭാസ്
##ാവുക
വിവേചനം
വെയർ
നേടാന്
##മൈ
നേരിട്ടത്
വാവുബലി
ചേളാരി
മനസ്സിലാക
റോഡുകള്
നായകന്മാർ
റബർ
ഷാർജ
വയ്ക്കുന്ന
ശങ്കരന്
ചെലവഴിക്ക
ബിജുമേനോൻ
ഏതോ
ഐസ്
##പുത്ര
അൻവർ
എഴുത്തു
അന്തരിച്ച
മൂന്നിടത്ത
##പ്പറഞ്ഞ
പ്രദേശങ്ങൾ
പാടിയ
കൈത്തറി
അലയടിക്കുന്ന
പയ്യന്നൂര്
വിയോജിക്കാന
തിരഞ്ഞെടുത്തു
ക്കാലിക
എല്ലാവരേയും
സമ്പന്നരുടെ
കത്തയച്ച
അജു
##ാവലി
പിരിയ
യൂണിറ്റിന്
##സ്റ്റോ
##തെന്ത്
##ടേ
റിസോർട്ട
അതിവിദഗ്ധമായി
ഒവൈസി
തയ്യല
സുനിത
ക്ലാസ്സ്
ഒത്തിരി
ദേശങ്ങള്
##ുദ്ദീന്
ത്ഥികളുടെ
കപ്പല്
##കാന്ത
വരെയാണ്
താങ്കൾക്ക്
ലേഖനങ്ങള
കുറ്റിച്ചൂല
നാശനഷ്ടം
വലയിലായത
വർഗീസ്
രജിത്തിനോട
വലിച്ചെറിഞ്ഞ
ഇന്റർനെറ്റ്
ഉറച്ച
താലി
അവലോകന
സാഹചര്യത്തിലാണ്
അടക്കണമെന്ന
കുഞ്ഞന്
ചാണകത്തിൽനിന്ന
വരട്ടെ
##റുകളും
സ്വർഗ്ഗ
##ോദ
ഗുജറാത്തിലെ
കിടപ്പ
ലിസ്റ്റിൽ
സെക്സ്
പാസാക്ക
വിധിച്ച
ഉപയോഗിച്ചിരുന്ന
കള്ളനോട്ട
അധിഷ്ഠിത
വാണി
##ബുദ്ധി
ചരമ
കിംഗ്
കെട്ടിടത്തിന്റെ
കിട്ടുമെന്നും
##ത്സവ
കൂട്ടായ്മയില്
സഞ്ചരിക്കുന്ന
##മ്യ
തെരുവില്
ചെയ്യാതെ
##ില്ലെന്നാണ്
നിന്നൊരു
ശ്രമിക്കുന്നവരെ
ജാതിക്കോമരങ്ങൾ
മഞ്ഞപ്പിത്ത
ആസ്വദിച്ച
സ്ക്വാഡ
ചെലുത്ത
എന്നതും
##തവണ
മിക്കപ്പോഴും
##വകാശ
വാഷ
##ജ്ഞാന
നശിപ്പിച്ച
അനന്തര
ശ്രീകുമാർ
ട്യൂബ
ചെയ്യുമ്പോള്
തൃപ്തി
പ്രഭ
ആവശ്യങ്ങള്
കൊടുക്കുക
##കേസ്
പ്ലാ
##ാക്രമണം
##ർഡ്
കുളത്തുപ്പുഴ
കലാമണ്ഡലം
ചെറുവത്തൂരില്
വളച്ചെടുത്ത
##ന്നൊന്നര
റാവിസ്
വിലക്കിയ
ജേ
ഹിന്ദുമത
മൽസരിക്കുന്നത
##നാഥ്
ഫെസ്റ്റ
ദൈവത്തെ
ട്രക്ക്
വസ്തുവ
##ഘടന
ഭരണഘടനയുടെ
ഒത്തു
മിക്കവാറും
പിറന്നാൾ
##സുകൾ
പാസ
കെട്ടു
ധനുഷ
റ്റൈല
ബിജെപിയില്
ച്ചന
അവകാശങ്ങളും
നാലര
പുട്ട
വിരമിക്ക
ലയന
ഉണ്ടാക്കാൻ
തെരുവുനായ്ക്കള്
ഉറപ്പിക്ക
കുട്ടികളെയും
##ൊടു
ഫ്ലിപ്കാർട്ട
സംഗ
ചുവപ്പ്
##ഫറ
##ച്ചെടുക്കാൻ
കരള
ലഭിച്ചില്ല
ലിങ്കുകള്
ത്തിവെച്ച
സംഘടിപ്പിക്കും
തീർക്ക
കൊണ്ടിരിക്കുന്ന
##ാരാജാവിന്റെ
സ്വാഗത
##ിട്ടുള്ളൂ
ഞെട്ടിക്കുന്നത്
നഷ്ടപ്പെട്ടു
നേരിടേണ്ടി
ചാംപ്യന്
തട്ടമിടാത്ത
യാഗം
##തൻ
ബെന്
ശരീരത്തിന്റെ
വൈത്തിരി
തോന്നും
സ്ഫോടന
ചുംബിച്ച
റൊണാ
നടിയുടെ
ജീവനക്കാർക്ക്
##ികൾക്ക്
വിലയിരുത്തി
രവീന്ദ്ര
കോർപ്പറേഷൻ
ഷോക്കേറ്റ്
മഹീന്ദ്ര
ഏതായാലും
ചില്ലറ
പള്ളിക്കുന്ന്
നിന്നുയർന്ന
ചേട്ടന്
തയ്യാറാക
പഴക്കമുള്ള
കൊള്ളാം
ബുദ
##പോര
സഹായിക്ക
ഭാ
തേഷ്യ
പാതിയാക്ക
െറ
കാരണമായ
ആനന്ദ്
ഗാലക്
കൃത്യ
ഫോക്
##പ്പുകൾ
##നാരായണ
സിദ്ധാന്ത
കൈമാറിയ
നാണിക്കണ
ക്വാഡ
വെളിപ്പെടുത്തിയ
ജില്ലകളിലെ
അപകടങ്ങൾ
സ്റ്റോക്ക്
ചരക്ക്
##വിസ്
ആവില്ല
മേനോന്റേ
##ിരു
പട്ടയ
##നീഷ
വിദ്യാലയങ്ങൾ
ഇയാളെ
##േക്കുമെന്ന
##തര്
ഓസീസ്
പുഷ്പക
ലോകകപ്പിന
തെരഞ്ഞെടുപ്പ
ചെലവഴിച്ച
എഴുത്തുകാരി
തുള്ളി
##യാസ
ശിപ്പിക്ക
##നായിരുന്ന
##റ്റുകള്
വായനക്കാര്
ചോറ
ഇന്ത്യക്കാർക്ക്
കരച്ചില
സ്വദേശികളായ
ശക
ഏറ്റവുമധികം
ഡയാലിസിസ്
ദുൽഖറ
പുതുക്കപ്പെട്ട
ചാന്ദ്രയാത്ര
വാൻ
പ്രസന്
കൈയിലെടുത്തു
ചിഹ്നം
കുമ്പളങ്ങി
##ജ്യോതി
##ടിച്ചൊരു
കന്യാ
നിലവിളിക്കാ
സ്കൂളുകളുടെ
ഗ്രസില്
തിളങ്ങാൻ
വ്യാപാരികള്
##പാത്ര
കവിതകള്
പിള്ളേര
തീർത്തു
പ്രവണത
##ന്തല
പാണ്ഡ്യ
ഐഐടി
വൃത്തിയാക്കി
ശിലയിട്ടു
നായരായി
ജലസമൃദ്ധി
മെസ്സി
ദുർ
ഓപ്പറേ
ഓടിയെത്തുന്ന
മാംസ
വിലയിരുത്തല
മാന്വല്
നാട്ടുകാരെ
ഫിലിപ്പ്
##യിൽനിന്ന്
താരമാണ്
##വസ്ഥ
ത്തീ
##പരീക്ഷ
##ിരുന്നെങ്കിലും
കൃഷ്ണൻ
വിഡ്
കന്നുകാലി
ഡിസൈൻ
##കാരണ
##യുണ്ടെന്ന്
നാമത്തില
സെൻ
മാധ്യമങ്ങളില്
##മ്ര
##ടൈ
നിയന്ത്രിക്കാന്
കവലയില
സെക്രട്ടറിയെ
##മൻ
കുഞ്ഞുങ്ങള്
ജ്വാല
സ്ത്രീയാണെന്ന
പിന്തുടര്
മുൻപേ
ഘടകങ്ങള
രക്ഷപ്പെട്ടത്
ഭക്ഷ്യസുരക്ഷാ
വളാഞ്ചേരി
സെറ്റ
അണുബാധ
സദാ
പൃഥ്വിയുടെയും
##ശേഷ
വെള്ളക്കെട്ട
ഷീല
##വിതരണം
ബ്ലാസ്
കാനായി
സർട്ടിഫിക്കറ്റ്
മോദിയാണ്
ചീറ്റപ്പുലികള
##കൊച്ചുകുഞ്ഞിന്റെ
ശിവകുമാർ
തിരയ
പിന്മാറ
##ശരീര
അവതരണ
##കുറ
മഹാരാഷ്ട്രയിൽ
എളുപ്പം
ബാങ്കുകള്
മുരളീധര
കുടുംബത്തിന്റെ
ഹൃദയത്തിൽ
##പരിപാടി
പത്മനാഭന്
വയനാട്ടുകുലവ
വിയോജിപ്പ
സ്ക്രീന
സെനറ്റ
ദേശീയപാതയില്
ലയിക്ക
വള്ളിക്കുന്ന
കോപ
ലിയുടെ
റോസ
ത്തണം
ലവ്
രാമായണത്തിലെ
പോലുമില്ല
കുരിശ
ആടി
##ക്കുഞ്ഞ
വിൽക്കുന്ന
##തിങ്ങനെ
മൃതദേഹങ്ങൾ
മണ്ണു
ലാപ്
വലിക്കണം
പള്ളുരുത്തി
ജിനീയര്
അമ്പിളി
ആദിത്യനാഥ്
ആളാണ്
മായാവതി
ആൺബോധത്തി
തൂക്ക
ചിരിപ്പട
വാസുദേവ
ആറ്റിങ്ങലില
ഗാന്ധിക്ക്
##മുദ്ര
കവിഞ്ഞു
മിന
തൊഴിച്ച
കീഴടക്ക
##ാടന
സ്വീകരിച്ച്
ചാക്കില്
ഉണ്ടാവുന്നുണ്ട
മുകളിലേക്ക്
ഉപദേശക
വിഷമം
അതല്ല
##മാരായി
##ഞ്ചാ
കാത്തുനിന്നത്
വടക്കാഞ്ചേരി
കാസർകോട്
മണ്ടന്മാരാക്ക
##ഭീ
ഗംഗ
ഷെയ്ൻ
അമ്പത്
##ിൽനിന്നു
ചന്ദ്രയാത്ര
വിതറി
ചെയ്താലും
അവഗണിക്ക
##റിനും
##ക്വ
ട്ടിയുടെ
ത്തിയിട്ട
പാതയിൽ
##ദ്വ
മേയറായി
വരവറിഞ്ഞ
തപസ്
നഗരങ്ങളില
##രംഗത്തെ
ഇന്നിംഗ്
ഒമർ
ഓവറ
കമ്പ്യൂട്ടറ
വരുമെന്ന്
പ്രതിഫലം
നടക്കുന്നു
മാസങ്ങള്
ഒരുമ
റ്റേറ്റ്
വായിക്കാന്
വെല്ലുന്ന
തലയ
എസ്പിസി
പാതയില്
##ാവിഷ്
##റിയില്ല
##ക്കുകയായിരുന്നു
##വാന്
തിരഞ്ഞ
പതിച്ച
റോബി
മുംബൈയില്
കുക
മഹ്മൂദ്
സെറാമിക്
ഇരുപത്
##സൻ
വടക്കേവീട്ടി
പ്രിന്റിംഗ്
ആരോപണങ്ങള്
ടിപി
പെട്ടെന്നു
ഇടുക്കിയിൽ
പൊതുജനങ്ങള
ക്വാഡ്
കാണാതിരിക്കാൻ
താളിലേക്ക
ചന്ദ്രശേഖര്
##ിനോടുള്ള
സൈക്കിള്
എറിഞ്ഞ്
അകത്തു
കഴമ്പുണ്ടോയെന്ന
സന്ദേശങ്ങൾ
രൂക്ഷവിമ
വിമാനമാണെന്നു
അധിക്ഷേപ
രാജപ്പ
നാണ
ടെയ്
##ക്യാമ്പ്
##ിപ്പിക്കുക
വെണ്ണ
ഉപദേശിച്ച
കരഞ്ഞു
എണ്
രൂപവുമായി
തെക്കു
ദിവസമായി
##ക്യൂ
പവർ
അനുമോദിക്കുന്ന
എന്നുള്ള
കാട്ടിലെ
നായികാ
##പേക്ഷ
കെഎസ്ഇബി
ഡേവിഡ്
##കപടനാടക
തിരിമറി
സുരക്ഷാഭീഷണി
കൂട്ടുപ്രതി
സമൂഹത്തിനു
പ്രാണ
##തെറ്റി
മനുഷ്യർ
##ഡുകൾ
സാനിയ
ദേവൻ
ആയിഷ
മണിയ
കൈവെട്ട
വിതച്ച
കണ്ടെത്തുക
##ജീവ
സത്യന്
കാറിന്റെ
ഓഡിറ്റോറിയത്തിൽ
വിഫലമായതോടെ
ചാത്തന്നൂർ
ലോഹ
മകള
ജീവനി
പോയന്റ്
ഉരുവിട്ട
##രുതേ
പങ്കിട്ട്
നശിച്ച
##നിക
ജോഷി
ലുക്ക
##ാരോഗ്യ
##ഭാര
വരണം
ബിഷപ്പ
ദേഷ്യ
##കാരം
സ്ആപ്പ്
ക്രിയ
മുന്നോട്ടുപോക
പ്രേക്ഷക
ക്കര്
ടൂർ
ഡീസല്
യുക്മ
##രാത്രി
##മാർക്കും
നിയമവിരുദ്ധ
കൊല്ലവും
##ങ്കാ
കടിയേറ്റു
കളികൾ
##ട്ടിക്കൊണ്ടുപോയി
ഫേസ്ബുക്കില്
എന്തിനു
സൊസൈറ്റിയുടെ
മരിക്കുന്ന
അധ്യയന
തളരാത്ത
താൽപര്യ
പരിഭ്രാന്തി
ഷൈലോക്കിന്
##ക്കാൾ
കഴിക്കാന്
പരിണാമ
യൂസർ
##നിരക്ക
ഹൈന്ദവ
ഗങ്ങള്
രമണ
ഡോർ
##ീച്ച
##സദസ്
റയ്ക്ക്
##ജല
##തയോടെ
ടെര്
തൂക്കിലേറ്റ
യോജന
തുപ്പ
##നീര
മൈതാനത്ത്
അംശദായ
സ്വാധീനം
പറഞ്ഞിരിക്കുന്ന
പരാതികള്
സമാജ
##ക്കുന്നതിന്
##വിവാദത്തിൽ
ജില്ലകളിലും
ഉറപ്പിച്ചിരുന്ന
സെമിനാറില
##ഗ്ന
##പ്പോള
സെൻസസ്
##ക്കുറിച്ചു
പമ്പ്
##തീര
നിലനിർത്ത
ജനമൈത്രി
##ത്തേക്കു
വിൻഡോ
ബക്കറ്റ
പെരുമാറ
പ്രിയദര്
പാഠപുസ്തകത്തിലെ
ഒൻപത്
മ്മിക്കുന്ന
ജീര്
വിക്കറ്റിന്
സമൂഹത്തിൽ
ക്രിക്കറ്റില്
എസ്എഫ്
ലഭിക്കുകയും
കയ്യേറ്റം
അനുവദിക്കും
ബസുകൾ
മകനെയും
കോട്ടപ്പുറത്തെ
പുറത്തിറക്കുന്ന
പാക്കേജ്
ഷൂട്ട
മുന
##സംഭവ
നിർമ്മിത
പ്രവേശിപ്പിച്ച
##െത്തും
മറ്റുള്ളവരുടെ
കപട
##കോണ്
ഹത
പരമ്പരയിലെ
##പ്രേമികള
##പ്യ
പാടത്ത്
കൗമാര
ഏരിയാ
ആസ്പദമാക്കി
കൈകോ
അനുപമ
##രിൽ
ചാവശ്ശേരി
അല്ലു
വേണ്ടത്ര
##വിലാസം
ജോസഫിന്റെ
സമ്മതിക്കുന്ന
ട്രേഷൻ
ദിനാഘോഷ
കോഴിക്കോട
##േക്കാൾ
##പിന്
##ഡീ
രാഹുലിന
കാറുകൾ
##പ്പോലും
മടങ്ങിയ
ചിത്രങ്ങളുടെ
പുതിയൊരു
അതിരാത്ര
പുളകിതയായ
##ിലൂടെയാണ്
ഥാടന
തീകൊളുത്തി
അബ്
പാക്ക്
സ്പ്രസ്
##ങ്ങളിലായി
പുരുഷന്മാര
മെയില
പടർന്ന
ലയനത്തിന്
മൂപ്പ
സമൂഹത്തില്
പൊതുപണിമുടക്ക്
ചിത്രമായ
പ്രമാണങ്ങൾ
വരുത്തിയത്
അറിയിപ്പ്
ഗരുഡ
അഡ്വാൻസ്
പ്പിക്കണം
##ഒരുങ്ങുന്നതിനിടെ
##വാങ്ങ
മതസ്വാതന്ത്ര്യ
പാസ്റ്റർ
അക്കൗണ്ട
പിരിച്ച
താഹയും
ഗുരുവിനെ
കൊയ്യ
##തുരുത്തി
ലുക്കിൽ
മുറ്റത്തെ
##േട്ടന
പൊളിക്കാ
ഗോളുകൾ
##തിക്കുകയാണെന്ന
മദ്ധ്യപ്രദേശ്
സംരക്ഷിക്കാൻ
വീര്
ഹിസ്റ്ററി
കണമെന്ന്
നായകനായ
സിലും
##ാചാര്യ
അടൂര്
വീടുകളുടെ
മ്മകള്
മനസിന്
വിവാഹിതനായി
പൊട്ടല
വായിക്കുമ്പോള്
ശുചീകരിച്ചു
എയ്ഡ്
##മല്ലേ
വലഞ്ഞ
കൂടു
ക്കണം
ക്യാമ്പിലെ
സരോവ
##ഘോഷ
##ത്തേക്ക
വരയെ
പതിനേഴ
എക്സലൻസ്
കരിന്തളം
കാഠിന്യം
റിയാലിറ്റി
സെബാസ്റ്റ്യൻ
ദശലക്ഷം
ജിഹാദികള
ദുര
##ൈൻ
പാരായണ
##കരണം
കിസാ
വെല്ല
മറിച്ചു
##െന്താ
യൂറോ
പരിശോധിക്കാൻ
ഗാഡ്ഗിൽ
ഭാഗ്യക്കുറി
പ്രവർത്തകരുടെ
പരിനീതി
##ലിലെ
കേബിൾ
ആരുടെയും
##യാട്ട
എക്സ
കണ്ടപ്പോൾ
അനുസ്മരണവും
പട്ടേല്
മുഹ
സംഘാടക
മുന്നേറ്റത്തിന്
##യടക്കം
##പെട്ടു
മാൻ
പ്രമാണം
ബല്
##സ്പർശമേറ്റ
ഒതുക്ക
മനസ്സിലാക്കിയ
##ക്കടല
പോണ്
##ന്നെ
തെളിവുകൾ
പുതച്ച
സംസ്ഥാനം
ദനമേറ്റ
മാഞ്ചസ്റ്റര്
വ്യക്തിശുചിത്വ
സെൽഫി
പരിചയപ്പെട്ട
ദ്വിദിന
##ാകാൻ
വിഭാഗത്തിന്
ശേഷമ
ഉദ്യോഗസ്ഥര
സപ്ലൈ
ഗേ
##ധിക
##കുഴി
പരീക്ഷയെഴുതുന്ന
##മുണ്ടായി
പ്രവിശ്യ
മറച്ചു
##ാനുമതി
സർവീസിന്
##സിങ്
ശുഐബ
ഗായത്രി
പുണ്യസ്ഥലം
നെല്ലൂരിന
പ്രത്യാശ
സ്ത്രീകള
##പറ്റ
ഒഴിഞ്ഞു
ത്തമാന
##തൃ
ഷൻ
പുരട്ട
കമൽ
കഷ്ടപ്പെടുന്ന
ഗാനങ്ങള്
മീണ
അല്ലാഹുവ
ഉൾപ്പെടുത്തി
തെക്ക
പതിനായിര
ഈശോയുടെ
##ോത്ത്
മന്ത്രധ്വനിക
##ആഗ്രഹിച്ചിരുന്നു
സൽമാൻ
യോജിപ്പ
ആദരിക്ക
പറഞ്ഞപ്പോള്
ഉൽപ്പന്ന
വിവാഹമോചനം
ഹീ
സൂപ്രണ്ട്
ശാന്തമാക്കാ
ഉപതെരഞ്ഞെടുപ്പ
##നാല
ഓഫീസുകള്
നേതാവാണ്
##ർശ
കണക്കിന്
യാഗശാലകള
അപൂർണ്ണമാണ്
രജനികാന്ത്
ശോച്യാവസ്ഥ
ഇതരസംസ്ഥാന
##ഴുതിക്കൊടുത്തോ
വിലയുള്ള
മണപ്പുറം
സേനയുടെ
##നിലവാര
എന്തിനാ
മതപരമായ
സുരക്ഷയും
മന്നത്ത്
വാലി
ഇൻഫ
കൂട്ടത്തോടെ
സഹൃദയ
അഹ
മുത്തച്
അതോടെ
##തില
നിയോജക
മുനിസിപ്പൽ
ഉയരം
പതിനഞ്ച
അധിക്ഷേപങ്ങള്
##യാണു്
തരൂർ
##ത്തിരി
ഫൈനല
ജാമ്യമില്ലാ
രഹസ്യമായി
അറിയപ്പെടുക
പകയ്ക്ക
അഞ്ചേക്ക
തൊണ്ണൂറ്
കയറുന്ന
പാടശേഖര
ശ്മശാന
##ളിയ
##ലക്ഷം
ബന്ധിത
ഫിഷറീസ്
രക്ഷാകർത്താവ
കാട്ടുപോത്ത
##ദൈവ
ജീവിതകഥ
ഓല
ലാമി
ക്കെതിരെയുള്ള
രാഖിമോ
##ഘാടനം
ഉറച്ചു
അറിവ്
അഫ്
##യാക്കണം
തനിച്ച
പ്രദേശങ്ങളില്
ഭാഗത്തു
തിരിച്ചെടുക്ക
റിക്രൂട്ട്
അപ്പാ
വഞ്ചന
##കോശ
സംഭവങ്ങള്
##ികത
നേതാവ
കേരളത്തിനായി
##മാണെന്നു
വിഎസ്
##പൂർവം
വാഴ്ത്ത
മോഡലുകള
##ലാന്
കണക്
പ്രവചനം
വെക്കുന്ന
കശ്മീരികൾക്ക
അശോക്
വലിപ്പം
കരുവാരകുണ്ട
അകമഴിഞ്ഞ
ഡിമാൻഡ്
ശരീരഭാരം
ഹർത്താല
സീതാറാം
കിണറ
ക്കറ്റില്
ഹിമ
##സ്റ്റിക്
ഏഷ്യൻ
കോണ
വലയ
ബജറ്റിൽ
തയാറാക്ക
##കളി
പ്രവ
വിദ്യാർഥികൾക്ക്
തിന്മകള
തന്നത്
ഘട്ടത്തില്
##മേക
രാഖി
അലന
##യര
##ചരിത്രം
##ഗ്രന്ഥ
##ദേഹ
പ്രൊഫഷണല്
നരക
##ഗേ
തയ്യാറെടുക്ക
കടുത്തുരുത്തി
തിളപ്പിച്ച
റോട്ടറി
നിസ്സാര
ബ്രിട്ടന
തിരഞ്ഞെടുപ്പിൽ
സാന്ത്വനം
ഫാം
##സംവിധാന
പഞ്ചായത്തിന്റെ
കേസെടുത്ത്
##മറിഞ്ഞ്
ക്ഷീണ
##വിപണി
ഡോസേജ
##മനുസരിച്ച്
സമൃദ്ധി
ആഹ്ളാദപ്രകടനം
ശ്രുതി
രാജഗോപാല
##ക്ഷമത
##വായന
എതിരായ
മെസേജ്
##ിലുണ്ടായ
ഒട്ട
##റാലി
മരണമറിഞ്ഞ
##ുകളിലൂടെ
##ളും
വർമ
പന്തല
തൃശൂരിൽ
വിളിച്ചത്
പോക്ക
##ിനോടൊപ്പം
##ിട്ടുണ്ട
##ദായക
സ്റ്റേഷന
പ്രദർശിപ്പിക്ക
##ത്തിനാണ്
വട്ടം
ജാമിഅ
മരണമടഞ്ഞ
ബദൽ
ഷംനാ
ഇല്ലാതാക്കാന
##ക്യു
##പാന
സമ്മേളനങ്ങള്
കോട്ട്
കളിയാക്ക
##മും
##ഭംഗി
ബ്രൂ
പൊതുശ്മശാന
ഹൊ
നങ്ങളും
കഥയൊന്നു
കൂട്ടര്
##ലിൻ
സ്വീകരിക്കാന്
##ചരിത്ര
അബ്ദുറഹ്മാന്
മഹാത്മാഗാന്ധി
അന്ത്യാഞ്ജലി
അസ്വസ്ഥ
##ക്സി
##ജാത
ഇരുമ്പ്
##ിരുന്നുവെന്ന
പിടിയിലായത്
##പിച്ചു
ഫേ
അഭിപ്രായപ്പെട്ട
സൂറ
##ൊഴുക്ക
ബംഗ്ലാദേശ
ഉറവിടം
ഉപകാര
തൊട്ടാൽ
##ിക്കരുത്
തൃക്ക
കരാറുകാര
ഗം
ടീച്ചറ
##യ്ഡ്
##ഗ്രാം
ബിൽഡേഴ്സ
##സ്രോതസ്സ
സിനിമയെ
നിരത്ത
മാവേലി
##കാവില്
വിശ്വാസികള്
ജഗ
കസ്റ്റംസ്
വെളിപ്പെടുത്തല്
ചുമത്തിയ
##വധ
കാണാ
വിജയിപ്പിക്ക
ഉറവിട
മഞ്ജുവിന്റെ
അത്ത
കാശ്മീര
മാത്ര
അതിപ്രധാനമായ
കൂറ്റന്
അലങ്കാര
##കക്ഷി
##ൈറ്റ
സന്ധി
ജീന
ദീപക്
പതി
പഞ്ചാബിനെ
മേഖലയെ
നൽകുമെന്ന്
കാം
ബ്രിട്ടൻ
താക്കീത്
പ്രേക്ഷകര്
##ള്ളി
##പ്രശ്ന
തീവ്രവാദികൾ
##മെങ്കില്
ഒമാന്
ബീറ്റ്
അനുസരിക്കാന
അനശ്വര
പെരുമാറിയ
ക്വാഡന്
##യെപ്പോലെ
തട്ടിയെടുത്തു
മാതാവിന്റെ
ബ്രിട്ടനിലെ
മറവി
അർഹത
##ട്ടർ
വിജയകരമായി
സമാധി
ചോദിക്കുന്നു
കുഞ്ഞുങ്ങളെ
പ്രദേശങ്ങളിൽ
ടെസ്
വരയ്ക്ക
##സ്ഥാനം
മുടങ്ങിയ
കതിര
ഏക്കര്
ഫാഷന്
അണിഞ്ഞ
അമര്
കേമ്പ്
ചൂണ്ടിക്കാട്ട
സ്കൂട്ടറ
കണ്ണൂര
യാത്രയ്ക്ക്
നൽകിയിരിക്കുന്ന
സാധിച്ചു
പിആര്
ശിക്കുന്ന
ഓഡിറ്റിങ്
ബഷീറിന്
##ധാര
തനിക്ക
ഫെബ്രുവരിയിൽ
##ാമായിരുന്നു
##വിദ
കപൂര്
പ്രസാദ
പെട്ട്
കുപ്രസിദ്ധ
ആന്തരിക
##ഷ്മള
വീരമൃത്യു
അറിയുന്നത്
ശൃംഖല
ദേവനന്ദയെ
##ത്തൂര്
സാപ്പ്
##മോൾ
മ്മല
##ലീഗ
അരങ്ങേറ്റം
പരാ
##സ്വരൂപ
ലഘുലേഖ
റെക്കോഡ്
റോഡിന്റെ
ച്ചയും
ഉയരുന്ന
ഹിറ്റ
ഉൾപ്പെടുന്ന
തമ്മില
യാഥാർത്ഥ്യ
ഒടുവിലെ
ആറ്റിങ്ങല
##പിടി
##പ്രസംഗ
കോമ
തെളിവെടുപ്പിന
കാണിക്കുന്നത്
മെമ്മോറിയല്
പുനരാരംഭിക്ക
ബ്രദറിന്
മന്ദിരോദ്ഘാടനം
##വസ
കുടപിടിക്കാ
തിരിയ
പാസിംഗ്
ഇതെന്റെ
സർവീസിൽ
നിർത്തിയാല
പ്ലസ്ടു
തകർക്ക
സീസണിലെ
ബട്ട
ബണ്
ഏറ
ഫലമായി
പരന്ന
നടക്കാന
##കൽ
##ളെ
മുടക്കി
സമന്വയ
നടത്തം
മലമ്പുഴ
നന്ദിയും
പ്രാപിക്ക
സംശയിക്കുന്ന
വീട്ട
ഇക്കാര്യങ്ങള്
ഇളക്കി
##പദവി
##കയറ
യഹ്
ധനസഹായ
ചടങ്ങ്
##െടാ
ന്നുള്ള
പുതുവത്സര
അതിക്രൂരമായി
വേളാങ്കണ്ണി
മാറ്റുക
എഴുതാൻ
തൊഴിലില്ലായ്മ
അസോസിയേഷനു
##വിവരവുമില്ലാത്ത
തച്ച
##പ്പിക്കാന്
പെട്ടു
എച്മു
കുത്തക
##മൂല്യ
ക്യാപ്
സോഷ്യോ
##ിംഗിന്
മതിൽ
താലൂക്ക
പദ്ധതിയായ
നാവികസേന
ആശംസകൾ
കുകയും
##െടുക്കുക
ഏർപ്പെടുത്ത
ചെമ്പൻ
ഭീം
പള്ളം
കോഴ
പോകുക
വേണമെങ്കില്
ക്കാരിനെ
ദൂരെ
ദന്ത
മാസായി
തറവാട്
രോഗികൾക്ക്
##ട്ടില്
##ഞ്ഞാല
ബസ്സ്
ക്കാതെ
##നിരത്ത
കണ്ടപ്പോള്
പോയാൽ
നീന്തി
നിക്ഷേപക
ആമസോണ്
പെരുമാറ്റ
##ഗ്രാമം
കഥാപാത്രത്തെ
ദിവസമ
കൂട്ടമായി
അതോടൊപ്പം
വകുപ്പിൽ
സ്ബുക്ക്
നിരന്തരമായി
ശ്രമിക്കുന്നു
തോതില്
നിലപാടിൽ
രാജ്യങ്ങളില
മലയാളികൾക്ക്
കുരുക്ക്
മറുനാടനെ
അണ്ടർ
ചാവക്കാട്
കപ്പലില
ആഹ്വാനവുമായി
നിയ
##ുമായും
പള്ളികളില്
മത്സരങ്ങൾ
യുവാക്കള
പരിസരത്ത്
സെഷന
സാധനങ്ങൾ
ബോക്സ്
സെമിനാറ
എംഎസ്
നാളിൽ
തോന്നുന്നത്
ഭീകരവാദ
സത്യാഗ്രഹ
##വള്ളി
സംരക്ഷണത്തിന്
അട്ടിമറിക്ക
കാണാനില്ലെന്ന
മണ്ണില്
##സഹായ
ട്രാവൽ
ആലഞ്ചേരി
തെരുവില
ലംഘിച്ച്
ഗണേശ
##ത്തിനുള്ളില്
ഗ്രാമോത്സവം
##ൻഷി
കാണുമ്പോള്
##മരിച്ച
സെക്രട്ടറിയായി
പാർട്ടിയിൽ
സഹപ്രവ
സത്യത്തിൽ
##ഹൗസ
കലിപ്പ
##സാക്ഷി
ഇക്കോ
മാങ്ങ
##തട
ഏകപക്ഷീയ
അധി
രണ്ടുപേരും
ആരാധകരും
കലക്ടര്
പ്രതിഷ്ഠാ
അവസാനിക്കുന്ന
രാമൻ
വേദനിക്കാ
കുടുംബങ്ങൾ
തിരിച്ചുപിടിക്ക
സ്വന്ത
##ബുക്ക്
മോഹം
നടുവിൽ
സപ്താഹ
##കിയ
തീരുമാനിച്ചത്
നെല്ലി
##വത്
ബുര്
##വരെല്ലാം
ടോക്ക
പിശുക്കില്ലാത
അഞ്ജനാ
കെല്പുള്ള
തിരുശേഷിപ്പ
പ്രാർത്ഥിക്ക
ഉപകരണങ്ങള
മെല്ലെ
ആരംഭിക്കുന്നത്
##ക്ഷൻ
ക്കുന്നവരെയും
റൂള്
കേസെടുക്കണമെന്ന
മാറ്റത്തിന്
ഉദ്യോഗസ്ഥരും
ഈജിപ്ത
##വിനും
ഒന്നോ
കോശി
##ശാന്തി
ഒന്പതു
സംഘാടകസമിതി
##ാമെന്നു
പ്പിക്കും
നിർമ്മലാ
കൗമുദി
ഏകോപന
സിങ്കപ്പെണ്ണ
ഉപകരണങ്ങള്
സിക്കു
മാർച്ചിന്
ഡിസി
ഖാനെ
ഹൈപ്പ
മകരം
മമ്മൂട്ടിയും
##യാര
##മോഹ
നീങ്ങി
##ശ്ച
ഉരുക്കി
അധിക്ഷേപിക്കാന
##ത്താണ്
അടിസ്ഥാനമാക്കി
മാത്രമെ
##ഫൈ
##യോട്ട
പുറപ്പെട്ട
ഫുക്രുവിന്റെ
മാറ്റിവച്ചു
ചർച്ചകൾ
ശങ്കർ
##ചക്ര
ചൂഷണം
എസ്ഐഎഎം
പ്രോട്ടോകോള
പർച്ചേസു
ബഷീർ
മാഞ്ചസ്റ്ററില
മൈനോറിറ്റി
വേൾഡ്
##ാമത്തെ
മിശ്രയുടെ
ഫിഫ
##ടിയില്
കുതിച്ച
ബാറ്റിംഗ്
##രാഷ്ട്രീയ
വതി
##ണമ
അധ്യാപകരെ
##പ്പെടുക
പരാജയപ്പെട്ടു
##ഴല
##മാവുന്നു
കുറ
ലിയാര്
ബിനു
ചിലവിൽ
കൂട്ടാൻ
ചെയ്യൽ
ഗുരുതരാവസ്ഥയിൽ
മുയലും
ഏൽപ്പിച്ച
ദ്ദിച്ച
കള്ളക്കളി
ശന്
പ്രഖ്യാപനവും
നവതി
പരപ്പ
##ക്കുള്ളില്
ഷോപ്പിങ്
കക്കൂസ്
അണു
പെട്ടത്
പരീക്ഷയില്
രൂപതയുടെ
വിഭാഗങ്ങളില
##വർത്തി
ക്കടക
പ്രശസ്തമായ
ലീഡ
ജന്മഭൂമിയായ
##ച്ചേ
രണ്ടായിരം
കൊടുത്തത്
സഭയിൽ
##െങ്കില
##ഐപി
കടവില
പ്പണ
കാണുമ്പോൾ
അധ്യാപകരും
##യോടെയാണ്
##ർട്ടി
നടത്താന
ചിന്തകള്
ഉറപ്പായ
ഓണാഘോഷത്തിന്
എല്ലുമുറിയ
മതവൈര
അപര
രവീന്ദ്രനാഥ്
ആസ്വാദക
സൂര്യാതപമേറ്റ
##ുകളില
ഹമീദ്
നേടാമെന്ന
പിന്തുടര
നാശ
നിരാശരാവു
##മുണ്ടാക്കിയത്
##പുസ്തക
##ശങ്ക
##ൂട്ടി
ആക്രമണത്തിൽ
##െറ്റേണിറ്റി
ഡയലോഗ
##ാകുന്നത്
മല്ലപ്പള്ളി
##ാരംഭ
##പേർ
ഫുട്ബോള്
രജിസ്ട്രേഷന്
നിഷേധ
ഫെസ്റ്റിന്
ശ്വ
കിട്ടുന്നത്
റസി
സാധ
ശ്രീകുമാര്
മാർഗ്ഗ
##ർഥ
##ത്തോടും
വ്യായാമം
മോഹൽലാലിന
ബിജിഎമ്മു
ഏകീകൃത
വടക്കൻ
നടത്തുമെന്ന്
##കാൻ
##ശേഖര
##ുന്നതിലൂടെ
നോക്കാതെ
കടത്താന്
ലാലേട്ടന
##്പനയിലും
നിയോഗിക്ക
ഇക്കാര്യത്തിൽ
##ാലു
##കറ്റ
ഒഴിവാക്കണം
##ടങ്ങുന്ന
ശുചീകരണം
വീക്ഷണ
##ക്കിടയിലെ
വരുമോ
ലൈനില്
ഓരോന്ന
നിരീക്ഷിക്ക
മണ്ഡലങ്ങളില
കോഴ്സ്
ഗണേശോത്സവം
ആർമിയും
പ്രവർത്തി
ഫോണുകൾ
വിശദീകരിച്ച്
##ിങ്ങിന
തന്നിലേക്കാവാഹി
മനസ്സില
സന്ദർശക
മോചിപ്പിക്ക
കുരുന്നുകള്
എതിരിടുന്നവന
എൻഫോഴ്സ്മെന്
ചോർന്ന
ലൂസിഫറ
ബാങ്കുകള
ഗുജറാത്തിൽ
ആസ്ഥാനത്ത്
പെര
മാസ്റ്ററ
##വദ
തീയ
വെളുപ്പ
അപകടകരമായ
മാപ്പിള
##ഞ്ജന
പ്രതിഷേധിച്ച
##ുള്ളവര്
പോകരുത്
##സഭാ
കീടനാശിനി
തിരുനാളിന്
##യീ
##ിക്കുകയായിരുന്നു
കൊലക്കേസ്
ദിവസത്തേക്ക്
വികാസ
സാധിക്കുമോ
കമ്പനികൾ
മാരായ
ബാങ്കുകൾ
ധിച്ച
ഉപയോക്താക്കൾ
വള്ളം
പുറത്താക
##തിബലം
ഇപ്പൊ
ബെഹ്റ
മണ്ഡലത്തിൽ
വാഹനവിൽപ
##ാക്കിയത്
സാധ്യതയുള്ള
അടച്ചിട
പാചകം
##ദിനത്തില്
സുന്ദർ
മെമ്പര്
ഇന്ത്യക്കാരുടെ
നാടൊരുങ്ങി
പതിവാകുന്നു
എഡിജിപി
സപ്ലൈകോ
തിരുവിതാംകൂറ
വാദിച്ച
തെറിച്ചു
##ാവില്ല
കൊളുത്തി
വെര്
##ിസം
മുളച്ച
##ിസ്
പകരക്കാര
ഗ്രേറ്റ്
##ക്കുവാന്
##ണിഞ്ഞ
തുലാ
വില്ലേജ
വശത്ത
സാന്നിധ്യമായി
പ്രണയത്തെ
കുടുക്ക
##കരുടെ
സർപ്രൈസ്
ടാഗോറ
നാടോടി
ബ്ലാസ്റ്റേഴ്സ
കളയുന്നതും
ഹാട്രിക്
ന്യൂനമ
വ്വീസ്
##കിലോ
വാഗ്
തോമസിനെ
നന്മയുടെ
ഇന്ദ്ര
നമ്പര
കാമ്പസ
രാത്രിയില്
##്യവും
ടെറ
പൂള
ഫിലിപ്പ
ആലുവയില്
സഹായധനം
അബദ്ധ
പിൻവരുന്ന
ത്തകരും
തരും
##വർക്കു
പറ്റൂ
##ജാതി
##ിരുന്നെങ്കിൽ
മഹാരാഷ്ട്രയില്
ചുരുള
ഹാജരായി
സ്വദേശികള്
കുരങ്ങനും
കത്തുമ്പോൾ
##ുവെങ്കിലും
സൃഷ്ടിച്ചു
##ത്തുടര്
##റർനാഷണൽ
##മംഗല
##പൂർ
##ാനാകില്ലെന്ന്
##വിനു
കീഴടക്കിയ
നടത്തിപ്പ
കഴിയൂ
##പരിഹാരം
സർവീസ
ഉച്ചകഴിഞ്ഞ്
നിർധന
സമയബന്ധിതമായി
##നാക്കി
##ങ്കൊന്പ
അസുഖം
ബന്ധമാക്ക
റിസർവ്
വെളളറ
അടയാളപ്പെടുത്ത
##ുണ്ടു്
സംഭാവനകൾ
വിഭാഗവും
##താണെന്ന
ഠ
വിശേഷണ
ഹംസ
##ിറങ്ങും
##യാക്കുന്ന
ആത്മകഥ
പൂശി
ശ്രീധരൻ
മുൻകൂർ
ഷമി
##വാസികള
ഉറപ്പാക്കണം
മനുഷ്യരുടെ
കറ്റ്
##ാനുളള
##കണ
##ിണി
ദേശീയത
നടന
ആവശ്യങ്ങള
ക്രമക്കേട
##ിവിടെ
ക്രിക്കറ്റിലെ
നിക്ഷേപിക്ക
തരാം
##ഗോള
ജീവനക്കാരി
ഭീഷണിയായി
അനുശോചിച്ചു
കാണുന്നില്ല
വ്യക്തത
അവസരങ്ങൾ
തൃക്കാക്കര
ബംഗാള്
വർക്കുകൾക്കും
നാദ
##ുന്നതുവരെ
മീറ്റിൽ
നെഹ്റു
ശ്രീകാര്യം
കണ്ണട
നാടകീയ
ക്യാമ്പുകള
നൊ
ജനാധിപത്യം
##മൃഗ
പാഠപുസ്തക
##മണ്ഡല
കെടുത്തി
യുഎഇയിലെ
ബ്രഹ്മപുര
വിഭജിക്ക
ഇട്ടു
ഹുസൈന
വികസിപ്പിക്ക
കനകക്കുന്ന
ജീവനുകള
അസ്സ
എംഎ
തൊപ്പി
##സംഖ്യ
ഇടക്കാല
വുഹാനില
##നൈ
ബസിന്റെ
കശ്മീരില്
നഗരമായി
ഉയരത്തില്
##ുകയാണെങ്കില്
അന്വേഷിക്കുന്ന
കബളിപ്പിച്ച്
എട്ടുനോമ്പ
പ്രവേശിച്ച
ട്രേറ്റീവ്
നിറയുന്നത്
ഒപ്പു
എത്രമാത്രം
##യ്യാ
ശ്രദ്ധേയമായ
പോകുമെന്നും
##ാണെന്നാണ്
ജീവിക്കാനുള്ള
വർണ്ണ
ഇതിലൂടെ
നിയന്ത്രണത്തില
അദ്ഭുത
കൈമാറ്റം
കൂട്
ലീഡേഴ്സ
ഫൈസിയുടെ
ഗുരുവന്ദനം
ഓഫീസിലെത്തിയ
ഡിനി
##വിതരണ
ഹാജരാക്കണം
മെഷീന്
##വിദ്യാഭ്യാസ
പിന്നിട
ബിപി
ഉന്നയിക്ക
ഇടപെട്ട
പെരി
തിയ്യതി
തെറാപ്പി
ഇത്തരത്തിൽ
അർജുന്റെ
വംശ
ഇവിട
ബാഗില്
ട്രിപ്പ്
മേട
കുര്യന്
ലണ്ടനിലെ
പ്രഖ്യാപിക്കും
തീറ്റ
ഫലപ്രദമ
##മണ്ണ
കവിതകളുടെ
മാധ്യമങ്ങളിൽ
സത്യസന്ധ
സിനിമകള്
ഉപകരണങ്ങൾ
##പല
ദിക്
പ്രഭാവ
ഉത്തർപ്രദേശിൽ
മഹാവിഷ്ണു
ബന്ദി
ഹോളിഡേ
പാറമട
##ന്ദ്ര
##ാചാര
ഷത്തിന്
ഏജന്റ്
ശ്രമിക്കുക
വേണമെങ്കിൽ
##ോട്ടെ
##ുകാരൻ
പാസാക്കിയ
പദ്ധതിയിട്ട
സത്
സെറ്റിലെ
മതിയെന്ന
നഗ്നത
##ജ്വാല
ആനുകൂല്യ
കവർന്നു
ഒരാ
##വെച്ചു
സറ
ആവശ്യപ്പെടുന്ന
മലബാറ
##ഗര്
കാസിമും
മജീദിന്
രജനീകാന്ത്
അസംബ്ലി
വഴിത്തിരിവ
എന്നനിലയിൽ
അനാസ്ഥ
##ള്ളു
ഇമേജ
മത്സരാർത്ഥി
##ിതമായ
തലയ്ക്കു
യുവതികള്
കച്ചവടത്തിന
##ല്ലൊ
അഗ
നവാസ്
##മാക്കണമെന്ന
അന്യസംസ്ഥാന
ഏഴര
##വേശ
താരങ്ങളുടെ
##സാന്നിധ്യ
##ിട്ടാണ്
##ളപ്പില്
വരന്
യുവതികളെ
ഉഴ
പെയ്ത
ഇറങ്ങിയത്
##മാണു്
വരരുത്
സാറിന്റെ
##മൂന്ന
പാമ്പ
വൈറലാവുന്നു
യാത്രകൾ
പ്രവർത്തിച്ചു
##ഭ്രാന്ത
അഞ്ചാമത്തെ
നസ്രിയയും
കൊടുക്കാന്
ഫിസിക്
##ഷോ
##ാകുമെന്ന്
ബുള്ളറ്റ്
##വകുപ്പ്
##റ്റൈലിൽ
മാറ്റങ്ങള
ബാധിക്കും
ആശ്വാസമായി
കേബിള്
ശിവക്ഷേത്രത്ത
യുഎന്
എങ്ങനെയെന്ന്
ലൈനായി
ഉല്ലാസ
ഹാക്കത്തോണ്
നാണംകെട്ട
##മുമ്പ്
കടത്താൻ
അനുഭവപ്പെട്ട
ബിസിനസ്സുകള
ബാലകൃഷ്ണ
കുളത്തൂപ്പുഴയില
അറിയിക്കുക
ആക്രമ
രാമക്ഷേത്ര
അപ്പൊ
സൗകര്യങ്ങള
ഏഴ
##സറ
കർഷകൻ
മാത്രമായിരുന്നു
പ്രസിഡന്റായി
##ടയ
ജന്മനാട
മാനദണ്ഡ
മാഡ്രിഡ
ദലിത്
##ത്തോടെയാണ്
അൽപം
ക്യാമ്പിൽ
##വാഴ
സർക്കാറ
ഭരണാനുമതി
ഉണ്ടായിട്ടില്ല
##ന്താ
##ാട്
തത്
ബ്യൂട്ടി
##ബിൻ
സംരംഭങ്ങള
സഹായവും
പുറകെ
ഇല്ലെന്ന
കാര്യക്ര
സർക്കാരും
##തുരുത്ത്
##ലേഖന
പുറപ്പെട്ടു
ആമസോൺ
കപ്പേള
പരേതനായ
മുഖ്യധാര
നിവാരണം
കളിക്കളം
##റിലേക്ക്
ത്തഡോക്
ട്സ്
മലയാളിയുടേത
##മുണ്ടായത്
ചെലവില്
ബന്ധപ്പെട്ടു
##നടപടി
ഇറക്കിയ
സിപിഎമ്മും
##ുപയോഗിച്ച്
ലിയോണ
ജനറേറ്റ
ഒമാൻ
രാമന്
ഇങ്ങനെയാണ്
##ജ്വല
ഷീ
ഹരിപ്പാട്
##ുവോ
ബൈക്കിൽ
സ്വരൂപ
ഗോപൂജ
##രണം
റിവ
##ണിന്
ചവിട്ടിക്ക
ബീജ
വന്നതു
വിവാദങ്ങൾക്കു
##ബോര്
ഗുജറാത്തി
##ബൂ
ഓടിക്ക
##കൊണ്ടുണ്ടായത
ഫൊറോന
വെളള
പരിചയപ്പെടുത്തി
കെജ്രിവാള
അനിവാര്യം
അഴിമതിയിലൂടെ
ജ്വല്ലറി
നിഘണ്ടു
നഖ
ദില്ലിയിൽ
അപകടഭീഷണി
##നിക്
പ്രവർത്തനങ്ങളിൽ
തയ്യാറാക്കി
ഓഫീസുകള
അമ്മയ്ക്കും
ചെയ്യരുത്
കേരളത്തില
ആദരിക്കുന്നു
കൂട്ടായി
##െപ്പോലെ
ടീമുകള
വിട്ടുപോയ
രോഗത്തെ
ഉറങ്ങാൻ
ക്ലബ്ബിന്റെ
##രിക്കാപ്പട്ടണമ
അരുവിപ്പുറം
ഇന്ത്യക്കു
ഇടഞ്ഞ
ധരാത്രി
കിയിരുന്നു
ബ്ലോഗിൽ
നായരുടെ
പാലത്തിന്റെ
കുതിക്ക
ഭൂലോക
സുലൈമാന്
##ളീ
##ഗീത
##ാമല്ലോ
ശേഖരിക്ക
ഏറ്റുമുട്ടല്
##പ്രവേശ
അനന്യ
ഇന്ത്യയിലെത്തും
സൂചനകൾ
പ്രശംസിച്ച
യുപിയിൽ
##െവച്ച
വിശ്വസിക്കാനാവ
വേഗത്തില
അച്ചു
##ചേർന്ന
ലർ
ബഹളം
പ്രതികരിച്ച
ദോഷം
അഞ്ചുതെങ്ങ്
വത്തിക്കാന്
ലളിതകലാ
പൊതുവിദ്യാലയ
പിഎച്ച്ഡി
##ഡന്
നല്കും
കർമ
പറയുമ്പോള്
##വ്യാ
##ന്നൂർ
##െനിക്ക
ഉള്ളിൽ
ഗതാഗതക്കുരുക്ക
രണ്ടില
സന്തോഷത്തോടെ
ശാപ
അതിലും
പുരോഗമിക്കുന്നു
വിരല
സൗഹാർദ്ദമാ
ഡാനിയലിന്റെ
ദുരന്തത്തിൽ
നിലയിലും
പ്രൈസ്
പെക്ടര്
പ്രശസ്തി
സുമ
##ക്കുമ്പോൾ
പുഷ്
നായകനാക്കി
##യെന്നാണ്
##െയാണ്
രക്ഷപെട
തടയാന
ലക്ഷണങ്ങൾ
ലഭിയ്ക്കാന
##ഷീ
##ായിരം
നവ്യ
ടൈറ്റ
മണിക്കൂറും
കാരണമായി
മന്ദിരത്തിന്
നൽകണമെന്ന
##പ്പട്ടിക
ചാർട്ട
പഠിച്ചു
അതിയായ
##ൊടുവിൽ
എടപ്പാളില്
ക്കാരും
നടപടിയെന്ന്
##െണ്ണ
ബ്ലോഗുകള
ഒന്നിക്കുന്നു
ബസുകള്
##ഭാഗത്ത്
നീലേശ്വരത്ത്
മടുത്ത
ബ്രാ
##ാച്ചി
ആയുധം
##ടുത്തു
റബ്ബ
കോളനിയില്
താനും
അധിനിവേശ
കുറ്റ്യാടി
അധ്വാന
നടപടികളെടുക്കാന
പശുക്കള
##സായി
തെന്നല
പിടിയിലായി
ബാലകൃഷ്ണൻ
പുതുക്കട
എടുക്കുക
തണ്ട
ശാസ്ത്രി
##വിഭാഗം
മലനിരകള
വെട്ടേറ്റു
വിവാദമായ
##യുടേത
ആയതിനാല്
ഭവനിൽ
ആളുകളുടെ
തരികിടയ
എഴുത്തുകാരന്
പ്രാണികള
അറിയണം
കലര്
പൂർത്തിയായ
ഖൂബ്
ആവശ്യകത
സംഭവങ്ങള
മൂലമറ്റ
പൊക്ക
ത്താണ്ഡ
വ്യക്തിയെ
പടം
അധ്യാപകദിനത്തില
സെർ
##ൂണ്
വേദനിപ്പിച്ച
പോലീസില്
ചരിത്രത്തിലേക്ക
ദൈവത്തിന്
സമൂഹത്തിലെ
അടിസ്ഥാനത്തിലാണ
അഭിനയിക്കുന്ന
മേഗന
താഴ്ന്നു
നയതന്ത്ര
വാറ്റ്
ക്കാം
ബേക്കറി
##യാവും
നായരെ
അവസാനിപ്പിച്ചു
പൊരുതാന
കടിയേറ്റ്
സ്വപ്നങ്ങള
കുടുംബത്തിനും
റോക്കറ്റ്
വാസ്
അകത്ത്
കലാപത്തിന്റെ
##വരിക
കൊല്ലാന
##റേഷൻ
ആരോഗ്യമുള്ള
വിചിത്ര
ആശയങ്ങള
##ഡല്
രതി
ഇമിഗ്രേഷന
ബജാജ്
മംഗള
മദീന
ഞാനൊരു
ഓണവിപണി
സമുച്ചയ
കളിക്കാൻ
##സ്ഥാപനങ്ങള
വേഗത്തിലാക്ക
ഭവിത
അനുദിനം
മദ്യപാനവു
സ്വന്തമാക്കാം
സുരേഷ
##ഡ്സ്
##സിഎ
ചിത്രരചനാ
##ിലായി
ഒരൊ
##ുപോയി
സെമിയിൽ
##കമ്മിറ്റി
എത്തിയതോടെ
ഹെലികോപ്
##പ്രഭ
ആശ്രയിച്ച
പപ്പായ
ജെഎൻയു
അഫ്ഗാന
ആലങ്ങാട്
ലേബ
സീഗ
കൊത്തി
ഉപരോധ
തലയും
##ക്കുറവ്
ഫിയ
പുറത്തിറങ്ങും
##നിൽക്കുന്ന
അനുവാദം
തൃശ്ശൂര
ഫില
നായകനായി
മാർക്കറ്റ്
എംഎം
റൈന്
ആദ്യഘട്ടത്തിൽ
ലക്ഷത്തിന്
ഗേൾസ്
ബ്രിഡ്ജ
ബദല്
തലയുയർത്തി
കണ്ണൻകുളങ്ങര
##താണ
വരദയുടെ
നിലവിലുണ്ടായിര
വിള്ളല
ഡ്യൂ
സദസ്സുകള്
കാവ്
അന്വേഷണസംഘം
ക്വി
ജനതയുടെ
ആകാംക്ഷ
##ുകാരെ
##ോത്സവത്തിൽ
ആട
എസ്സിന്
വഴിയും
സ്ഥലവും
പാതയോരങ്ങളില്
പുറമ്പോക്ക
ശരിയാണ്
അനിവാര്യ
ആവശ്യമില്ലെന്ന
അദ്ധ്യക്ഷ
പെൺകുട്ടികളുടെ
അതിനിടെ
തുടങ്ങിയതോടെ
തങ്ങളെ
വിശാലമായ
കുറുക്ക
പെണ്ണിന്റെ
മിന്നല്
സമ്മാനമായി
##കണ്ട്
##നാള്
പോന്ന
ഉള്ളു
##ിടം
വിദ്യാലയങ്ങള്
##പ്രവർത്തനങ്ങൾ
##പോക്ക
മേലെ
##ാധിപ
റ്റെല
തിരുവാതിര
സഞ്ജയ്
ബസ്സ്റ്റാന്
ടിക്കറ്റിന്
ആക്ഷൻ
ജിയ
##മെല്ലാം
കോശ
##വുമുള്ള
റോഡുകൾ
സ്ത്രീകൾക്ക്
സംഭവിക്കും
വികസനത്തില
രേഖകള
##ക്കാലത്തെ
മണിക്കൂറിനുള്ള
##വരാണോ
##റീസ്
സീസണ്
പകർന്ന
മാധവ്
##കാലത്തു
ഗന്ധ
കഴുത്തില്
ഇട്ട്
ഗിരീഷിനെ
അണ്ടര്
ത്ഥാടന
വല്ലാത്ത
കുഞ്ഞുങ്ങൾ
അവി
സംസാരിക്കുന്നു
മനസിലാക്കി
വെങ്കിട
കൂളിന്റെ
മരുഭൂമി
വിവരങ്ങള
##ർഷ
മാജിക്
##സ്ഥാ
കൂട്ടാന്
##ദൂത
പറയട്ടെ
പല്ലു
യോഗവും
##പിന്ന
നിയമത്തിന്റെ
ഫൈസിയെ
മേക്കോവറ
നിരീക്ഷിച്ച
ചിക്കൻ
സേതുപതി
വംശജനായ
പ്രതീക്ഷയോടെ
മിനല
വ്യക്തിഗത
ക്ലാസുകള
പ്രണയകഥ
മാപ്പു
സ്റ്റോപ്പ്
വീടുകളിൽ
രൂപപ്പെടുത്തുക
##ത്തിനൊടുവിൽ
ലോക്ക
##ാഭി
നൂറ്റാണ്ടിലെ
നവീകരണത്തിന്
വേള
##സൂത്ര
വേണമെങ്കിലും
##മാകാന്
സൈഡ
ശിക്ഷാര്
വലിപ്പ
##ക്കൊല
അങ്ങനെയാണ്
ആഘോഷിക്കാൻ
പോസ്റ്റില്
##യേഴ്
##ഭ്ര
##മല്ലെന്ന്
ത്താം
ഘട്ടത്തിൽ
പിസി
##ായിരിക്കുമെന്ന
പണിതു
അംഗമായ
##ോടുകൂടി
ആരോപണങ്ങള
ഉഷാ
സീസണില്
അപ്രത്യക്ഷ
സ്റ്റുഡിയോ
മരിച്ചനിലയിൽ
റിക്കാർഡ
കലാപകാരികള
##ക്ഷേത്രം
ഓടിയ
##കളുമ
കൂട്ടുകാര്
ഉദ്ദേശ്യ
വ്യത്യസ്തമായി
ഡ്രൈവറ
താങ്കള
##കളൊന്നും
അന്ധവിശ്വാസ
അധികാരികള
കണ്ടതും
ടെലിവിഷന്
കവാട
ബോംബെ
പുരുഷൻ
പറയുന്നുണ്ട്
കലോത്സവ
മറ്റുള്ള
ഹരിയാനയും
പെണ്ണിന
##മഹ
മാസത്തിൽ
ചെയ്തിട്ടില്ല
നിർവഹിക്ക
ഇടയില്
മതനിരപേക്ഷ
ഉത്രാട
പിറകെ
മഖാം
കാളികാവ്
ചൂഷണ
പാരമ്പര്യത്തിന
##ക്കുറിച്ച
രാഗ
പത്രപ്രവര്
യുക്തിവാദി
##സംസ്കൃതിയുടെ
മലയാളികള
മനസ്സിലാക്കാന്
##ത്തിയത്
ത്രില്ല
ജനവിരുദ്ധ
രണ്ടാന
ഹമാണ്
##ദർശന
##ജ്യ
പാസാക്കി
പാരമ്പര്യം
##വക
ഖര്
നേടാന
ചേർക്കുന്നു
##ക്കൊന്ന
ഓർമ്മകൾ
ളോറിഡ
പ്രത്യേകിച്ചും
രാജകുമാരി
സന്യാസി
ബംഗളൂരുവിൽ
സ്ഥാപനങ്ങൾക്ക്
നയങ്ങള
ക്കാറിന്
##ക്കിട്ട
ദാര്
മറിച്ച
രജനി
മഴയെ
പെരുന്നാളിന്
പവനും
##ുപയോഗപ്പെടുത്തുക
പരത്തി
##ലൈൻ
തയ്യാറായി
സ്വയംതൊഴില്
ബോൾട്ടിനെ
വസ്ത്രധാരണ
കുംഭം
##ർജി
മഹല്ലുകള
പ്രണയവും
മൂട്ട
സമരത്തിലേക്ക്
തക്ക
##മേല
അവകാശപ്പെട്ട
കിയിട്ടുണ്ട്
സഹോദരനും
കണ്ണിന്
രണ്ടായി
കേന്ദ്രമായ
മാനേജര
ററി
ഓഫീസില
കേട്ടോ
##സുരക്ഷ
പാൻ
കൈയേറ്റം
ഒരുപാടു
ആദരിച്ച
കൺട്രോൾ
ശുചീകരിക്കുക
സ്വമേധയാ
ഉത്പാദിപ്പിക്ക
ദൈർഘ്യമുള്ള
മുറുകുന്നു
ബർലിൻ
പീറ്റര്
നിലപാടുകള
എത്രത്തോളം
കോച്ച
ഉണരുന്നു
ഞാനാണ്
ഉള്ളവര്
##യാറ
ചിന്തിച്ച
അരയ
താഴേ
ഷകരെ
നിയമസഭയില്
യാദവ
##ായിരുന്നില്ല
റദ്ദ്
ഷങ്ങളായി
##ാറുള്ളത്
വൈകുന്നേര
ജോലിയില്
മൊട്ട
##ിപ്പിക്കാന
റെഡ്ഡി
സവിശേഷ
ത്തുക
##പ്പറ്റ
ശ്രീനാരായണഗുരുവ
കള്ളപ്പണ
നിധിന്
എസി
ചിത്രത്തിലൂടെ
##വികസന
കെല്
സിഗരറ്റ
സ്വത്തുവകക
മ്മാതാവ
##ചര്
മറവിൽ
പരിവർത്തന
വിട്ടുവീഴ്ച
നടപ്പാക്കുന്നു
തൃക്കരിപ്പൂ
ഉണ്ടായിരിക്ക
തേര
ഇടപാടുകാര
പ്രസക്ത
##ിരിക്കാം
മിന്നും
മല്ല
റെയിൽ
മാമം
മോർ
##ഭാഷാ
##പുസ്തകം
##ിനുവേണ്ടി
ഉച്ചകോടി
അഞ്ജു
ഒമ്പതു
തുടങ്ങാം
വാങ്ങുന്നതിന
വെള്ളവും
ഗ്യാ
വേണു
സോള
സുരേഷിന്റെ
ശുചിമുറികള്
തോമസ
അദ
ഇടപെടലുകള
മറന്ന്
##സന്ദേശ
മനുഷ്യത്വ
അതിശയ
ആത്മവിശുദ്ധി
ഒന്നരവയസുകാരന
വിറ്റാമിൻ
സമാനതകളില്ലാത്ത
വോളിബോള
##സിസ്റ്റ
പഴകിയ
മുഖത്ത
തിരുമേനി
മദ്യപാന
സുന്നത്ത
സീസ്
##അ്
##ീശ്വര
##കാട്ടി
പ്രാധാന്യ
##ാതിരിക്കാന
കെട്ടിച്ച
ചൈനയ്ക്ക്
വാടകയ്ക്ക്
ചർച്ചയിൽ
പൗരന
##നിലയില്
ഭാഷയിൽ
സൈക്കിൾ
കൈവിട്ട
മുറിക്ക
നിർദ്ദേശ
##ൊഴുകി
കൊള്ളുന്ന
ണിയ
##േട്ടാ
രാജ്യങ്ങളിലെ
പങ്കുവെക്ക
ചിട്ട
മധ്യസ്ഥത
താളം
കണ്ടിട്ടില്ല
ഓഫര്
അപഹാസ്യം
ചടങ്ങുകള്
പരിഷ്കരണ
##കളെക്കുറിച്ച്
വാഹനത്തിന്
മുഴക്കി
അശോകൻ
വിതുമ്പിക്കരഞ്ഞ
ഒഴുകിയെത്തിയത്
പറഞ്ഞിട്ടും
അഴിച്ചു
അപ്പോഴ
ളാ
എന്നതിന്
തിരൂർ
ഗുണഭോക്താക്കള
മിനിട്ട
##ചേര
##ാതിരുന്നത്
കീട
##ലിനു
രണ്ടാമത
കൈയേറ്റ
വളവില്
നന്ദിയോട്
അവനു
മനസ്സിലായി
പതിവു
പ്രതിഷ്ഠ
##ദേ
ശാസ്താ
##മുല
പെൺകുട്ടികളെ
##വണ്ണം
ഇൻസ്റ്റ
പിഴവ
കുരിശ്
സ്ഥാപനങ്ങളെ
ആശങ്കപ്പെടേണ്ട
അശോകന്
മുസ്തഫ
ഫ്ളാറ്റ
ആവർത്തിക്ക
##പിടിച്ചു
മിനിമം
പാമ്പിനെ
സഞ്ചാരികള
സ്പർശ
##ങ്ങളുമ
നടത്താനിരുന്ന
കൂടുതലും
##യിലായി
##ാസന
സമരങ്ങള്
ഫു
മാർഗ
പരാതികൾ
##പാലം
കോൺഗ്രസിന
കിങ്
പെൻഷനേഴ്
വിഷയങ്ങളില്
കൊയ്
ലൈംഗികമായി
രാജേഷ
സംബന്ധിക്കുക
പവിത്ര
സീതാരാമന്
ശു
ഇമെയിലില
ഉന്നതതല
##ുകയാണെങ്കിൽ
പരിഹസിച്ച
പല്ല്
അടിയന്തരമായി
##പൊടി
ഉദ്യോഗസ്ഥന്റെ
രാജൻ
മുസ
ചെയ്യുന്നുണ്ട്
കഥാപാത്രം
##യിലുണ്ടായ
ഭർത്താവിന
##ുകൊണ്ടിരുന്ന
അതിശക്തമായ
രക്ഷിതാവ
##വാക
മാമാങ്ക
അമ്മാ
എല്ലാവരുടെയും
##ിടത്തോളം
പുറപ്പെട
ക്ഷേത്രങ്ങളില്
വനംവകുപ്പ്
ഒഴുകിയ
##ക്കുകയോ
##നഷ്ട
##നോവ
മന്ന
സൈനികർ
സിയെ
നന്ദിയുടെ
കുത്തേറ്റ
ചോദിച്ചും
##പ്പെടേണ്ട
കലാപകാരികൾ
ക്നാനായ
സാമ്രാജ്യത്വ
ക്രിസ്തുമസ്
അരുൺകുമാ
സമയമായി
സഹകരണബാങ്ക
##ുണ്ടായിരുന്നില്ല
യൂണിയന്റെ
രജിസ്റ്ററ
സമരസമിതി
വാർ
##േന്ദ
ഡീല
ഹജ്ജിന
സമത്വ
അറിയപ്പെടുന്നത്
##യിലുണ്ട്
അർഥ
മത്സരങ്ങളും
പാരായണം
കഴിവു
ഒപ്പിട്ടു
അമിതമായി
ബുക്
അവിടത്തെ
മസമിതി
##പറ്റി
ടെസ്റ്റില്
ആന്തമാനില
വിജയാശംസകൾ
##ക്കൈ
ആശുപത്രികളില്
അർഹന
പോയപ്പോള്
സപ്താഹം
ഉയരത്തിൽ
റൺസ
സ്നേഹിച്ച
ചിലവ്
മുര
മെസിയും
##യാണെങ്കിലും
കുരങ്ങന്മാര
##ടിക്കുന്ന
ഭേദഗതിക്കെതിരേ
വരുമെന്ന
മന്ത്രിമാര്
മത്സരാർത്ഥികൾ
കോയമ്പത്തൂരില
തയ്യാര്
സുന്ദരം
ബാലചന്ദ്രനും
നിയമത്തിന്
സമ്മർദ
##റിയാത്ത
ഉടമസ്ഥ
##യാളാണ്
പാനല
##ള്ളൂ
വിളക്ക്
കരസേന
ഉപയോഗിക്കരുത്
##സ്ഥാപിക്കണം
തെര
##ിെൻറ
##െവിടെ
ബാനര്
അപമാനിക്ക
##പ്പാത
വരള
അടിഞ്ഞു
ബാല്യ
##പട്ടിക
പറന്നു
##ശൂന്യ
സൂര്യാതപ
സോഫിയ
വൈഎംസിഎ
കയര
കാഞ്ഞിരപ്പുഴ
സവിശേഷതകള
##ക്ഷേമ
മിഥുനം
##െഴു
##ാഞ്ഞ
നെഞ്ച്
രഘു
ജാതക
ണ്ണമായും
##ിളക്ക
ആരോപണങ്ങൾ
##ില്ലായിരുന്നു
കുവൈത്തില്
ശില്
##ാലെ
##ങ്ങളേയും
##ചര
എംഎൽഎയുടെ
പതിമൂന്ന
കാറ്റും
ഗ്ഗം
##യച്ച
കഴുത്തിൽ
ചിത്രവും
ഡ്രൈ
മോശമായ
ട്രിക്
##രിക്കുന്നു
##തന്ന
എൻഎംസി
എറിഞ്ഞ
##പ്പിള്ള
തിരിച്ചെത്ത
പോസ്റ്ററ
എടുക്കാന്
ബന്ധമുള്ള
മദനി
ഹൃദയാഘാതം
നടപടികളുമായി
സാധ്യമല്ല
##വാക്ക
പേസ്റ്റ്
പരിപാടിക്ക്
ദർശന
##സിന
ഓറ
ആസ്ഥാനമായ
ശാഖാ
പ്രഭയും
കരയില്
ശാസ്ത്രീയമായി
പ്രത്യക്ഷപ്പെട
##ൻ്റ
ശ്രീജിത്
##തുമായി
മുറിച്ച്
നാദാപുരത്ത്
വിയോഗമറിയാതെ
സിനിമാതാരങ്ങളായ
വിൽപന
കിവീസിന്
ചാർജ്
സഹജീവികള
പഴങ്ങളും
ചരിത്രത്തില്
##യല്
ഏറ്റുമുട്ടി
ശിക്ഷാ
ബുദ്ധിമുട്ടിക്ക
##യാണെന്നു
##ോടുകൂടിയ
ബാലഗ്രാ
##മുയര്
സുഹൃത്തും
ദിനാചരണ
അപവാദ
##പ്രീപെയ്ഡ്
കമ്യൂണിസ്റ്റ്
കിണറ്റിൽ
ക്രമസമാധാന
ക്രെയിന
കൊടുവള്ളി
സ്കോർ
ബുംറ
വികാരം
കീഴില
പ്പിന്
ബിൻസ
എറണാകുളത്തെ
വീണ്ടെടുക്ക
മള്
പുതുവര്
അഭിപ്രായങ്ങള
പിഎം
ബംഗാളില്
ജാതകം
##കൃത്യത്തിൽ
കൂട്ടറ
പുറക
തെരുവുവിളക്കുകള
ചാറ്റ
പന്തളം
സാക്ഷ്യ
ഒന്നാംസ്ഥാനം
മിനുട്ട
ഉളള
##ാർത്ഥം
ട്വീറ്റ
ആകൃതി
ഭോ
ഡ്രൈവ
ഭഗവാൻ
പിറകില
കുടുങ്ങും
ജയിച്ചു
##ഷനുകള
##ഒരു
ഫഹദിന്റെ
പ്രചോദന
##ക്യ
##ക്കായ്
മെച്ച
##പൂർവ്വം
ജീവനക്കാരും
തടയിടാൻ
##ുനിന്ന്
മാതാപിതാക്കള
ലൂക്ക
ഇന്റലിജന്
പേരിലാണ്
പതിനൊന്ന്
കോച്ച്
സെന്ററില്
പ്രവർത്തകരോട
കടി
ഡ്രോണ
##വാൾ
നയങ്ങൾ
##കോള
സൗകര്യമൊരുക്കി
സന്ദർശനത്തിൽ
ഗാലറി
##ടിസി
##പ്രസ്ഥാന
ലക്ഷദ്വീപ
നൂറോളം
ഉൾപ്പെട്ട
##ച്ചെലവ
കറങ്ങ
##കര്യ
ഗതാഗതക്കുരുക്ക്
കൊടുങ്കാറ്റ
മുറ്റത്ത്
വിഷയങ്ങളിൽ
കാത്തിരിപ്പിന്
രംഗത്തെത്തി
നിർത്തിയിട്ട
##ാഭരണ
പഞ്ചായത്തു
വഴിയാണ്
##ുറപ്പിച്ച
ചാമ്പ്യന്മാരായ
ട്രം
പക്ഷാഘാതം
കുണ്ടംകുഴി
മണല
മൊറാലി
വസ്തുക്കൾ
##െതിര്
വിദ്യാലയം
നിന്നെത്തി
##യിച്ച
ശത്രുക്കള
ജീവിച്ചിരുന്ന
##ഭീതി
വഴങ്ങി
തിരിച്ചറിയാം
സ്ഥലങ്ങളിൽ
ക്കാറിന
ശ്രദ്ധിക്കൂ
തയ്യാറായ
##മുഴ
ബോട്ടുകള്
മാറ്റമില്ലാതെ
##കാരിയെ
പഠിക്കാം
രോഗപ്രതിരോധ
സബർമതി
ക്രമീകരിക്ക
ക്ഷീരകര്
##മുക്ക
പ്രഭു
##ണമെന്നില്ല
##ക്കെല്ലാം
ഭാഗങ്ങളിൽ
##േവ
ഡിഎംകെ
പതിനാല
##തെങ്കില്
##വിശ്വാസ
കാലഘട്ടത്തില
വാഫി
വാഹനത്തില്
തൃക്കരിപ്പൂരില
ശ്രദ്ധയില്
ശേഷമേ
വയോധികന്
ലയണ്
കോവിഡ്
സീരിയല്
ജംഷീലയുടെ
പ്രീഡിഗ്രി
ബ്രെക്സിറ്റ
റിമാൻഡ്
കാന്തല്ലൂരിൽ
ടിപ്പര്
കോച്ചിംഗ്
വിഷാദ
ഫോട്ടോയെടുക്ക
##യ്ക്കാൻ
##നടി
അപ്പോ
ചുമ്മാ
മാലിന്യങ്ങൾ
##വെട്ട
കുറ്റകൃത്യ
ഗജ
മിനുക്ക
##പെടുത്തി
ഹോര്
##മുണ്ടാക്കി
ട്രോൾ
ട്ടിയില്
പ്രേം
അടക്കമുള്ളവർ
##ിൽനിന്നും
##മുറ്റ
സജീവമായ
അഭിനന്ദിച്ച
അന്തർ
##ിയേറ്റ്
##ക്കെതിരെയുള്ള
##നിക്ക്
ഷായെ
പരിശോധനയും
##രിഞ്ഞ
ആശങ്കയകറ്റാ
സ്പെഷ്യൽ
ഹിരോഷിമ
ബൈക്കുകൾ
നാടുകടത്ത
##ക്കൊടുത്ത
##മസ്
കുഞ്ച
അഭയാര്
ഭീകരര്
നഗരസഭയിൽ
##ിങ്ങനെ
ഒരോ
കൈത്താങ്ങായി
കുളിമുറി
പ്രസ
അണ്
തുറക്കുന്നു
എയ്
ഇവിടത്തെ
ന്നുവീണു
പിൻവലിക്കണമെന്ന
##പുറത്ത
ഓർഡർ
ഒരിടത്തും
അയോധ്യയിലെ
വന്നപ്പോള്
ക്കഥ
##പ്രസാദ
ഒറ്റപ്പെട്ടു
വിടവാങ്ങി
##പ്പിക്കാൻ
ഒളിപ്പിച്ച
കള്ളം
##റിങ്
##യാട
ഗവേഷക
ഒരുക്കിയത്
##ജില്ല
കഴിയുക
ആരോഗ്യപ്രശ്ന
രേഖകളും
വരൂ
സ്വിച്ച
ക്ഷേത്രങ്ങള
##മെൻറ്
ലൈവ
കരുനാഗപ്പള്ളി
ചന്ദ്രശേഖർ
ചെമ്പഴന്തി
പെരുമാറ്റച്ചട്ട
സ്കോളർഷിപ്പിന്
ളി
അനുഭവങ്ങള്
അക്രമികൾ
രോഗബാധിതര
കാട്ടിക്കൊടുക്ക
അക്കാഡമി
സർക്കാരാണ്
അമർ
ഉദാഹരണത്തിന്
ചോദ്യങ്ങളും
##വരുമ
തുള
വ്യക്തികള്
ഗുരുനിന്ദ
നാമം
##പ്രായ
പാന്റ
ഇല്ലെങ്കിൽ
ബിഹാറ
പോലീസിലെ
##െതിരായ
ഞെട്ടിച്ച
രൂപയിൽ
നൂറ്റാണ്ടിൽ
##മരണ
ഇടിമിന്നല
ഇമ്രാൻ
ഒരുപക്ഷേ
അതിജീവിക്ക
മിസൈല്
##ധാരണ
നാലുപേർ
പള്ളിച്ചല
മുത്തങ്ങ
##മെടുക്ക
സമ്മർദ്ദ
വിയര്
റോജ
ഇവയാണ്
##ബ്ദ
ഗ്രൂപ്പിന്
##വികസിപ്പിക്കുവാൻ
##കൂദാശ
ഭട്ട
വാര്യരുടെ
വലതുപക്ഷ
പിന്നണി
എന്നിവിടങ്ങളില
നിരീക്ഷണം
സാഹിത്യോത്സവം
ഇറാഖ
ഭക്ഷിക്കുന്ന
##ിനാ
##യ്ക്കെതിരേ
പ്രതിഷേധക്കാര്
നിഗ
കഴിഞ്ഞിരുന്ന
ത്തകന
##നാഥൻ
ലഭിക്കുമെന്ന
ഓഫീസേഴ്
കത്തീഡ്രല
തൈകള്
സുരക്ഷിതമായ
സ്തോത്രം
ഷഡ്
##ലൈന
##ക്കുളത്ത
കണ്ടുമുട്ട
കനാല
മങ്ക
##ശോ
അവിശ്വാസ
സൂചിക
ത്ഥാടകര്
സിഇഒ
ഫാസിസ്റ്റ്
പ്രേരിപ്പിക്ക
പദങ്ങളും
സുഹൃത്തിനെ
മഴയും
ശനങ്ങള്
ഉപയോക്താവിന്റെ
##ിംഗും
ഗെയ്
വേര
ബന്ധപ്പെടാനുള്ള
കാരത്തിന്
വരുമാനമുള്ള
പ്രതിവിധി
##ക്കൊടുക്ക
ഗിരി
ജ്ജ്
മുടങ്ങ
ശ്വാസ
കൈയിൽ
##ക്കൊടി
പ്രയോഗിച്ച
മുസ്ലീങ്ങള
##യുമുള്ള
പത്താംക്ലാസ്
വിദ്യാർത്ഥികളെ
കൂട്ടുകാർ
പഠിക്കാൻ
പ്രിയം
ഇതും
കളക്
##വടി
റഫ്
ടോപ്പ
തെയ്യ
മിഡ്
ജീവിച്ചു
പദ്മ
ദീപം
തെറ്റും
നിന്ദ
##മുള്ളവര്
ഫയല്
പറയേണ്ട
##പ്രസ
ഉണ്ടായിരുന്നത്
മണൽ
##ണ്ണികളെന്തെല്ലാം
പോപ്പുലര്
##റ്റേഡിയത്തിൽ
##കടന്ന
സൈറ്റായ
ഓഡിറ്റ
##േറ്റർ
എതിരേ
ഷൂ
കാണാനില്ല
മ്മിത
ചരക്കു
##പ്പെ
അങ്ങേയറ്റം
മുനിസിപ്പല്
ജവഹര്
ബസ്സില്
കല്ല്യാണ
##ശിക്ഷ
ഫുള്
##െല്ലാ
##കൊന്ന
അരക്കെട്ട
ചെല്
പ്രണയദിന
ഹൗസിലെ
ഗ്രൂപ്പിന്റെ
പൊതുവെ
തലവനായ
ശങ്കര്
പ്രതികൂല
മുന്പ്
തേജസ്
##പുരസ്
ഇംഗ്ലീഷില
ഓസ്ട്രേലിയയെ
കണ്ണില്
അവൾക്ക്
അന്ത്യം
കോട്ടയത്ത
പ്രവർത്തനങ്ങള
സമാഹാര
ഫ്രണ്ട
ദീ
നയിക്കും
##ക്കച്ചവട
നേതൃത്വത്തില
ഒന്പത
##യാണല്ലോ
പ്രവർത്തിപ്പി
വിശദാംശങ്ങള
നിന്നോ
ഫൈസലിന്റ
ബ്രദേഴ്
നൂറുമേനി
ശതമാനത്തോളം
വക്താവ്
##നോടു
പാമ്പു
മടങ്ങുന്ന
ഒതുങ്ങ
വായിച്ചും
ഗ്രാമിന്
##യുണ്ടാകും
##പഥ
കൊട്ടാരം
##തിരേ
പടർന്നു
വിനോദിന്റെ
##ലഭ
ശരിയല്ല
ചൂണ്ട
ബെന്നി
മിത്ര
എന്നല്ല
ചിന്നന
പാരിപ്പള്ളി
ഉപയോഗശൂന്യമായ
വിശ്വാസ്യത
പ്പിക്കുന്ന
മുഖത്തെ
മെല്
മുതലുള്ള
##കളഞ്ഞ
ചുവടെ
##മീര
അടിച്ചമ
ഉദ്ഘാടനത്തിന
കുന്ത
അൺ
പങ്കെടുക്കാന
ചുരുണ്ട
സംഘടനകൾ
##ാവുകയും
##പുലർത്ത
ലോക്സഭ
ചിറ്റാര
വിലക്കയറ്റ
വികസനസമിതി
സലാം
##മിക്
##മ്പുഴ
##ത്തിനിടയില്
അറസ്റ്റിലായി
കിയില്ല
പ്രണയത്തിന്റെ
നീങ്ങിയ
##തിലുള്ള
അടുത്തുള്ള
##േറ്റീവ്
പാർവ്വതി
പോസ്റ്റോഫീസ
ലക്കങ്ങൾ
അകല
ഇംഗ്ലണ്ടില്
##റ്റൈ
ഉത്തരവാദി
പുത്രൻ
നഷ്ടത്തില്
വോട്ടുകള്
വളപ്പില്
ബാറ്റിംഗ
##യുണ്ടായിരുന്ന
യൂറോപ്പിൽ
പരിക്കേറ്റവര
പതിഞ്ഞ
പാവപ്പെട്ടവര
മുന്നിലെത്ത
ഷാജു
പ്രധാനമന്ത്രിയെ
കൊങ്കൺ
കൊൽക്കത്ത
താമരശ്ശേരി
##സ്തംഭ
ദേഹത്ത്
##ത്താല
പഠിപ്പിച്ചത്
കുമാറിനെതിരെ
അനുഭവപ്പെടുന്ന
കുടുംബാരോഗ്യ
നിൻ
ഫോണിലും
എഡിറ്ററും
പ്രവാസിയായ
എഴുതിത്തള്ള
കോഡൂ
##െങ്കിലുമ
ശ്രീനാരായണഗുരു
കുടിച്ചാല്
മോഹൻലാലിന്റെ
നിർദ്ദേശിച്ച
രാധാകൃഷ്ണൻ
രാജ്യങ്ങളും
ലമെന്റില്
ലളിതം
എളുപ്പത്തില്
##വയ്ക്കുന്ന
തെക്കന്
ആഗ്ര
കഥയാണ്
വാന്
ബാലൻ
##മദ
##തിരിഞ്ഞ
##നിയന്ത്രണ
കേണ്ട
കലാഭവൻ
##മുള്ളത്
ഫേസ്ബുക്കിൽ
എബി
സിറ്റിങ്
വഴിവിട്ട
പദ്ധതിയെ
പോലിസ
കോളജില്
കാഞ്ഞങ്ങാട്ട്
കാലിക്കടവ
അടിച്ചത്
ഉയർത്തിയ
മദ
മറയ്ക്ക
##മുന്നില്
##മുണ്ടാകുന്ന
എത്തിക്കുന്ന
ഉറങ്ങി
സംഗീതവും
ഒത്തുകൂട
താജ്മഹൽ
പാരസൈറ്റ്
വരവേൽക്കാൻ
വുഹാനിൽ
സ്ഥാനവും
തയാറാക
ഏതാണ്
റിയാസ്
ഷോപ്പിംഗ്
അപാകത
മേശ
കഴിയ്ക്ക
കുറ്റപ്പെടുത്ത
പുല്ലു
ആഫ്രിക്ക
##രുള
ജോർജ
##സ്ററ
##സസ്
##ത്തിനെത്തിയ
കണ്ടുപിടിച്ച
നിലവാര
കഠിനമായ
പ്രചോദനം
പാലും
സുവർണ
പാളയത്ത
പണിമുടക്ക
ഉപയോഗപ്പെടുത്ത
ഗ്രസും
സാംസ
സമുച്ചയം
കൊവിഡ്
ണ്ണായക
ഈയിടെ
നേടാം
ചുരുങ്ങിയ
പ്രയാഗ
ഇവിടം
സിനിമയ്ക്ക്
##ഹാരി
സമീപിച്ചത്
വരികള
##്യത
##റ്റ്സ്
കാരണമാകുന്ന
##ാധ്യാപക
##ക്കുശേഷം
##കേട
റൈറ്റ്
കരുതൽ
ചാനലുകള
താരങ്ങളെ
ചേരും
ചരിഞ്ഞു
മല്യ
വീല്
പലയിടത്തും
സുമംഗലി
വള്ളംകളി
സ്ഥലമായ
ഖുറാന
സാൻട്ര
കാവ്യശ്രീ
കറിവേപ്പില
ബഹ
##ംഗം
ആംബുലൻസ്
##ക്കിടന്ന
##വെറി
സഹകരിച്ച
##സേവ
##പീഡന
ഗംഭീര്
ശിവകുമാറിനെതിര
കോസ്റ്റ്
##ന്നും
##മാക്കിയത്
ഉള്ളില്
ബുള്
ഭവനം
രക്ഷപ്പെടാന്
##പ്പെടാത്ത
ബാങ്കുകളില
എന്നേ
കൈവരിച്ച
പന്ന
ഇതില
കൊളീജിയ
പ്രോഡക്റ്റ്
മാർപ്പാപ്പ
ഉന്നാവ്
നിയന്ത്രിച്ച
ഉറങ്ങിക്കിടന്ന
ബിരുദാനന്തര
ത്യാഗ
നോട്ടു
സൈറ്റുകള
അപാര
വരാനിരിക്കുന്ന
പ്രവർത്തകർക്ക്
##തോട്ടങ്ങൾ
ഒന്നിക്കുന്ന
പുത
##മോള
പൊട്ടിച്ചിരി
മങ്കട
തെങ്ങിന്
ജസ്റ്റിസ
പുരുഷനെ
സംസ്ഥാനത്തിന്റെ
വീശി
അന്വേഷിച്ച്
##ിനോടും
പൊലീസുകാർ
ഇൗ
ടയർ
മദ്റസകള
ഭീതിയിൽ
നിന്നെത്തിയ
സ്ഥാപനങ്ങളില്
ഒതുക്കി
##നികുതി
പൂഴിക്കുന്ന
സിഐടിയു
ആശങ്കയില്
അഫ്ഗാനിസ്ഥാന
തീപിടുത്തത്ത
കൊമേഴ്
ലാമ
മാർക്ക
പിറവി
##ഡീസ
##ീസര
അന്വേഷിക്കാൻ
ഡോക്ടർമാരും
ട്രെയിനിംഗ്
വ്യാഴം
വിധേയമാക്ക
തീപിടിച്ച
അംഗങ്ങളും
നടപടിക്രമങ്ങള
ദിവസേന
അനന്തമായി
സ്ഥലങ്ങളില
##ന്വേഷണ
കോമ്പ
കൃഷിയില്
##ക്കിളി
സ്മാരകം
തെളിയിച്ചു
പക്ഷാചരണ
പേജിൽ
പറയാനുള്ള
##ഓപ്പറേറ്റീവ
ആഗ്രഹിക്കുന്നത്
തടയുന്നതിന
ഫോസ
##ിട്ടുണ്ടെന്ന
റിലയന്
സ്യൂമര്
സുധീര്
വമ്പിച്ച
താറാവ
സീറ്റില്
എന്നിവയിൽ
കരാറില്
എന്നെയെടുക്ക
വടക്ക
ഇസ്ലാമ
ക്കിങ്
##ത്തിനെതിരേ
##ിക്കുന്നവര്
വിളമ്പ
കീറി
കടന്നുവര
ക്യാൻസർ
അമേരിക്കയെ
മാറ്റണം
##മ്പാടി
പ്രീമിയര്
ഖസാക്ക
ബഹ്റൈന്
അനുയോജ്യ
റിസർച്ച്
##ൂം
വയസ്സുകാരിയെ
ലേഖനങ്ങളും
ചതുരശ്ര
തീർന്ന
ആരംഭിച്ച്
മസി
ആസൂത്രണം
##െന്നോ
ചൂടുവെള്ള
##ുപയോഗിച്ച
ചുറ്റുമുള്ള
പ്രദേശ്
പെടുന്ന
##േണ്ടിയിരുന്ന
ശാക്തീകരണ
വനപാലകർ
വെടിവച്ചു
##ാകില്ല
വകുപ്പിലെ
സൽ
##ിക്കുന്നുണ്ട്
##ന്തോ
##പോകുന്ന
കൊടിയേറും
സുസ്ഥിര
സപ്പോർട്ട്
പീപ്പിള്
പന്മന
രാമായണം
ഉദ്യോഗാര്
സിഗ്നല
ബെഡ്
മാറാന്
പക്രു
ഞെട്ടും
##തൊഴിലാളി
മറഞ്ഞ
കിട്ടാന്
കനാൽ
നടത്തിയിരുന്നു
പാദത്തില
##ങ്ങളൊന്നും
ഭാഗങ്ങളില്
സുരക്ഷിതം
ടിക്ക്
സാധിക്കില്ല
തെലങ്കാന
ചന്ദ്രഗ്രഹണം
പ്രത്യാഘാത
ശിബിരങ്ങ
##പത്തി
ഒബാമ
ഗ്രാന്റ്
യാത്രാമൊഴി
##ത്തിലെത്തി
പറേഷന്
മഞ്ഞൾ
ഹലോ
ഭവനപദ്ധതി
##ത്യം
ഉയർത്തുന്ന
സംസ്ഥാനങ്ങളില്
രക്ഷാപ്രവ
വിദ്യാർഥികളുടെ
##ഗൃഹ
മാനസ
##ബുക്ക
##ാറ്
ചാട
റഹ്മ
എത്തിച്ചപ്പോൾ
##ത്തിലധികം
വളർത്തു
മൂസാ
ജം
##ദോ
രാത്രികാല
ഘകാല
വേലി
അകറ്റ
ഭൂപട
പോലീസും
പൂന്തുറ
വിജയക്കുതിപ്പ
നഴ്സുമാര്
അണ്ണൻ
ഡ്രോയിഡ
##ിനടുത്ത്
ക്സിം
സമവായ
പൊതുവെയുള്ള
##എന്നറിയപ്പെടുന്ന
പൊളിച്ച്
##സ്സു
കോസ്
ഉപ്പള
നിറയ്ക്കുന്ന
വൈദികര
അനായാസ
മതത്തിന്റെ
സൃഷ്ടിച്ച്
അഹങ്കാര
കൊണ്ടുപോയ
##കിടന്ന
ഭാര്യയായി
നഷ്ടമായെങ്കി
##ിയില്ലാതെ
നൊമ്പര
##തെറ്റിദ്ധാരണാജനക
താളിയോല
നിർദേശിച്ച
കരാട്ടെ
കുടുംബങ്ങൾക്ക്
ഉന്നയിക്കുന്ന
കലക്കി
വൈകുന്നു
ബോസില്
##ക്കൂട്ടായ്മ
##ൂണി
ടീമിലെ
ശ്രീമതി
ഭീഷണിയുമായി
##ക്കാള്
രാജ്യങ്ങളിലേക്ക
വിഷയങ്ങൾ
രചനകള
അറയ്ക്കലിന്
പുലർത്തുന്ന
ഓഹരികൾ
രേഖപ്പെടുത്തുക
ഇരകളായ
ജോലിയിൽ
ബേസി
##ർത്തു
താരത്തെ
കൊറോണാവൈറസ
ജിനിയറിങ്
മനംനൊന്ത്
പരിയാരം
വധഭീഷണി
ജീവചരിത്രം
ശിക്കാന്
കണ്ടുകെട്ടി
ക്കുകയും
സുകുമാരന്
ഓട്ടോറിക്ഷയും
ധിക്കുന്ന
ശേഖരിച്ചത്
##വിശേഷ
വിത്തു
വിശ്വസിക്കുന്നു
ത്തിക്കും
##പുറം
##ക്ഷോഭ
രത്ന
##അമ്പരപ്പിക്കുന്ന
പ്രവേശനത്തിന്
സ്പീക്കറ
പ്രാപിച്ച
നിലയിലാണ്
ശേഖരണ
തനിക്കു
ദുർബല
ഇല്ലായ്മ
കുഴിയിലേക്ക
##പ്രധാന
പുഞ്ച
പാറ്റ
പോയിരുന്നു
##വകുപ്പ
സ്വന്തമാക്കിയത്
ഒഴിവാക്കാന
ബേക്ക
ദീന
ക്ഷേത്രങ്ങൾ
പാത്രിയ
സീമ
വിട്ടുകൊടുക്ക
മുൻനിര
മഴയില്
അയ്യൻ
നീളം
ഡ്രാഗണ്
രാജമൗലി
പ്രഗ
ഹാഷിഷ
##വിറ്റ
നിർമാതാക്കളുടെ
##തിരു
സലര്
ആർഎസ്എസ
##ാനുഭവ
##റേയും
##ക്രിയ
##പാർട്ടികൾ
##തിനോ
##രോധ
മരണശേഷം
##േട്ടൻ
കർക്കിടകം
##ക്കുറിപ്പ്
വയർ
തോൽപ്പിച്ച്
മുന്പ
നടുവില
ഉഷ്ണമേഖലാ
സഹയാത്രിക
പിന്തിരിപ്പിക്ക
രാഷ്ട്രീയവും
മഹാകവി
ഓം
ഉപയോക്താവ്
ലോഞ്ച്
എങ്ങും
കെവിന്
രാജ്യങ്ങളുടെ
വർക്ക
ചിത
തോന്നുന്നില്ല
##ുന്നുവെന്ന
ചെന്നാല്
ചുഴലിക്കാറ്റ്
പട്ടം
പിണക്കം
ഗതികേട
അപ്പ്
താമസക്കാര
പാലൂട്ടി
##ഭിപ്രായ
തിലക
വിഷയങ്ങള്
യന്ത്രങ്ങള
കാർത്
നിയമങ്ങളും
ഉപയോഗിക്കാന്
##കൊല്ല
##യെക്കുറിച്ചുള്ള
എസ്എന്
തകരാറിലായ
പൃഥ്വിരാജിനെ
അവകാശങ്ങള്
##കാട്
ഏർപ്പെടുത്തി
##ഭാസ
ബോളിവുഡ
##ക്കാനായി
കിഷോർ
ആർട്സ്
തലയ്ക്കടിച്ച
സിബിസിഐ
##ദാതാവിനെ
##ാനൊരുങ്ങുന്ന
##സമരം
ഒരുക്കുന്നത്
##ഹൈ
ഹസ്
തുണ
കൊടക്കാട്
തിരൂരിലെ
##തിലെ
മകര
ഡബിള്
മൂന്നുപേർ
##ചന്ദ്ര
ഇലക്ട്രിക്ക്
സംഘടനയായ
പതു
അവതാരകന്
ഏറ്റെടുക്കും
പേടിച്ച്
ഭാഗങ്ങളില
കൊറോണാ
റെജി
തിയേറ്ററില്
രാമകൃഷ്ണൻ
##ടത്ത്
##മന്ത്ര
താമസിപ്പിച്ച
##ിരിയ്ക്ക
കൊട
##ായിരിക്കാം
##ഭൂഷണ
അമ്പരന്നു
ഇൻസ്റ്റഗ്രാമ
ഭഗവ
##നിർമ്മാണ
ഭർത്താവ
##ങ്ങളുള്ള
കഴിയില്ലെന്ന
വായനക്കാർ
ജഡ്ജ
സിദ്ധാര്
ബച്ചന
##ക്കില്
കെഡി
പന്ത്രണ്ട
ബാഴ്സ
ഇന്ത്യക്കാരന്
##പ്പെടുത്താന്
ഇരുവര
അഖാ
പ്രമുഖർ
ഖാന്റെ
##യിര
തുറവൂ
വേഗ
സങ്കല്പ
മുസ്ലിങ്ങളെ
##ിപ്പിക്കുന്നു
##ാശുപത്രി
ഇത്രയധികം
പീഡനക്കേസില
കേറി
##ടില്
##ാക്കുന്നത്
ഒഴിവാക്കാം
അഭ്യാസം
അസൂയ
##ത്തിച്ച്
##മാക്കുന്നത്
തൊടാതെ
സഹകരണം
നാറ്റ
നീരജ
ക്യാന്പ്
അയച്ച്
ചൈനയിലേക്ക്
##ക്കൊരുങ്ങി
തീവ്രത
പുള്ളിപ്പുലി
മോഷ്ടാവ്
അളവിൽ
അടിച്ചേല്
ഉപയോഗിക്കാൻ
പ്രവീണ
അപേക്ഷാ
ഒരുപിടി
##സദ്യ
നഗരങ്ങൾ
വോട്ടിങ്
സീസണ
ഷെല്
ക്വാ
ആധിപത്യം
ഇടങ്ങളില
കാഷ്
നായിഡു
പ്രജ
സ്ട്രക്ടര്
##െയിം
ഭൂരിപക്ഷവും
##മെന്റൽ
##ാത്തതിനാൽ
മഹത്വ
യൂണിറ്റുകള
നിറഞ്ഞത്
ലഭിക്കാത്ത
മരുന്നുകള്
ഓണക്കിറ്റുകള
മേജ
ഭരിക്ക
ഓഫീസിലെ
സംസാരം
##രുക
വിളിച്ചും
##ക്ഷമ
##ുവെന്നു
##സ്ഥാപന
പ്രതിച്
ആധികാരിക
രത്
ടോക്കിന്
പരിശോധിക്കും
അധികാരത്തിലെത്ത
എളുപ്പമല്ല
ഗ്രന്ഥം
സ്റ്റീ
ശങ്ക
സഹകരിച്ച്
അംഗീകൃത
അക്ബർ
ചമഞ്ഞ
ഭജന
ദോശ
ആദിവാസികള്
##കൊടുത്തു
ലിബ
വൈദ്യസഹായ
അനുഭവപ്പെട
ചെയ്യുന്നതിനിടെ
ഭഗവതിക്ഷേത്ര
അഭിനന്ദനം
അപമാനം
പോസ്റ്റിൽ
##തിനൊപ്പം
ടെസ്റ്റ
ടർ
ഹാൾ
വാട
പരിശോധനയില്
കസ്റ്റമ
ഡെവലപ്
ടൗൺ
സന്ദർഭ
മാർത്തോമ്മാ
അപലപിച്ച
വയസ്സു
അറസ്റ്റുചെയ്തു
##മാധ്യമങ്ങള
മരണാനന്തര
എമ്മും
##ടെക്
നേപ്പാളില്
കലാമിന്റെ
ഏറ്റെടുക്കുന്നത
തമ്പുരാന്
എഴുത്തുകാരന
വികസനത്തിനായി
മനസ്സിലാക്കാൻ
##റ്റഡ്
വെളിവ
ചിന്തിച്ചു
സബ
തടയണം
പഠിപ്പിക്കാന്
##ുപോകുന്ന
ബലാൽസംഗ
തള്ളിക്കളയ
പുരുഷന്മാർ
പറയുകയും
മിനിറ്റില
##സിനെതിരെ
മോള
അനുഷ്
##ങ്ങളിലാണ്
ബോക്സ
##ങ്കോ
പതിച്ചു
ഒരമ്മ
നഴ്സ്
##കേന്ദ്രങ്ങള
സെമിയില്
##തെങ്കിൽ
##ിയ്ക്കാന
വിഷന്
ഇടപ്പള്ളി
മുക്കി
ഇന്റ
ഗവൺമെന്
അദ്ധ്യാപകര
വോഡ
ഇത്തിക്കരയാറ്റി
കൺവെൻഷൻ
പാരിസ്ഥിതിക
പീഡനക്കേസിൽ
സതീഷ്
യഥാർഥ
##സെറ്റ
തെങ്ങ്
കണ്ടക്ടറും
##രിവാള
എൻസിസി
സന്ദർശിച്ച്
വ്യാപിച്ച
ദനം
കപ്പല
##പര്യ
അപവാദങ്ങളും
കൂപ്പു
തോക്കും
മത്സ്യബന്ധനം
മനസ്സിലാവ
കഥയും
ഉറ്റ
##കാരന്
ഹാമ
ദേഷ്യം
ഇതിനെക്കുറിച്ച
മോഷ്ടാക്കള്
പ്പെടുത്തണം
കൊട്ടി
ഖനന
##വാക്യ
വീശുന്നു
പറയൂ
രാജ്യസഭയില
##മുടി
പ്രകടനവും
ആനക്കൊമ്പ്
ഉരുളക്കിഴങ്ങ്
ഒത്താശ
ദിവസത്തിനകം
നൂറുകണക്കിന്
സീറ്റൊഴിവ
കടിച്ചുകീറി
രിവാളിന്റെ
നിരാഹാരസമരം
ട്ടൂണ്
തൂലിക
പുറത്തേ
പൊതിഞ്ഞ്
മനോജ
##ങ്കോട്
ഗ്ഗീയ
##ുമെങ്കിലും
ആഗ്രഹിക്കുന്നു
അഴിമതിക്കേസ്
നടപ്പിലാക്കിയത്
ബണ്ട്
വിൽപ്പനയില
അപ്പു
പ്രവേശിപ്പിക്ക
##ട്ടീ
സംഭരണി
##ക്യാ
ശരിയോ
വിളയ
ആഭിമുഖ്യ
അമൃത്സറില
സ്റ്റഡീസ്
കൊടകര
ചിക്ക
കൃഷ്ണപിള്ള
##വാദികള
ചേല
വേണ
പൈലറ്റ
പ്രതിനിധികൾ
അവഗണിച്ച്
പരീക്ഷയെഴുതിയത
##ന്നേ
പെരുന്പാവൂര
അച്യുതാനന്ദന്
ഒച്ച
തറക്കല്ലിടും
##ിഷ്ടം
##പുറ
കാരണമെന്ന്
നടുവ
കുട്ടിപ്പോലീസ
പദ്മനാഭ
പിഷാരടി
പീരുമേട്
രാധാകിഷ
ഫ്രൂട്ട്
കാഞ്ഞിരം
പ്പാക്ക
തമിഴ്നാട്ടിൽ
##ിക്കുന്നതിന്
അഭിനയിക്കാൻ
അനീതി
ബൈക്കുകള
അമിത്ഷായും
റെക്കോഡ
ചന്ദ്രശേഖര
ത്തത്
കന്
വിമാനയാത്ര
##ിനടുത്ത
##ത്ഥ
രാഷ്ട്രീയക്കാര
##ത്തിരക്ക
നേരവും
മാസ്റ്റേഴ്സ
തിരഞ്ഞെടുപ്പിന്
സയൻസ
ചികിത്സിക്കാൻ
കലയും
സുരക്ഷക്കായ
##ോടെയാണ്
##വിത
ഭഗത്
വെറുമൊര
##മുണ്ടെന്ന
##ത്തിനടുത്ത
ഒപി
പദ്ധതിയിലൂടെ
ഇനങ്ങള
വിധത്തിൽ
നട്ട്
ശശീന്ദ്രന്
ബിജി
ഇനിയെങ്കിലും
ഇരുണ്ട
പിന്നോട്ട
ഇച്
##ക്ഷത
കപ്പലിൽ
##വരുടെയും
പരം
പന്ത്രണ്ട്
തീരാതെ
ഇടക്കെപ്പോഴ
ഏഴരശനി
പാണാവള്ളി
വർത്തമാന
കർമപദ്ധതി
അഭിമുഖീകരിക്ക
വിറയ്ക്കുന്ന
വാർത്താസമ്മേളന
തീയറ്റ
ദേശീയപാതയിൽ
തൂക്കി
പൂറ
ഓർത്തഡോക്
പെട്ടന്ന്
ക്രൂഡ്
പണിമുടക്കില്
മലിനജല
##നേതാവ
വിലയിരുത്തല്
##ാനാവും
തൊഴ
റൈന
##േഴ
ടീച്ചേഴ്സ്
##വതി
ഘടകം
ലഭ്യത
പരമേശ്വര
##വ്യവസ്ഥിതി
വിവാദങ്ങള്
മത്തി
ഡിജിപിയുടെ
പഠനത്തിനു
ഗ്രാമങ്ങള്
നിയമലംഘനം
കാഴ്ചകള്
##ലർ
തൂക്കം
കേവല
കാര്യങ്ങളില്
ഫ്ലാറ്റ്
കുവൈത്തിൽ
ഖുശ്ബു
നങ്ങ്യാർകൂത്ത്
പത്തുപേര്
നോമ്പുകാല
##വസ്ത്ര
ടീമിന
##ീയം
സാമന്ത
##പ്പിടിക്ക
വ്യാപിക്കുന്നു
മലിന
നിയമവിരുദ്ധമ
വഴികാട്ടി
ഫാസില
അറിവിന
വിമോചന
മുലകൾ
തോക്ക
##യുണ്ടായിരുന്നു
പോലെയാണ്
വേനൽക്കാല
പ്രയോജനം
സുകുമാരൻ
കത്തുന്ന
ബ്ലോഗര്
കോർട്ട
എത്തിയില്ല
##ഖ്യാ
##പങ്കാളിത്തത്തോടെ
സഹോദരന്റെ
കുറയും
സാമ്യ
അഷ്ട
പ്രഖ്യാപനമായി
ശക്തനായ
ഉണ്ടാവുന്നത്
പ്രിൻസ
ജാക്
വിതുമ്പുന്നു
പങ്കെടുക്കുവാന
കലാപബാധിത
കുരുന്നുകൾ
##ക്കുന്നതിനിടെ
##സമീപ
ആയിരങ്ങൾ
കുളിക്ക
##േഡ്
നിക്ഷേപിച്ച
സംഘർഷത്തിൽ
##തൃപ്ത
കൂടിവരികയാണ്
ക്കിടക
ബാല്യം
ഉടന
പരിധിയിലെ
തിരുത്തൽ
ദീക്ഷിത
കള്ളന്
ഹേമ
ഭക്തിയെ
നിറയ്ക്ക
ത്തിച്ച്
##ണിന്റെ
##ക്കാറ
രി
ആനയെ
സുന്ദറിന്റ
റോഡുകളുടെ
ഒാ
കണ്ടെത്താം
കടന്നുപോയ
മാഞ്ചസ്റ്റർ
മുങ്ങിമരിച്ചു
അനവധി
നിയോ
ഉല്പന്ന
ഞാനിപ്പോഴു
##മെത്ത
പോരാളി
പിരിഞ്ഞ
മൂന്നാര്
ആത്മഹത്യയ്ക്ക്
ഫോടന
##ലുകള
ഉണ്ടാക്കുന്നത്
##സിംഗ്
##ടയ്ക്ക
അധികൃതരുടെ
ഫലങ്ങൾ
##ഡിംഗ്
രോഷം
വ്യക്തിത്വം
പതിനെട്ട്
തത്ത്വ
സികള്
നിരക്കുകള്
ലാവ
കയറാന്
##മെൻ
##സേവന
##ക്കേറ്റ
പകർപ്പവകാശം
കൊട്ടിഘോഷിച്ചു
നയന്
അറസ്
##ശിഷ്ട
തുല്യമായ
ലിമിറ്റഡ
ഉപ്പ്
ആക്രോശിച്ച
മഞ്ച
##വിജയം
അവസ്ഥയാണ്
ബോധ്യപ്പെടുത്ത
വാസി
##ത്തുറ
പ്രതിനിധികള്
പോസ്റ്റിട്ട
ഭായ്
##രുടെയും
ഐഫോണ്
റേസ
ഷിബു
മൃഗസംരക്ഷണ
ഹൃദ്രോഗമുണ്ട
ജീവനക്കാരൻ
##ഹാന
##ഗന്ധ
വിവരിച്ച
##ഭാരത
അടിസ്ഥാനം
രു
##ദ്യോഗികമായി
##പൊട്ടി
നാനാ
ചെറുത
സേനാ
##ുവെങ്കിൽ
അപ്പുറത്ത
##ുയര്
റാങ്കിംഗ
ഷോട്ടിന
വിഷയങ്ങള
##പന്ന
പൂക്കോട്ടുംപാട
സസ്പെൻഷൻ
കുഴഞ്ഞുവീണ്
ആശ്രയിക്ക
സംഘട
വിളഞ്ഞ
മുളകു
##വാരി
ഓണേഴ്
മില്ലി
##ക്കിടയിലും
പഠനത്തിന്
യായി
ട്രെ
ശശികല
വയനാടിന
വളഞ്ഞ
മുതലാളിമാര
ജിത
അതിര
ഒമ്പത
വർഷവും
വീട്ടിലിരുന്ന
##കിട്ടി
ആർക്കൈവ്
താൽക്കാലിക
നിയോജകമണ്ഡലം
താപ
പ്രാധാന്യമുള്ള
##കരമാണ്
##ദുരന്ത
ചെയുന്നത്
ആശുപത്രിയുടെ
മിസ്സ്
##ബാഗ
കുരുങ്ങി
മത്സരിക്കുന്നു
എങ്ങനെയുണ്ടെന്ന
ഗവേഷകർ
##ക്കിനെ
ഫ്യൂ
ത്ഥിക്ക്
പൂർത്തിയാക
##ക്കൊണ്ടിരുന്ന
ആൽഫ
വിളിക്കുന്നു
##കർഷക
നിർമ്മാതാവ
ഡൗൺലോഡ്
ജംഗ്ഷനിലെ
സർജറി
ജീവിച്ചിരിക്ക
ചാർജ
നാഥാ
ട്ടിക്ക്
ആയാലും
##കൂടാ
ചാമ്പ്യൻ
ഖനനം
കുന്നത്തുകാല്
വൈറലാകുന്ന
ആത്മാര്
ലോക്കല
പുറപ്പെടുവിച്ചു
##േക്കില്ല
തെളിയ
കേന്ദ്രസർക്കാര
##കഥാപാത്രത്തിലൂടെ
ആഘോഷമാക്കി
ആസൂത്രണ
മാധ്യമങ്ങളെ
താളിന്റെ
കാലുകള്
അതിനുശേഷം
എടുത്തത്
കെജ്രിവാളിന്
തീവ്രവാദികള
മനസിലാക്കുന്നതാ
കഴിക്കുന്നത
ആറന്മുള
മുന്നൊരുക്ക
ആരാധിച്ച
ഉറൂസ്
ബിനാമി
സുരക്ഷിതമാണോ
പ്രസിഡന്റിനെ
അടുത്തേക്ക്
കൃഷിയിറക്ക
റായ്
##ുടേതു
ക്രിപ്റ്റോ
##ാവട്ടെ
മുന്നാട്
ബ്രിട്ടാസ
അച്ചടക്ക
നേതാവായ
മലയാ
ആരോപിക്ക
കണ്ണീര്
മാഗ്
മാണിക്ക
ഇനിയുള്ള
നിലനിർത്താൻ
ജസ്റ്റിന്
ഗീതാ
വിവാഹമോചന
യൂണി
##തൊന്നും
കോർപറേഷന
തെയ്യംകെട്ട
സംപ്രേഷണം
ഒറ്റപ്പാലം
ബഡ്ജറ്റ
ഗുണകരമ
അനുജനെ
ആത്മന
കാൽനട
പ്രസിൽ
ദാഹ
തരാമെന്ന്
കുശ
ഇക്കാര്യങ്ങൾ
പിന്തുണയും
നീക്കങ്ങൾ
നിക്ഷിപ്തം
##ക്കുട്ടന
##പ്രവർത്തക
വിനോദം
ലയിച്ചു
പാലക്കാട്ടെ
ഫയലുകള
##േഷ്യ
##പ്രയോഗ
ആരോപിച്ച
അവസരങ്ങള
ബാങ്കുകളുടെ
വിദ്യാനഗര്
ബ്രോഡ്ബാന്
##ക്കാവുന്ന
##മേനോന
പരിഭവ
രണ്ടുപേരെ
ഹാൻഡ്
##വേഗ
ട്ടോ
കർഷകരും
ഗ്രസിന
ഇന്റർനാഷണൽ
##മാണെങ്കിലും
പിള്ളയെ
ഷര്
##പ്പോലുള്ള
ആണെങ്കിലും
അജ്
ചാട്ടവും
ഡിസ്ക
അള്
##യിലുള്ളത്
കണ്ടന്റുക
##െന്നായിരുന്നു
പൊയ്
മാത്രമായ
ഷെയ്
ജില്ലയുടെ
ക്യൂബ
തേങ്ങാ
ഇനം
##ടഞ്ഞ
കൃത്യം
എത്തിക്കാന്
മനസ്സിലാക്കിയത്
സൈനികര്
കളർ
ചൂടിന്റെ
തെളി
തപാല
സിലിണ്ട
ജാപ്പനീസ്
യാത്രാദുരിതം
പളളി
സിറോ
ഉദാ
കിറ്റ്
മുഹൂര്
അക്കൗണ്ടുകള
ശൂ
##ഫൈവ്
##വേണം
##സെന്
എത്തിക്കുക
കാട്ടുന്ന
ലഭ്യമാക്കിയ
പ്രകാശന
കഴിഞ്ഞദിവസം
രജിത്ത്
വിശകലന
അപൂർവ്വമായി
വാഴവളപ്പ
സർവ്വകലാശാല
വർദ്ധിച്ച
കള്ളവോട്ട
വിശ്വഹിന്ദു
തടസ്സപ്പെടുത്ത
ഫഹദ
മാനി
##ധർമ്മ
പുരുഷനും
##മാന്ദ്യ
വിവരശേഖരണം
മുഖത്തു
തുടക്കത്തില്
ഭൂമിയെ
സേതു
ചുവ
നനഞ്ഞ
സങ്കല്
മ്മത്തിന്
പഠിപ്പിക്കുന്ന
വനപാലകര്
ക്കിംഗ്
ഒളിവില്
അപലപനീയം
മാറാൻ
ശ്രീനിവാസന്
ആവേശമായി
നോക്കണം
##ലേഖ
##കണ്ണ
##ങ്ങളുടേയും
ഫ്രെ
പിന്ന
തീരാ
കുസൃതി
തിരുവിതാംകൂർ
നിലകൊള്ളുന്ന
##വൂർ
ക്കിട
അവശേഷിക്കുന്ന
എങ്ങോട്ട്
സുരക്ഷാസേന
തത്ത
##ലുകളും
സന്ദർശിച്ച
മീറ്ററ
ഭിന്നശേഷി
തവള
ഇരുന്നൂറ
വേഷത്തില്
മലയാളിയെ
##സമയത്ത
തെക്ക്
പതിനായിരം
മുന്തിരി
ഇടപെട്ട്
കോലിയുടെ
ഡോര്
വെടിവച്ച
നേട്ടവും
അഡീഷണല
##ന്റേയും
വൈദികൻ
കുല്
ചെയ്യുവാന
പിരിഞ്ഞു
ഡിസ
##ദേവി
##പാദന
യെദ്യൂരപ്പ
ഏകോപനസമിതി
അമ്മയേയും
ഓർഡ
ബാധിക്കില്ല
സർവ്വീസ്
ലക്ഷണങ്ങള്
##നെന്ന
വീട്ടുമുറ്റത്ത്
റൂട്ടിലൂടെ
രാജകുടുംബത്ത
ഥിയെ
സെൻസ
എന്നിവിടങ്ങളില്
ഉപയോഗിച്ചാണ്
യാത്രയ്ക്കിടെ
##ല്ലെ
ചിത്രപ്രദ
##ഗ്രി
##ഷ്യൻ
##ാർഡ
##നടന്ന
രംഗത്തു
ആദ്യമായാണ്
കളരി
##ഭൂമിയുടേതല്ല
മുകുന്ദ
വർധിക്ക
സിപിഎമ്മ
##മായൊരു
മനോഭാവ
പ്പു
##മാധ്യമപ്രവർത്തകൻ
##യുമുണ്ട്
പുത്തിഗെ
പടത്തലവ
ഫാക്ട്
ക്കാനുള്ള
##ത്തിൽനിന്നു
ട്വിറ്ററില്
ഹിമാലയ
##വികാര
##മിത്ര
സഹന
പോളിംഗ്
വോട്ടുകൾ
ഫയർ
ചർച്ച്
മറയാക്കി
മുഹാ
യൂറോപ്പിലെ
എപ്പോഴ
യോഗ്യതയുള്ള
മേജർ
ഗാന്ധിജി
സ്വീകരണത്ത
മറ്റെല്ലാ
കലാകേന്ദ്ര
##നടത്തി
പ്രതികരണങ്ങള്
വിഭാഗീയത
രാജകീയ
##ാഞ്ജലി
ചെമ്മരുതി
##ിരിപ്പ
അക്കൗണ്ടന്റു
രോഗിയുടെ
##സിനോട്
രചനയും
ഓട്ടം
കലാമേള
തൊഴിലും
##ുകൊണ്ടിരുന്നു
##ക്ലാസ്
ഹിന്ദുക്കൾ
ഇടയ്ക്ക്
കാണപ്പെടുക
വിരോധ
ഭവന്
വിശ്രമിച്ച
##യ്ക്കൊപ്പം
നശിച്ചത്
ചെയ്യുന്നതോടെ
ഭീകരനെ
വടക്കന്
ഭാഗമായാണ്
മാധ്യമങ്ങളുടെ
കേട്ടില്ല
ആനയുടെ
പരിശോധിച്ചു
കൂപ്പെ
##നുനേരെ
കൂട്ടബലാത്സംഗ
##കേസില്
അണിനിരന്ന
പതിനഞ്ചു
ചൂണ്ടിക്കാണിക്ക
മണ്ഡപം
രൂപത്തിൽ
##ാരോപണ
##സമാധാനത്തോടെ
ധവാന്
സിമി
##ിങ്ങും
സഖാവ്
പേന
ഡിപി
ബോബി
ക്ഷേത്രോത്സവ
മാസങ്ങൾ
എംഡി
സിഎസ്
കേന്ദ്രത്തെ
അവകാശപ്പെടുന്ന
സ്ഥാപനമായ
##പ്പറമ്പ
അഭിനയിച്ചു
##മായിട്ടാണ്
കമന്റുകള
ഭയപ്പെടുത്താ
സജ്ജമാക്ക
മടക്ക
അതിരാവിലെ
കുരുമുളകു
ചങ്ങാതി
ജർമൻ
ഇവിടെയാണ്
വയറ്റിൽ
##സൈക്കോളജിസ്റ്റായ
സംവദിക്ക
ഒഡിഷ
വുഡ്
മരുമകള
ബ്രി
##ണിഞ്ഞ്
അതിക്രമ
സുഷമ
വാട്സ്ആപ്പ്
പോകാന
##സത്യ
##പീഠ
പ്പണവും
പുറത്തുനിന്ന
##ുവാനായി
സുഹ
സീതാ
ഫുക്രുവ
വാരിക
ഓഫറുകള
അപേക്ഷകൾ
##പെടുന്ന
കേട്ടതും
ഉപവാസം
ഷാഹിന
ഇപ്പോ
കഥയുടെ
##മൊന്ന
ചോക്ലേറ്റ്
റിസോർട്ടുകള
ക്രിസ്തുവിനെ
ക്രൂരമായ
ഭിക്ഷ
പന്തിൽ
ശക്തമാകുന്നു
ഓഫറുകൾ
പലര്
ആൺ
ഷത്തിനുള്ളില്
മഡ്ഡി
പിന്തുടരുന്ന
മനസിലായ
ടോപ്
അയിരൂര്
നേട്ടങ്ങള്
മെത്രാ
അവകാശമില്ല
കിട്ടുന്നു
സെബി
പരിഗണനയില
ഹാർ
##ധീ
റിക്ഷ
##ിരട്ടി
പാനീയം
സംശയമില്ല
വന്നിട്ടുണ്ട്
പ്രഥമാധ്യാപക
നെസ്
അമ്പത
മാതാക്കള
താല്പര്യം
##ത്തിലേയ്ക്ക്
##നത
കാത്തിരിപ്പു
പശ്ചിമഘട്ട
ത്ഥിച്ച
കേക്ക്
എൻജിഒ
വജ്ര
പ്രഭാകര
കൂട്ടത്തിൽ
സ്ക്കൂള
അത്ഭുതം
##ിത്രീകരണത്തിനിടെ
റൺസിന്
റോയിസിന്റെ
നോർക്ക
മെനുവ
നടപ്പിലാക്കിയ
ചെയ്യുന്നവര്
കളിച്ചു
സാഗര
മെത്രാന്
മാസവും
##മാറിയിരിക്കുന്നു
മയക്ക
സഭയിലെ
കോളേജിന്
നവീന
##രത്വ
ചെയ്തതിന്
കുരുത്ത
മണ്ണും
##വുമുണ്ട്
ദേശിച്ച
അണ്ണന
ഒറ്റക്ക
ഓഫീസറ
##ിനുള്ളിലെ
ഇന്ദിരാഗാന്ധി
ശിശുക്ഷേമസമിതി
അത്താണി
പുഷ്പഗിരി
ക്കിടെ
സ്ഥലംമാറ്റം
##കൾക്കിടയിൽ
വിശദീകരിച്ചു
##ിലുണ്ടായിരുന്ന
വിദേശികൾ
##വരായ
ഫൗണ്ടേഷന്റെ
അധ്യായം
വെടിയേറ്റ
സോമന്
പബ്ബ
അടയാളം
യാത്രക്കാർ
മം
സപ്
എവിട
ബാഴ്സലോണ
വെട്ടുകിളി
ഒഴിവായത്
പാർട്ടിയെ
##ത്തുടങ്ങി
കാണികള
രജിത്കുമാർ
സ്ഥലത്തെത്തി
ചിത്രവുമായി
##ൊഴിഞ്ഞ
ദിലീപും
##വല്ലി
അമ്മാവന
വിവാഹിതയായി
പരീക്ഷകള്
##ുകാര
##തള്ള
കോൺഗ്രസും
##വനം
ഏറിയ
##വസ്തു
വിസയ്ക്കു
സുപ്രിം
ശാസ്താംകോട്ട
അഖണ്ഡനാമജപ
അപ്പീൽ
അപേക്ഷിക്കേണ്ട
##ഐക്കാർക്കെതിരെ
ഓർത്തെടുത്ത്
അഭിയാന്
റെയിൽവെ
##ിട്ടുണ്ടെങ്കിലും
ജീവനും
ഉടമകള്
##വസര
അടിപിടി
##ക്കനുസരിച്ച്
ആയുസ്സ
ഷായും
പ്രൊമോ
##മാരുടെയും
നടത്തണമെന്ന്
തൃശൂരില്
അതൊന്നും
സ്റ്റേജ്
മുകളിലൂടെ
ഭൂത
പൊട്ടിക്ക
##കൊണ്ടിരിക്കുന്നു
തൊപ്പിയൂരി
ദമ്പതികൾ
രണ്ടാമൂഴം
ഹിന്ദുമഹാസഭ
കൊണ്ടുവന്നു
##ണെ
ചുരുക്കം
ബൈബിള
മൗന
സ്ഥാപനത്തില
സീരീസ്
പണമിടപാട
ലത
കത്തുന്നു
തെറ്റിയ
ക്രിപ്
വേട്ടയാടി
പരുക്ക
കാത്തിരിപ്പ
വരച്ചു
ശബരിമലയിലെ
പരിമിത
##ിക്കുമ്പോൾ
നടത്തിപ്പ്
സ്വീകരിച്ചത്
പശുവിന്
പാലിക്കണം
മിക്സ
ഗാട്ട
പതിവിലു
##സഹായം
പോക്കറ്റ
##നാണെന്ന്
കൂട്ടരും
അതിക്രമിച്ച
വെടിവെച്ച്
##റുകളുടെ
##പെടുത്ത
ഗ്രാമസഭ
##എൻഎ
##സന്ദര്
##എൻജി
അമ്പരപ്പ്
നെല്ല്
പ്രാചീന
മുഹൂർത്ത
തെരച്ചിൽ
ജ്ഞാനപ്പാന
കുപ്പായ
രിഫാ
അമരവിള
##ങ്കാളി
ഗൈഡ
ചർച്ചയായി
ക്കറ്റ
കൊലപ്പെടുത്തിയത
ആന്റിയുടെ
ആരോഗ്യകരമായ
ഹിൽ
ബ്രിട്ടനിൽ
ക്ലിക്ക
##പ്രവാഹ
തരംഗമായി
സന്പൂർണ
നടപ്പാക്കാന്
രക്ഷാപ്രവർത്തന
ഗാനങ്ങൾ
##ല്ല്യ
സ്ഥലത്തു
കോളേജുകള്
വെബ്സൈറ്റ
അഗതി
കഥക്
##കുമാറിന്
ഉത്തരക്കടലാസ
അഭിസംബോധന
ഈന്തപ്പഴം
സെപ്തംബര്
വട്ടേക്കാട്
അധ്യക്ഷനായ
രക്ഷപ്പെടാൻ
യാത
വിഭജനം
##ത്തട
നിലം
ചിന്തകൾ
ഫെയ്സ്ബുക്ക
##സ്ത്രീ
സിപിഎമ്മിന്റെ
പൂജകൾക്ക
കേശു
സുതാര്യ
ആഷിക്
##സ്വാതന്ത്ര്യ
##ട്ടാണ്
##പരിപാലന
##ിനെയാണ്
ക്രമക്കേടെന്ന്
പൂട്ടിച്ച
##നിമിഷ
വെടിയുണ്ടകളും
ഉടമസ്ഥതയിലുള്ള
സത്യസന്ധത
കോട്ടയത്തുകാര
മക്
ക്ലാര
##ക്രമീകരിക്കുന്നു
അബ്ബാസ്
ട്രഷറര്
മണിക്കൂറുകളോളം
ടെണ്ടർ
വിജയലക്ഷ്യം
നിരൂപക
ഇപ്രകാരം
ജെറോം
പരാജയപ്പെടുത്തി
ജപ്പാന
ഉദ്ദേശിക്കുന്നത
ദേവഗണ
ലെറ്റ
##പ്പെടുത്താൻ
ജീവനെടുത്ത
രാഷ്ട്രീയമുണ്ട്
കലമാൻ
##പ്പറ്റിയുള്ള
വീട്ടിലും
കളങ്ക
പ്രതികരണങ്ങളില്
##ഗ്രീ
##ധേയ
പരിചയപ്പെട
മൂന്നാമത്
ഗ്ഗങ്ങള്
കാശി
എസിൽ
##ചന്ദ്രന്
അവർക്കു
##ുകളിലായി
സംഘി
##വീട്
സമ്മേളനത്തിൽ
അക്രമത്തിന്
##കൃഷ്ണന്
മാസത്തില്
##ഒഎ
##വിവാഹ
കത്തെഴുതി
നാളത്തെ
സൗദിയിലെ
കാറ്റിന
ടോസ്
ടൗണിൽ
പുനരുദ്ധാരണ
നീന്തൽ
പഴി
ചെയ്യാവുന്ന
ഷെയ്ഖ്
സൂര്യൻ
പുരോഗമിക്ക
മാധ്യമങ്ങളും
പരീക്ഷിച്ച
കല്ലേറ
ലണ്ടനില
വാറ
ഗ്രെ
മൈക്ക
##ാനുഭവം
##ജയ
സ്നേഹവും
പരിധിയില്
ഉപകരണം
സഫ
മൺ
നിഷേധിക്കുന്ന
ധീവരസഭ
ന്യൂജേഴ്
മൊമന്റ്
രേഖാചിത്ര
നഗർ
അടുത്തദിവസങ്ങള
ഖസാക്ക്
കൊലപാതകമെന്ന്
ബോട്ടില്
##മാവും
പുരോഹിത
മാനദണ്ഡങ്ങള
സുന്ദരമായ
കണ്ടെത്തുന്ന
നടുക്കിയ
വിരുദ്ധത
##പ്പാദ
##ക്കൊക്കെ
ചാവറ
##വെന്നാണ്
ജയകുമാര്
ഇല്ലെങ്കില്
മതിലുകള
കേന്ദ്രത്തിലെ
പലഹാര
സംഘടനകളും
പലതരം
##യൂസ്
തങ്ങള
നിഷാ
നടക്കുമെന്ന്
പ്രേ
കാര്യത്തിലും
ഇക്കണോമിക്
വ്രതാനുഷ്ഠാന
ഷറപ്പോവ
പ്രയാണത്തിന്
##സാരി
പരന്പര
കുട്ടനാട്ടിൽ
തുടക്കമാകും
##സാണ്
റസ്
അനുവദിക്കണമെന്ന
പുന്നപ്ര
അയക്കുകയു
ധൂർത്ത
വല്ലാര്
ജിമ്മന
##വരൊക്കെ
സുഹൈ
ജറി
വിരല്
ബീഹാറില
ശ്രദ്ധിക്കേണ്ടത
##കാര്യം
ആകുന്ന
കേടായ
സൂക്ഷിക്കുന്ന
ഡാമിന്റ
കാഞ്ഞിര
നിരക്കുകൾ
തിരുപ്പൂര
##പ്പെട്ടിട്ടുണ്ട്
ദക്ഷിണകൊറിയയ
ബംഗാൾ
മിസൈൽ
വീണ്ടുമൊരു
ജനദ്രോഹ
തീരുമാനമെടുത്ത
ത്രിപുര
##വിരല
വയലാർ
##വിടുന്ന
പാകം
യേശുവ
അങ്ങേ
കടപ്പാട്
അനുയായികള
ബിയര്
ഇവരാണ്
മാത്ത
നീക്കത്തിനെതിരെ
കാഴ്ചയാണ്
അലറി
പൂട്ടിയ
കളിച്ച്
##ണമായിരുന്നു
ഉണങ്ങിയ
പാടം
മുടക്കിയ
വിഹിതം
താരമായ
ചികിത്സയ്ക്ക്
##ത്തക്ക
പാക്കിസ്ഥാനില
തിരിച്ചുവരവ്
പേരിട്ട
വരുന്നുണ്ട്
നട്ട
പറത്ത
മാന്ദ്യം
തനിക്കെതിരെ
ജിമ്മി
പ്ലാസ്റ്റിക്ക
കാമുകിക്ക
ഹൊസ്ദു
ഒറ്റത്തവണ
മഴക്കാടുകളില
വളപ്പിൽ
##ുണ്ടായത്
##പ്പാറയില്
##ദായ
ക്വിറ്റ്
രീതിയില
പന്തം
##ഴുത്ത
സൂചനകള്
##ൗട്ട്
##കടവ്
പേറി
ജഡ
തുകയ്ക്ക്
പാലിക്കുന്ന
##വിസിന്റെ
പ്രാർഥനയുടെ
പുലർത്തി
ചുംബനം
കുടില
ആൽബ
മംഗല
##പുല
##വൽക്കരണ
പ്രീണിപ്പിക്ക
പ്രസംഗിക്ക
ജീവചരിത്ര
നിരീശ്വര
##യ്മ
##ലിസ്റ്റ
##യൂട്ട്
തെളിവുകള
പ്രവർത്തകര
കണ്ണടച്ച്
വർഗ്ഗീയ
##മാഹാത്മ്യം
ത്തിയത്
ഫലങ്ങള
വെടിവെച്ച
അരുണ
അനുകൂലമായ
കുറി
##ഡന്റ്
ലൈനിൽ
അഴൂരില
കണ്ണിൽ
##ദീപ്
ബൂത്ത്
##ലോകമെമ്പാടുമുള്ള
##ിനേറ്റ
ഡെസ്
പറ്റിച്ച
ഇയർ
##വർഗ്ഗത്തിലെ
##വർണ്ണ
##ിലേയ്ക്കു
മാംസം
രക്ഷിക്കാന
വൈകും
അപൂർവമായ
ബലം
##ിലേക്കാണ്
സിലിന്
ശ്രി
ശവുമായി
മൗലവി
മതചിഹ്നങ്ങ
സ്പെഷ്യല്
ഭീതിദമായ
തലയോട്ടി
പോസ്റ്റിന്റെ
##സൗ
മംഗല്യ
ഇൻറർ
ഷോപ്പ്
ണിവല
സ്കൂളുകളില
ബോധവല്
ബന്ധന
കല്യോട്ട
##ുമായാണ്
തെളിവു
പറ്റുമോ
##സമ്പര്
ക്യാമ്പും
സാരമായ
പിണറായിയുടെ
പള്ളിയിലെ
##ിന്റേത്
വരവിന
വാശിയ
##ജ്ഞന
ബെർ
ക്യാപ്റ്റന
##ുണ്ടാകുമെന്ന
##മൊന്നുമില്ല
രാജേന്ദ്രൻ
നിരക്കിൽ
കഴിച്ച്
ഏപ്രിലിൽ
നവാദ്വൈത
ദൈനംദിന
വിലമതിക്കുന്ന
രാജസ്ഥാന്
സെക്കന്ററി
##കരെ
മന്ത്രിമാർ
ചർച്ചയാകുമ്പോൾ
അകപ്പെട്ട
##ിയ്ക്കുന്നു
പ്രചരിച്ച
ശ്രമങ്ങള്
ശനത്തിനായി
റിപ്പോർട്ടു
മെസേജുകൾ
കൂന
ജ്യൂസ
ഗുണ്ടകളെ
നോട്ടിഫിക്കേഷന്
ഇഷ്ടമുള്ള
##തിനിടെയാണ്
സാണ്
വല്യ
##പ്പെട്ടിരുന്നു
##ൊട
പ്രദേശില്
കന്യക
##ിരുപ്പ
രോഗിയായ
പിഴച്ച
ഹദീസ
ഇന്ധനം
ഫെസ്റ്റിവല
പിന്നോക്ക
കശുവണ്ടി
ദുൽഖർ
മധ്യതിരുവിതാം
തെങ്ങിൽ
##ിക്കണമെന്ന
മനോരോഗ
##കമ്മീഷന
സർഗക്ഷേത്രയി
അക്കാദമിക്
പോർട്ടോ
ഡബിൾ
രംഗങ്ങൾ
ബ്രാഡ്
റണ്ണ
പ്രൊജക്ട്
##യിടം
തുരുത്ത
പെണ്ണുങ്ങളെ
##ങ്ങളിലുള്ള
വെള്ളനാട്
സെയില
കുന
ഗ്ലാമ
കുളം
ചുമതലപ്പെടുത്തി
പ്രണ
മെഴ്സിഡീസ
സിസോദിയ
എന്താഘോഷമെന്ന
കടയുടമ
##ാക്രമണ
കണക്ഷന്
കാലഘട്ടത്തിൽ
സലഫി
ഇവാങ്ക
##ചികിത്സയിലിരുന്ന
സാരഥി
തിരിഞ്ഞ
ഓടിച്ചു
കൃത്യത
മനസ്സിന്റെ
##തെന്തിന്
വസ്തുക്കള്
കഴിഞ്ഞിട്ട്
ഉണക്ക
##ത്തിലേറെ
സാധ്യതകൾ
അത്യാവശ്യ
തുടങ്ങുന്നത്
യുഎഇയിൽ
നിശാ
നിറച്ചും
വയസ്സിൽ
ഷൊ
ത്തുന്നത്
ലഭിച്ചതായി
ബാരി
ശേ
എമാര്
ക്കാഴ്ച
ഒറ്റയടിക്ക്
കൊടുങ്ങല്ലൂർ
പ്രണാമം
അജാനൂര
സ്ട്രിപ്പ്
തോഴന്
പൊറുക്ക
കണക്കെടുപ്പ
കൗമുദിയുടെ
##യോളം
രമേഷ്
##ക്ഷേപ
##പറയുന്ന
ശാഹീ
##ച്ചുവ
ഇന്ത്യയിലെത്തി
പ്രകൃതിയുടെ
##വികസനം
ഷകദിനം
ഫ്രൈ
അറിയിപ്പുകൾ
അംഗീകരിക്കാൻ
മോളി
##ഷ്ടി
മാണിക്യ
ഇങ്ങോട്ട്
സംശയിക്ക
##പോലുള്ള
കരസ്ഥമാക്കി
തെരുവുനായ്ക്കള
##ുമ്പോള
##ുമ്പോഴേക്കും
പിഎസ്ജി
ഐപിഎസ്
##വസാന
മരുന്നിന്റെ
നിലവാരത്തില
സ്കൂളുകളിൽ
ത്തകന്റെ
##രഹിതമായ
കൊച്ച്
ക്കുവേണ്ടി
##പ്പെടുമെന്ന
ബ്രിട്ടണ
##ബോള
##വിളവെടുപ്പുത്സവം
ആതിഥേയ
പാസ്പോർട്ട്
കാരിത്താസ
അമ്പലമേട്
വ്യത്യസ്ഥ
##പത്മനാഭന്റെ
പ്രാർത്ഥനകൾ
##പ്പോഴേക്കും
മലിനീകരണ
പൊറുതിമുട്ടി
കാലത്തും
തദ്ദേശീയ
ഭയങ്കര
പടക്ക
ബഹള
ഷ്യ
കാപ്
##ുമൊപ്പം
##നെപ്പോലെ
തടവില
യുവകേന്ദ്ര
പീഡനവും
നിൽക്കുന്നു
കാരിയെ
നോളജി
പിടിക്കപ്പെട്ട
വസ്തുക്കളുടെ
ജോസ
പണ്ഡിറ്റുകൾക്ക
ചെണ്ട
ആവശ്യങ്ങൾ
പതിയ
##ചരിത
##ടച്ചു
ബന്ധിപ്പിച്ച
ഭംഗിയായി
പിറ്റേന്ന്
ഫോട്ടോഗ്രാഫി
പ്രമോഷന
ലേഖ
പാർവതി
കഴിവുള്ള
മഴക്കെടുതി
ഗീയത
ഭരതന്
പേരുകള്
ഏതൊക്കെ
താളുകള
ആട്
വിദേശത്തേക്ക്
തീരുമാനിക്കും
സോൺ
ചിന്താ
വാടി
##കൊടുക്കുന്ന
വിളിയും
സിങ്ങ
ലാൻഡ
തോറും
ചോദ്യങ്ങള
##ുകയാണോ
##ലീല
കാലെടുത്ത
തുടച്ചു
ഓവർ
മുഫ്തി
കിളികൾക്ക
സോണ്
കഴിഞ്ഞപ്പോൾ
എൻഡിഎ
അശ്വിന
##കൊണ്ടാണ്
അധിക്ഷേപിച്ച
ക്ഷണ
അക്കൗണ്ടിൽ
നാടായി
വകുപ്പില്
##തുമൂലം
ഇതെന്താ
തെറ്റിച്ച
##ാഭിഷേകം
യൂറോപ്പ്
##മില്ലേ
##സൂചക
ബ്ലോഗ്ഗ
##പ്രവർത്തന
##കളിലേക്കും
സാധ്യ
പച്ചപ്പ
മോനേ
##കളുമാണ്
എഴുന്നേറ്റ്
തയാറാക്കിയ
ജഡേജ
പരമോന്നത
തിരക്കഥാകൃത്ത
ഒന്നരവയസ്സുകാര
ജലീൽ
വളണ്ടിയ
ഭയാനക
ബോധവൽക്കരണ
വിദൂര
വസ്തുതകൾ
നിശ്ചല
മൂന്നും
എടിഎമ്മുകളിൽ
തെളിവായി
സഹായിക്കാൻ
കഴിക്കുക
കാറ്റില്
##ഷൂട്ട്
##ഹീന
ഹബ്
നിൽക്കാൻ
കാര്യവും
ഉപയോക്താക്കൾക്ക
കടന്നുപോകുന്ന
അഴിമതിക്കാരുടെ
കട്ടി
പ്രണയദിനത്തില
കള്ളി
തിരിഞ്ഞ്
സുരക്ഷിതത്വ
സീറ്റിൽ
##യാണെങ്കില്
വെയറ
സന്താന
##ദൂ
വാൾ
അഞ്ചല്
മർദന
സ്വിസ്
കൊറോണവൈറസ്
ദമ്പതിമാര്
സാസ്കാരിക
ഇടവക്കൂറുകാ
ഉപവാസ
ആണെങ്കിൽ
സത്യഗ്രഹ
##യന്ത്ര
##വൃത്ത
സാല
പുത്തൂര്
അളവു
കിഡ്നി
വീടുകളിലേക്ക്
##യാദ
കോളനിയിൽ
എന്നറിയില്ല
##ക്കാനാണ്
##ിടും
ഇടവേളയ്ക്ക
കനിവ
മുമ്പും
##ങ്ങളുമാണ്
##കാരണം
കൊച്ചന
ജയലളിത
ബഹുസ്വര
##ിരിക്കാന്
ഗ്രേഷ്യസ്
കൊല്ലരുതേ
ഭട
മാധ്യമം
##േൽക്കുമ്പോൾ
തലവന്
കൊല്ലാം
വ്വേദ
ആളുടെ
കാലത്തിന്റെ
പാണക്കാട്
വർധിച്ചു
രംഗത്തിറങ്ങ
ബ്രാൻഡ
ലൈക്ക്
വിഷു
സൃഷ്
നേഴ്
അപകടാവസ്ഥയില്
ചുട്ട
എംപിയെ
##റഗ്രേറ്റഡ്
ഹൃദയമിടിപ്പ
മൊയ്തീന്
വുമണ്
ചാറ്റർജി
സൂരജ
സ്ഥിരീകരണം
ലഭ്യമല്ല
ഇലഞ്ഞി
കൈമാറുന്ന
കയറാം
##യേക
##േട്ടന്റെ
##വാഗ്ദാനം
സ്ഥാപനങ്ങള
അറിവും
വയലി
##പ്രസാദ്
##ുകൊണ്ടാണ്
മേൽക്കൂര
രണ്ടിന
കാലയളവിൽ
ഭാര്യയ്
വിജിലൻസിന
സപ്ലൈസ്
ശാര
കൊടിഞ്ഞിയില
സംഭവങ്ങൾ
പൂർവികര
ചാവേറ
കറക്കി
നീളുന്നു
മില്ല
അഞ്ചംഗ
രീതിയിലാണ്
ത്ഥിയെ
മനസ്സിലുള്ളത
പഞ്ചായത്തുകളില
വരവേല്പ്
##ിടിച്ചു
അവതരണം
തീർക്കാൻ
##പ്പര
ഓട്
ലഭിക്കില്ല
##യേക്കാള്
ഇഴ
ഏഷ്യാനെറ്റില
അസ്വാഭാവിക
ആസക്തി
സന്നാഹ
ജേതാക്കൾ
സൈക്കോളജിസ്റ്റ്
സ്റ്റാറ്റസ
ക്കാരിന
കാട്ടുതീയിൽ
ചേർന്നുള്ള
##ലക്ഷണ
വ്യക്തിയാണ്
സിന്ധ്യ
ഇനിയുമ
കനക്കുന്നു
ഭക്ഷണങ്ങൾ
##നീസ്
നശിപ്പിച്ചതായി
കുടിവെള്ളപദ്ധതി
ലോക്കറ
രഹ
കമ്പള
കഴിക്കരുത്
ആശുപത്രികളിൽ
##ഫിൽ
ഭാവിയില്
ശതക
ലഭിക്കുന്നതിന
മേളയില്
എണ്ണത്തില്
തേയില
ബോറ
നടപ്പിലാക്കി
കുരിശു
പോലുമ
ഏജൻസിയുടെ
എതിരാളികള
സ്ഥാപനങ്ങളില
കാലിഫോര്
ഹെൽമറ്റ
ചെരുപ്പ
ശസ്ത്രക്രിയയില്
മാത്രമാണെന്ന
പ്രാഥമികാരോഗ്യ
മരണത്തെ
മനസിലാക
അവഹേളിച്ച
പിന്തുടർന്ന്
പിള്ളയും
ശൈലജയാണ
##ക്കളയ
ലാലും
##യച്ചു
ബൊ
കണ്ടെത്തല്
ദേശീയപാതയുടെ
റോഡിന
പൊട്ടിച്ചു
കേസുകളിലെ
മടങ്ങുന്നു
കല്ലുകള്
വയസു
കുടിക്കൂ
കളിക്കാർ
##േറുന്നു
നിയമമില്ല
മോദിക്കും
വരികൾ
ഘോഷ
##ഹിത
അറിയപ്പെടുന്നു
##ധാ
##ഗ്രൗണ്ട
ആഘോഷങ്ങൾക്ക്
വഞ്ചിച്ച
മോക്
റസാഖ്
പ്രതിപക്ഷനേതാവ്
അവശേഷിച്ച
തിരുവാങ്കുള
മടങ്ങിയത്
മാണോദ്ഘാടനം
##സ്റ്റേ
യാത്രകളിൽ
ഉല്ലാസക്കപ്പലി
ഉപഭോഗ
പ്രവചന
പലതവണ
കാരണമാക
പരിഹരിക്കും
##ശാസ്
രാജാവിന്റെ
##പരം
കിടത്തിയ
ലിവിങ്
എവിടെയാണ്
മൂന്നാറില്
മുത്തു
അപ്രതീക്ഷിതമായി
ക്കാരിനെതിരെ
ഹൈദരാബാദ
ലൊ
##മണ്ടൻ
ശൈലിയിൽ
##ഹൃദ
കുവൈത്തില
ഉസ്താദുമ
ഉറക്കെ
##ക്കുമ്പോള്
##ചുറ്റ
വേണ്ടേ
ഡിനെ
##മുണ്ടാക്കിയ
വരുന്നൂ
അപ്പോഴും
ലോക്ക്
പ്രവേശിച്ചു
ഓണസമ്മാന
കുഞ്ഞിരാമൻ
സ്പൈഡർ
ബാഹ്യ
എടുത്തുമാറ്റണ
കലിപ്പടക്ക
ഗോപിയുടെ
ധനവ
നിലനിന്ന
ദേശീയപാതയോരത്ത
അച്ചടിച്ച
ടൂർണമെന്റ്
സർക്കാരിന
ഡിമിട
പെട്ടവര
വലഞ്ഞു
ഹരിയാനക്ക
നടത്താനുള്ള
രോഗത്തിന്
പൗ
ലുക്കില്
ഷുട്ട
ക്ഷീണം
രാജേന്ദ്ര
നടപ്പാക്കാൻ
അപൂർവ്വ
പതിനൊന്നു
ഡെയ്
വിളിക്കുക
മാർക്കറ്റ
സൂപ്രണ്ട
റോഡരികില
##ക്കിടക്ക
മാലിക്
എപ്പിസോഡിൽ
##ങള
വാസുദേവന്
കോർപറേറ്റ
പൗരത്വഭേദഗതി
ജെയിംസ്
മരുമകന
യാചിച്ചത
അരുമന
പോർട്ടൽ
പങ്കുവെയ്ക്ക
മാരാമണ്
ന്യായീകരിക്ക
മോചിത
ചെറുപുഴ
##സമാ
ചോദിക്കുന്ന
##വാട
കളിയാട്ട
ലിസ്റ്റില്
തീവ്രവാദികള്
##പീഠം
അനാ
കൂട്ടിച്ചേർത്തു
തുടങ്ങണം
##യെങ്കില്
ഹൃദയത്തില്
ഇന്ദിര
പുട്ടടിച്ച
നിരന്തര
സർക്കാരിനെ
സമയങ്ങളില്
ഇറങ്ങിയില്ല
##യോജന
വിദ്യാർഥികളെ
കൈകൊടുത്ത
തയ്യാറാകുന്ന
സാറാ
തങ്ങ
ജെട്ടി
കുഞ്ഞുങ്ങളുടെ
ഗർഭകാല
വല്ലതും
മരവിപ്പ
പൂർണമായി
സെഞ്ചുറിയുമായി
ഏറ്റുമുട്ടല
ഫോഴ്സ്
##മാർഗ്ഗ
ക്ലീന്
ക്കെല്ലാം
ബലിയിടാന
ശ്രീഭദ്രകാളി
പോരായ്മ
##ത്തിലാക്കി
ഡീസിനെതിര
##ദാർ
##യാട്
വിടപറഞ്ഞ
വാല്യം
ഗോപിനാഥന്
താരങ്ങള
ഭാഗങ്ങൾ
മെയിൽ
##സംഗമ
##ൗഡ
ഷൂട്ടിന
നിന
അന്തിക്കാട
##തിരുപുറം
ഫെറി
മനസ്സിനെ
പാടുന്നത്
അവസാനിപ്പിക്കുക
സ്വിറ്റ്സ
ബീന
##രൊ
##ഗാനം
പിഎഫ്
ലയനം
അക്കൗണ്ടില്
##മുണ്ടെന്നും
ലാറ്റ
നൊന്ത
##തിനനുസരിച്ച്
പ്രസിഡൻ
അഭാവ
മാഗസിൻ
##ിലുടനീളം
കത്തനാർമാരു
പ്രോസിക്യൂഷൻ
സിക്യൂട്ടീവ്
സമാഹരിച്ച
ഹിസ്ബു
##ംകുഴി
മുഴവ
വീട്ടമ്മയ്ക്ക്
മൗലവിമാര
അദാനി
വീടിനുള്ളിൽ
ലജ്ജയുള്ളത
##ഭിന
ട്ടും
പ്രച
##ക്ഷര
പങ്കുവയ്ക്ക
##സീന
തെരച്ചില്
ഇവയെ
##ാവസ്ഥയില
മഹാത്മ
ഖേദ
പേസ്
അഭിഭാഷകന്
##പാട്ട
കേരളരാഷ്ട്രീയ
##ുന്നതുമൂല
ഫലപ്രദമായി
നേരിട്ടുള്ള
അണിഞ്ഞുകൊണ്ട
വശങ്ങള
##ിനോടു
യുക്തിയെ
ഉണ്ടെന്നു
ട്രസ്റ്റിന്
ബാലചന്ദ്രന്
യാക്കോബ
ദിലീപ
മനിയില്
മ്മാതാക്കള
കാശ്മീരിലെ
കെട്ടിപിടിച്ച
എത്താമെന്ന
രോഗികള
ദീർഘകാല
ജയന്
പ്രവാഹം
സെവൻസ
ഭേദിച്ച
സമ്പ്രദായ
പൂജാ
പിരിച്ചുവിട്ട
മാന്ദ്യ
അയൽവാസി
ത്രിദിന
ഭിണികള
കോടിയോളം
##ങിന്
##ചിറ
മരിച്ചവരിൽ
##വാക്യം
അനുശോചനം
കില്ല
##കവിത
##യാണെങ്കിൽ
##യുമെല്ലാം
ക്രിസ്തുവിന്റെ
ദിനാചരണത്തിന്
##പിടിക്കുന്ന
ത്തലാക്ക
കൂട്ടുകാരനായ
വർഗ
പഠനങ്ങൾ
ഓഫർ
നിർമിച്ചു
സിക്ക്
ഉറപ്പിച്ചു
ആയുസ
ആഭരണങ്ങള്
നിലയില
ജംഇയ്യത്തു
യഹൂദ
ഹൃദ്യമായ
വയസുകാരന്റ
അപകടകാരി
മത്സരവും
ഏക്കറ
ജനത്തിന്
ബ്രേക്ക
ക്യാമറയും
നിറവിൽ
ടെക്കികള്
ചിത്രീകരണ
എഴുതുന്നത്
##തന്
##മഠം
മുസ്ലിമ
പ്ലാസ
മോഹിച്ച
വ്യവസായം
ത്താതെ
##ഥന
##ജീവികള
തുടങ്ങാന്
ലാലിന്
ദ്ദേശിച്ച
ഗുണങ്ങള
വാൽ
പ്രോസിക്യൂഷന്
ഫ്ലിപ്പ്കാർട്ട
മുഖ്യാതിഥി
സംഗീതനിശ
ഉണർന്ന
സഖാക്കള
രക്തസമ്മ
കൊടിമര
താഴോട്ട്
ക്കുമെതിരെ
ചെന്നൈയിൻ
##രത്ന
ജംമ്പി
വസ്
തിന്നുന്ന
അഭിലാഷ
വേറെയും
എൻറെ
ഗാമി
റെക്കോർഡ
തോൽക്ക
ഇരുന്ന്
മഹാതി
##സ്വഭാവ
റോബോട്ടിക്
##ിലേക്കെത്ത
ലമെന്
##െല്ലാമ
പ്രകോപന
തിരക്കി
റഷ്യന്
ചെങ്ക
കൈത
സ്കാന
##ങ്ങളിലേ
എക്സ്ചേഞ്ച്
വിനീത്
വോളി
പാമ്പുകടിയേറ്റ
ഷർജീ
ശ്രീലാലിന്
മുഖക്കുരു
ഇപ്പോഴിതാ
##മോഡേൺ
എന്നതിന്റെ
റദ്ദാക്കുകയ
ആനവണ്ടി
കമ്പം
ലറ്റ്
സിനഡ
തേൻ
അഗ്ര
##വീട്ടിൽ
നമോ
##ിരിക്കേണ്ട
സ്റ്റാൻഡ്
വ്യാപകമായ
നൗഷാദ്
ട്രെന്
സമഗ്രമായ
തോന്നിയില്ല
മൂവ
##ത്തുനിന്ന്
റാഫി
##മാധ്യമ
തകർക്കാൻ
ശിവകുമാറിനെ
ചാറ്റിലൂട
ഉദ്യോഗ
കുറയ്ക്കാം
പോവുന്ന
പെരുമ്പ
##ബിഎ
കില്
ലയൺസ്
മോക്ഷപ്രാപ്തി
പട്ടികജാതിക്കാര
സ്ഥിതിഗതികള
##ജാല
പരിശുദ്ധാത്മാവ
നായർക്കു
##പട്ടണ
വാക്കുകളിൽ
ചിലവഴിക്ക
കുതിച്ചുയരുന്നു
തീപിടിത്ത
കല്പിക്ക
##ചിത്രം
കഥാപാത്രങ്ങളെ
സാഹചര്യമാണ്
സമ്മതിച്ചു
വാഴ്ത്തപ്പെട്ട
ഇരുപതു
അംഗങ്ങളെ
താരങ്ങളും
ട്ടറ
##ബോൾ
##ാത്തതിന്
കീഴിലെ
പഠിപ്പ
ബോയ്
ആഘോഷവും
കെട്ടിയിട്ട
പരീക്ഷയുടെ
ഥം
ജുമുഅ
വയസ്സുകാരനെ
സ്വദേശാഭിമാനി
നിഫ്റ്റി
കൂറ്റൻ
നയിച്ചു
സേഫ്റ്റി
ടെന്നിസ
തടവുകാര്
പെണ്ണുങ്ങള
ഏകദിനത്തില്
കലർത്തി
##യാകാന്
കൂട്ടുകെട്ട
ആഴ്ചകള
വസ
##കുറിച്ച
##മരണം
##വീശ
തലക്കെട്ടോടെ
ആലുവാ
അവതരിപ്പിച്ചത്
ബാഗുകൾ
നളിന
വാലന്
ഷാഹി
സംഘടിത
കാണാമെന്ന്
പൂർണിമയ്ക്ക
ആർച്ച്
##ാത്തപക്ഷം
ഒറ്റയ്ക്ക
##കൃഷികൾ
ട്രൈ
##മുക്ത
ബൈപ്പാസ്
തനിമ
മണ്ണിട്ട
ആയോധന
സെലക്ഷന്
സലോണ
നായ്ക്കള്
ഷെയിന
വ്യക്തമാക്കിയത്
വാറണ്ട്
അപൂർവരോഗ
പറഞ്ഞതു
തന്ത്രങ്ങളെ
ആലക്കോട്
പ്രസിഡന്റിന്
ഉൾക്കൊള്ള
നഴ്സിംഗ്
പിണറായിക്ക്
##യല്ലാതെ
ബാധയെ
##തിരെയുള്ള
ഏറ്റെടുക്കണം
ബന്ധമുണ്ടെന്ന
ഇവർക്ക്
ഹിന്ദുവിനോ
##നാടക
മഹാത്മാ
പറഞ്ഞിരുന്ന
ധോണിയുടെ
വെല്ലുവിളികള്
ഭീകരൻ
##ധ്വ
ക്കാലം
വരവേറ്റ
പരിശീലനവും
മുളയ്ക്ക
എനിയ്ക്ക്
അഴീക്ക
ലീഗിന്
ക്ലാസിക്
കൗണ്ട്
അംഗത്തെ
വ്യാവസായിക
ദീർഘദൂര
വെളിച്ചെണ്ണയും
സ്ഥിരീകരിക്ക
##ിട്ടുമുണ്ട്
കൂട്ടർ
പ്രസിദ്ധമായ
മധ്യവയസ്
നഗരി
ഭീഷണിയാകുന്നു
ഞെട്ട
യാത്രകള്
വണ്ടിപ്പെരിയാറ
വ്യതിയാനമാ
വായില്
ബസ്സിടിച്ച
##ാമെങ്കിലും
ഡോളറിന്റെ
പ്രിന്റ്
നെയ്യ
അഞ്ചായി
നന്നാക്കാന
ബോണ്ട്
##ൊടിഞ്ഞ
പോരാട്ടത്തിലേ
ചട്ടം
ലഭിക്കുന്നു
അറസ്റ്റിലായത്
ആവശ്യപ്പെടാൻ
ചാറ്റുകള
മഴുകൊണ്ട
ഉഷ
കോൺസ്റ്റബിൾ
പാതിവഴിയില്
ബിഎസ്എൻഎൽ
സ്പാനിഷ്
വേളയിൽ
ആഗ്രഹമെന്ത
തിരിച്ചടയ്ക്ക
നമസ്കാരം
മോഹിപ്പിച്ചപ്പോ
ഇഷ
എഴുത്തുകാര്
വരനും
വൈറസല്ല
##യുണ്ടാക്കി
മൂർത്തി
മതേതരത്വം
എന്നിവയെല്ലാം
സെന്ററുകള
അതുവരെ
##വെക്കുന്ന
പ്രധാനമാണ്
അറിയാന
##കളാക്കി
പിങ്ക്
##ഡബ്ല്യു
ഗോപിനാഥ
വാങ്ങാം
നേരെയുള്ള
സീറ്റിന്
ദോ
ഒളിഞ്ഞു
മറവില്
പിതാവിന്
ഉറപ്പാക്കാന്
വിപണനം
ശോഭാ
കെസിബിസി
ഫോട്ടോഗാലറി
പൗരനല്ലാതാക്ക
ബലിയർപ്പിക്കാ
എല്ലായിടത്തും
റാഷിദ
സുനാമി
ബാലഭാസ്
വേരിയന്റ
ഖാലിദ
##വിധായക
##ലത
##ബന്ധങ്ങളുണ്ടെന്ന
##ലോട്ട
ഉറക്കത്തിനിടെ
ജലനിധി
അയ്യോ
സാക്ഷ്യപ്പെടു
അബദ്ധം
ക്ഷമിക്ക
കൃ
##ോടൊപ്പമ
ആരാധനാലയ
ബൂലോക
പോകുമെന്ന്
##ായിരുന്നോ
##ജൂബിലി
പരീ
മണിക്കൂറില്
നിർവ
ഡവലപ്മെന്
##ിടിച്ച്
ഇന്ദിരാ
കഴി
അനിശ്ചിതത്വം
ഫൊ
കോളജിന്
ആനപ്പെട്ട
അഡ്മിഷൻ
ഉൾപ്പടെ
പനമരം
വഴിയാത്രക്കാര
ബ്രോ
##കുടി
മിറ്റ്
ഗുജറാത്തില്
ക്കുകയാണ്
##ചര്യ
കറങ്ങി
രാജകുമാരന്
പണ്ഡിറ്റ
പതിമൂന്നാം
അബൂ
കല്യാണത്തിന്
അനുഭവങ്ങൾ
കേസുകളിൽ
പങ്കെടുക്കാം
ഇസ്രയേല്
കാമ്പ
തെളിയുന്ന
ഉന്ന
##തുടങ്ങ
ഉസൈൻ
അറിയിക്കുന്നു
##ൊക്ക
പിളർപ്പ്
മൂന്നാറിലെ
അനുഭവങ്ങള
പുറത്തുവിട
##പാർക്ക
പകുതിയില
അവസരങ്ങള്
ഖാദറിന്റെ
ഡിനേറ്റര്
പച്ചക്കള്ളം
കാംപസ്
മൾട്ടി
ചാർട്ടേഡ്
ഭ്രമ
പ്രിന്റ
ഒപ്പമ
മലയാളസിനിമ
പുതുമുഖ
ഹോട്ടലിൽ
ഓട്ടോമാറ്റിക്
ഗ്ലോബല്
##വായ്പ
ഇളമ്പ
വൈകുന്ന
സമ്മാനങ്ങള്
സുഗ
##ിസ്റ്റു
തിരക്കിട്ട
നഗരസഭയിലെ
പോകേണ്ട
ഉറങ്ങുന്ന
കരൾ
##മണ്ഡപ
മുനി
##ക്കിടക്കുന്ന
##പ്രചരണ
എക്സ്പോയിൽ
മണിയൻ
ഹൃദയത്തിന്റെ
മദര്
ബാച്ച്
തിരുത്താം
കുളിച്ച
വിതരണത്തിന്
##ിട്ടുള്ളതാണ്
##ിനേക്കാള്
ഒട്ടക
ജമ്മുകശ്മീര
ഹൂസ്റ്റണ്
ഉറുദു
കിളിപ്പാട്ട്
രവീശ
സ്വദേശിയെ
അടിവസ്ത്ര
പിതൃക്കൾ
അലയ
ബുദ്ധിമുട്ട്
സഹമന്ത്രി
കയറ്റിയ
ചെയ്യുകയാണ്
മേൽനോട്ട
ഗണേശോത്സവ
ദക്ഷിണേന്ത്യ
##പഠനം
മേളയ്ക്ക
പങ്കാളിത്ത
ചെയ്യുന്നില്ല
കമ്പനികളുടെ
എംപിമാര്
പോളോ
ഉദാര
ട്ടേഴ്
ബാഗിലെ
നയിക്കുന്നത്
നഗരവും
സോളോ
പ്രദേശിലെ
##തോട്ട
വില്ലന്
##ദ്വാര
സംഘാടകര്
രാമചന്ദ്ര
##ഉറക്കിക്കിടത്തിയ
ഇറിഗേഷന്
പോസ്റ്റ്മോർട്ടം
രഹാനെ
ഡിവിഷൻ
സുനിൽകുമാർ
##വാഴ്ച
പൂർവ
ചേന
ഹസ്സന്
നേരുന്നു
വിശ്വാസികളെ
ഐഎസ്എല്
ഉണ്ടായില്ല
##ിണ്റ്റെ
ഇഴഞ്ഞു
സത്യത്തില്
ഭാഗമായുള്ള
മോഹന
പരിശോധിക്കാന്
പാവങ്ങള്
മാനേജ്മെന്റ്
വിരലുകള
നാരായണൻ
നിശാന്ത
കൂടുന്നു
ഇരകളെ
മദ്യപാനം
മജ
കുടിയേറ
വച്ചാണ്
മുരിങ്ങ
ഇര്
സംഘപരിവാറ
പ്രദർശിപ്പിച്ച
മജീദ്
രാപ്പാടി
അല്പ
രാജ്യങ്ങള
ഗ്രൗണ്ട്
അതിർത്തിയിലെ
കെമാൽ
ഇലക്ഷന്
പുലര
വിചിത്രമായ
വിവാഹിതരായ
ഗവേഷകര്
ഭവനില്
നീയെന്ന
##േണ്ടിവന്ന
വേശ്യ
പ്രശ്നങ്ങളും
മാസത്തിലെ
രക്ഷകനായി
തീരുമാനത്തെ
ചർമ
ചർമ്മ
##ിക്കൂ
സങ്കീര്
##ുയർന്ന
ശേഖരം
പാലവും
##പ്പെടാന്
സോഫ
##ത്തിനിടയിൽ
കാര്യമല്ല
വളക്കൂറുള്ള
വെള്ളമൂറ്റുന്ന
അഞ്ജലി
ബൈക്കിടിച്ച
സമയപരിധി
പൊട്ടിവീണ
മഞ്ചേശ്വരത്ത്
സഹായിച്ചു
കുവൈറ്റ
മണ്ണിടിച്ചില
രൂപയില്
ദുബായി
##നേതൃത്വ
കണ്ടുവരുന്ന
തെരഞ്ഞെടുപ്പിന്
ഐസ
മാറ്റും
സംസ്ഥാനങ്ങള്
##ഷോപ്പ
വാഹനത്തിന്റെ
അംഗീകരിക്കുന്ന
മണം
സമീപകാല
ഡോവൽ
##വിഭവ
നന്നാക്ക
പൂർത്തീകരിച്ച
വടക്കുകിഴക്കൻ
ഉദ്ദേശിക്കുന്ന
മകനുമൊപ്പം
താലികെട്ടാ
ഡിവൈഡ
അസഭ്യമ
##ുണ്ടാകില്ല
നവരാത്രി
പിടിപ്പിക്ക
അഗ്രി
മുക്തി
നേഹത്തിന്റെ
അനുബന്ധിച്ച്
കാത്തിരുന്നത്
സൂഫി
##നോക്കി
എസ്റ്റേറ്റ
ഭീമന
നൽകാതെ
നാലാമത്തെ
വരിക്കാര
കൊലപാതകി
##കളേ
അരങ്ങിലേക്ക്
അക്കാലത്ത്
അലിയുടെ
##ുന്നതിനെതിരെ
പരിശോധിച്ച്
ഫൈന്
തൊടുപുഴയിൽ
##വത്കരിക്ക
സമ്പ്രദായം
##നദി
ജുൻ
ഇൻഷ്വറൻസ്
ടൊയോട്ട
മീനാക്ഷി
പ്രതിഷേധപ്രകടനം
ഉന്നാവോ
ചതയദിനാഘോഷം
##ദൂദി
മാധവൻ
വിദ്യാലയങ്ങളില
ഭയക്കുന്ന
##നിയമം
പര്യടനം
##കെട്ടിയ
ഉപയോഗിച്ചത്
സമീപിച്ചു
അപേക്ഷിച്ച
പച്ചപ്പ്
കോടിയേരിയുടെ
നീരുറവകള
കരുത്തില്
വിട്ടിറങ്ങി
ഉദ്യോഗസ്ഥർക്ക്
##ുന്നതിലും
അകാല
വലിയപറമ്പ്
ആലപ്പുഴയിലെ
##പീഡ
ആദ്യദിവസ
കൊറോണയെ
ദ്വാര
നിറയുന്ന
ക്കകം
##ഹാബ
ഒത്തുതീർപ്പ
റീബൂട്ട
ബില്യൺ
##ളാറ്റുടമകൾക്ക
അവരില്
അംബിക
##വണ്ടി
##വനാണ്
നേതാവെന്ന
ചുങ്ക
ജലീല്
അശോക
അന്വേഷണത്തില്
##യുണ്ടാക്ക
ലക്ഷ്യങ്ങള
പേരടി
പതിറ്റാണ്ട്
തലസ്ഥാനത്തെ
കളിക്കാന്
വിവാഹവും
വയോധികരു
ചികിത്സയില
ശരിയായി
##കളിലൊന്ന
വായനാ
##യെടുത്തു
മീറ്റിംഗ്
##സ്ഥാപിക്ക
പ്രാപ്ത
കേസുകള
##മുതല
കൂവ
##െണ്ണം
കോച്ചും
ബാംഗ്ലൂർ
അവതാളത്തില്
ഉപ്പുതറ
കുലുക്കി
വെച്ചുകെട്ടാ
മാറിക്കിടന്ന
തെളിയിക്കാന്
ശ്രദ്ധിക്കുന്ന
ഉണ്ടാവും
ചികിത്സയും
വിളിപ്പിച്ച
കുറയുന്നത
പോർ
കണ്ടെത്താന
നൂറ്റാണ്ടു
##പുരി
കൈയ്യില
ശരണം
ടോണി
മുപ്പത്തി
##നെറ്റ്
##നിർത്ത
തെരുവുകള
##മെഴു
##ിലെത്തുന്ന
പ്രണയിച്ച്
##മ്പിള
ബ്ലാസ്റ്റേഴ്സിന
സന്ദേശങ്ങള്
പേപ്പറ
നാടുനടു
ജനലക്ഷങ്ങളെ
വിവാഹമോചിത
ശിൽപി
കെഎംസിസി
കട്ടിപ്പാറ
രക്ഷയില്ല
നിലപാടുകള്
##ുണ്ടെന്നാണ്
മീഡിയയിലൂടെ
തപ്പി
##വംശ
##വർത്തന
പാട്ടുകള
വികെ
അതുവഴി
ലിപ്
ഒരാളാണ്
ഹാസ്യ
ഷോയ്ക്ക
നടിയായി
##ുമില്ലാത്ത
മുരുക
മെനുവില്
ദേശിയ
ചിതറിത്തെറി
സമ്പാദിച്ച
##ാലയം
##യാകാം
കമന്
##വാരം
തിവാരി
##പ്പെടുത്തുക
ഷെഫ
സമർപ്പണം
നടപടിയെടുക്കും
ഐപിഎ
സർട്ടിഫിക്കറ്റ
മുളിയാ
##പറച്ചില
##ുണര
നിശാഗന്ധി
ചെറുതായി
നിഗൂ
വസ്തുതകള്
##ുണ്ടാവും
കാശ്മീരി
പ്പെടുത്തും
അക്ഷരങ്ങള
കാണുന്നതിന്
സംഭവത്തെ
വർഷങ്ങളായി
ശേഷിയുള്ള
ടെസ്റ്റിന്റെ
ആര്യയും
##ുവെന്നാണ്
ത്തിയുടെ
ഒറിജിനല
എൻജിനീയറിംഗ
പണിമുടക്കി
പരമ്പരയില്
ഉന്നമന
വെന്തു
കിടത്തി
നിർത്താൻ
##രാമപാദ
ആവി
ആയുധങ്ങള
ലഭിച്ചിട്ട
കരുണാകര
##കുമാറിനെ
കൈമാറും
##ത്തിച്ചു
ധിച്ചു
പോകുമ്പോൾ
കാണില്ല
യൂട്യൂബില്
സ്വീകരിക്കണം
ട്രേലിയന്
രോഗനിര
യുപിയില്
കത്തുകള
ജിമ്മ
പതിനഞ്ച്
അനേക
പറഞ്ഞിട്ടുണ്ട്
ആഗസ്
നേഹിക്ക
വില്ലത്തി
ധോണിയെ
##ലഭ്യ
പ്രസാധക
സ്വിഫ്റ്റ്
കടാശ്വാസ
മാർട്ടിൻ
വലിച്ച്
ഇടാൻ
മരണകാരണം
മിടുക്കി
ദെ
ഇല്ലാതാക
ബുക്കിംഗ്
ഒഫ്
കസബ
ഇറാഖിലെ
ഉപരോധിച്ച
മതത്തിന്
എത്തുക
ശ്രീനി
ഹില്
കൊണ്ടോ
മെറ്റ്
കുതിപ്പ്
മഹത്വം
കർഷകരുടെ
ദുരിതത്തിൽ
നനയ്ക്കാ
##ടർന്ന
അടിയന്തരാവസ്ഥ
അവശ
ശാസ്ത്രജ്ഞന്
സംരംഭകത്വ
യോഗ്യതാ
##നോട്ട
സംരക്ഷിക്കുന്ന
ഉദാഹരണമായി
##ാവുമോ
കവർച്ച
##വിചാര
##ാത്മകമായ
ഷനും
ലക്ഷ്യമിടുന്ന
കടത്തിയത്
വെറുംവയറ്റില്
തമിഴ്നാട്ടിലെ
തർക്കത്തിൽ
പൊതുദർശനത്തിന
ജൂഹി
മനസിൽ
##കൊളുത്തി
പെൻഡ്
ഹൊസ്ന
അഭ്യൂഹ
എതിർത്ത
##ങ്കാര
ശില
##ായിട്ടാണ്
##യിൽനിന്നു
തിളങ്ങ
കിട്ടില്ല
തേടിയെത്തി
സീസണിൽ
മത്സരങ്ങളില്
തമ്മിലടി
കുഴിച്ചിട്ട
ജീവിക്കുന്നത്
ജന്തു
പണിയുന്ന
മത്സരത്തിന്
ആത്മഹത്യക്ക്
ഫിലിംസ
കണ്ണിലെ
വിളയിക്കുന്ന
പ്രദേശങ്ങള്
ഗുരുവിന്റെ
നേരിടും
സംരക്ഷിക്കുക
##മന്ത്രാലയം
ഏഴായിര
തിരിച്ചയച്ചു
എഴുത്തച്
##യായിട്ടും
കമ്പനിക്ക്
അന്താരാഷ്
കെട്ടിച്ചമച്ചത
ക്കുലര്
യുവതലമുറ
ഉത്കണ്ഠ
ന്യൂസിലൻഡ്
വീടുകയറി
കോൺഗ്രസുകാർ
കൊതുകു
ആഘോഷിച്ച്
വിമാനത്തിൽ
സ്മിത്ത്
ആഘോഷിക്കും
പ്പര്യ
വ്യാപനം
മാണിയുടെ
##സുല
പൊഴിഞ്ഞ
ഉഗ്ര
ഥിനിയെ
ശ്രീറാമ
പെട്രോളിന്
കരുണാകരന്
ചിരിയും
മനസു
ഒഴിവാക്കിയത്
##ുകാർക്ക്
റഹ്മാൻ
വെള്ളരി
##സമാജം
പയ്യന
##മാരാണ്
ഷിപ്പ
പാലക്കുന്ന
കുറിച്ചത്
മാണിക്കല
നോട്ടം
യൂറോപ്പില്
##ന്ദര്യ
ബുദം
##പ്പെരുമ
തോമസിന്
ബൈക്കിലെത്തി
അവസ്ഥയാണിപ്പോ
തയ്യാറെടുപ്പില
ശ്യാം
സൗഖ്യ
മാഞ്ഞാലി
പോയാല്
മധുവിധുവിന്
പകലും
##ചൂട
##ാവില്ലെന്ന്
ഇടപാടുകളും
ക്യ
തിയറ്ററ
പുസ്തകങ്ങള
വസതിയിൽ
##കവി
നിശബ്ദത
അനുരാഗ്
രാവണ
സ്വയംഭോഗത്തെ
അകറ്റാന്
സഹപ്രവർത്തകർ
##ഷാദ്
ആടിനെ
ആനുകൂല്യങ്ങള്
കെട്ടിയിട്ടു
കുഴപ്പമില്ല
സോഡ
അകലം
വ്യാപാരികളുടെ
നിധിയിലേക്ക്
പോളിങ്
ഉണ്ടാവുക
എത്തിയതു
മാറിയെന്ന്
എതിർക്കുന്ന
ദൈവിക
ഭയന്ന
ആശ്വസിക്കുന്ന
ആയുഷ്
മേനോനും
പാഴാകുന്നു
ഇടപെട്ടു
ട്രീറ്റ്
##വെയ്
നിലച്ച
ന്നാല്
##ാതീത
സോണിയാ
##പകരണ
കാണേണ്ടിയ
ഖത്തറില്
തടയും
ബ്രക്
ആവണി
കച്ചവടക്കാര
മുകളിലെ
കേജരിവാള
##മെത്തിയ
മുകളിലുള്ള
കുത്തു
മാസത്തിനകം
നീളമുള്ള
സായുധ
പ്രാതിനിധ്യം
ഉപദ്രവിക്ക
ത്തിക
പഠനയാത്ര
അഥ
ആലില
പുതപ്പ
ബൈപാസ്
കെട്ടുന്നത
മുഹമ്മ
ലൂർദ്
##ക്കാരിയായ
ഉപദേഷ്ടാവ
ഭുവനേശ്വ
ബഹിഷ്കരിക്ക
##യുണ്ടായി
വീട്ടമ്മയും
ഷൂട്ടിങ്ങ
ആവേശകരമായ
പ്രൊഫൈല
ഇയാളുടെ
സാധ്യമാക
##കൂടാതെ
ലെസ്
നേതാവിനെതിരെ
##ിയമ്മയെ
##സന്ധ്യ
വീഡിയോകളും
ആഷിക്ക
അഭിമാനം
യുവാവ
തിരിച്ചറിയാന്
ലീഡര്
വിശ്വനാഥ
ഹെറാ
##ത്തോടനുബന്ധിച്ച
എന്നിവയ്
അധ്യായ
പറയുമ്പോൾ
സ്ഥലത്ത
##ിപ്പിയ്ക്ക
ഇതി
ജീവനുള്ള
കൂട്ടത്തില്
കോപ്പിയടിച്ച
ചെയർമാന
മായി
രഘുനാഥ
അഭിജിത്
വിധത്തില്
##ങ്ങളൊക്കെ
മസൂദ്
റിസൾട്ട്
ശംഖുമുഖത്തെ
##നിറഞ്ഞ
സാധു
ഭക്തരുടെ
ചോദ്യവും
##ച്ചിനിലൂടെ
##ിക്കേഷന
കേടു
നടപടിക്ക്
ഒരുമാസം
അംശ
സമ്പാദ്യം
ബൂലോകത്ത
##മാണല്ലോ
##ചേ
##ഭദ്ര
മാറിയതിന്
നാലുപേര
കേസില
അനക്ക
ചില്ലു
വൈറസിനെ
ശ്രേഷ്ഠ
സമയത്തില
യജ്ഞ
കലാലയ
മലയാളിക്ക്
കെട്ടിയാടിയ
മൂർഖനെ
ഹിമാചല
ചേഷ്ടകളു
കുളത്തൂർ
##വിളാകം
മെന്റിന്റെ
ഹിന്ദുക്കള്
ജേതാ
ഇതിനെതിരെ
ബാഗും
##കളാക
പ്രക്ഷോഭത്തിന്
വിപുല
സ്വാഗതവും
കൂടിയത്
##ഡിഎ
പതിക്ക
അവസാനിപ്പിക്കാന
##ണമെന്നാവശ്യം
##ാക്കും
യാത്രികര
##നേടി
നദീ
സിറ്റിയില്
പടിഞ്ഞാറൻ
ശമന
തോണി
ഷായ്ക്ക്
എന്നതായിരുന്നു
സമുച്ചയത്തിന്
അന്വേഷിക്കാന
തലയ്ക്ക്
വെച്ചാണ്
##വാലി
##ിനിടയിൽ
കുംഭഭരണി
വിഭാവനം
ഓസ്ട്രിയ
മദ്യപസംഘ
ഫയൽ
അടുക്കളത്തോട്ട
##കണിശ
വ്വഹിക്ക
മേയ്ക്കാട്
ഗണന
##യാകാൻ
വറുത്ത
##മുട
##േക്കാവുന്ന
അക്രമങ്ങള്
സ്ഥാപനങ്ങളിൽ
ആശയവിനിമയ
കാരോട്
##ാനന്തര
##ങ്ങളിലൊന്ന
പൊട്ടിക്കരഞ്ഞ്
കോളിംഗ്
മര്യാദകള്
##ടുത
തളിര്
##വിജയ
ചാത്ത
പതിറ്റാണ്ടിലെ
കറുപ്പ്
ഗ്രൂപ്പിലെ
ആശങ്കകള്
സുപ്രീംകോടതിയിൽ
തോളില
അപകടാവസ്ഥ
ചതയദിന
##കോളേജ
ട്വിറ്റര്
തൃക്കാരിയൂര
ഫെസ്റ്റിവൽ
ഡെൽഹി
കഞ്ഞിക്കുഴി
നിറമുള്ള
ഇഡിയറ്റ
ലഭ്യമാക
ഉറപ്പുതര
വലയുകയാണ്
ത്തനങ്ങളില്
അകന്ന
കഷ്ടപ്പാട
മെൻ
ശസ്ത്രക്രിയാ
ജാസ്മിൻ
പൊതുപ്രവര്
കുറയുന്നു
##ഖ്യ
##ബദ്ധ
സുഖമായി
മയക്കുമരുന്ന
ബറോ
കിടക്കുന്നു
ഭീമന്
ഷായുമായി
മാതൃകാപരമായ
വികസനത്തിന്റെ
##ത്തിനിട
നിവേദ
ചെയ്യു
മൗണ്ട്
ഒരുക്കം
ഇക്കഴിഞ്ഞ
നിലനിൽക്ക
സഹവാസ
വീട്ടിലേക്കു
ജുന
ഇഷ്ടമാണ്
##തിനുവേണ്ടി
ക്ലാസില്
ചുമലിലേറ
വെറ്ററിനറി
പാതിര
സഭയ്ക്ക്
മന്ത്രിയെ
മഹേഷ്
പ്ലേറ്റ
ക്വയര്
##ച്ചിത്ര
##ഫീൽഡ
മഹാലക്ഷ്മി
നിന്നുമുള്ള
വ്യത്യസ്തമാണ്
##റിയിച്ച
ചെയ്യാമോ
ഉൾക്കൊള്ളുന്ന
റയല്
##ാനാവില്ലെന്ന്
ഒറ്റക്കെട്ടായി
ഭാഗമാക
രഞ്ജിത്ത്
##സുകള്
അനുകൂലിച്ച്
ഭാരവാഹികളുടെ
ത്തമാനങ്ങള്
ഉണ്ടാകാം
##ബാല
ആർക്കാണ്
അപ്പോഴാണ്
നമ്പി
##വിര
##ത്തുന്നത്
തീയിൽ
##ക്കാളും
ലാലിന്റെ
##ിക്കുവാൻ
ഐക്യരാഷ്ട്ര
എത്താന്
##ധ്യക്ഷന്
ഗാർഡ
സന്തോഷവും
അപ്ഡേറ്റ്
കർദിനാൾ
തരംതാഴ്ത്ത
ഡിസംബറില
ഓണത്തിരക്ക്
സ്പൂണ്
അഭിനന്ദ
ആത്മാർത്ഥ
##ുകാരും
വോള്
പൃഥ്വിരാജ
ജാവ
കൈവിട
മടങ്ങിയെത്തിയ
തടികളില
##കുറ്റ
മർദ്ദന
ട്രാൻസ
പറഞ്ഞപ്പോൾ
സിമന്
പ്രകാരമുള്ള
##റാമ
ജോലികൾ
ഇടിവ
താളംതെറ്റുന്ന
പച്ചക്കറിവിത്തു
ശർക്കര
അയൽക്കാരന
ഏഴാമത്
പ്രഹരം
ഫോട്ടോയെടുത്തു
അപകടകാരണം
പുഞ്ചിരിക്ക
##പരവും
ഓഫീസുകൾ
കെജി
ഫൊറോനാ
എംസി
സമിത്
ഇടങ്ങളിൽ
അമ്മയെയും
##ടേക്ക
വയസ്സില്
യുപിഎ
ഇഞ്ചിയും
പ്രണവും
അപമാനിച്ചെന്ന
പള്ളിയുടെ
ചേച്ചിമാർ
സജീവം
##െയ്ൻ
വരിച്ച
വേണ്ടിയിരുന്ന
സമ്പൂർണ
നിരക്ഷര
ഈജിപ്ഷ്യൻ
പരിഹസിക്ക
ഭൂരിഭാഗം
ഷാരൂഖ്
സഹികെട്ടു
വെട്ടിക്കൊന്നു
വീനര്
ചിന്താഗതി
ദൈ
വിജയത്തിന്
സമരത്തെ
സൈമണ്
##തോറും
കരുതപ്പെടുന്ന
എഴുപത്
##യെത്തും
സാധിക്കുമെന്ന
ഭീകരതയ്ക്ക
##എസ്എസ്
സാമ്പത്തികമായി
ശീലം
ഗണേഷ്
##ത്തിനിടയില
വീഥി
തീരം
ഉണര
വെള്ളച്ചാട്ട
മൂന്നായി
ശ്രീകുമാര
ഗോളുകള്
ക്കൂടി
അയച്ചാല്
മതംമാറ്റ
ഓജ
നുള്ള
ശ്രീകണ്
മഠത്തില്
കമ്മീഷന്റെ
വേദനയും
അത്യാഹിത
നിർമാതാവ്
അസാധുവ
പ്രമോദ്
ബയേണ്
ജൂണില്
അന്തേവാസി
ഫ്ലക്
ഓരോരുത്തര
വേയ്സ
സായാഹ്നം
കമ്പനിയായ
നിയമത്തിൽ
എന്നിവയെ
പഞ്ചായ
പൗരന്മാരെ
വിരുന്ന്
ഇന്നസെന്റ്
പല്ലുകള
പിന്നീടുള്ള
കുടിച്ച്
തെളിയിക്കാൻ
ടാഗ്
സ്കിൽ
രാഷ്ട്രീയത്തില്
ഷാഹിദ
പരിശീലനകേന്ദ്ര
വേർഡ്
കളിയിൽ
##ക്കയറി
കുറിപ്പുമായി
വസ്ത്രങ്ങൾ
കൊടുത്താല്
ബേസ്
ഇങ്ങനെയുള്ള
വാങ്ങുന്നത്
അറസ്റ്റ
അവിശ്വസനീയ
ഇന്റലിജൻസ
കുഞ്ഞിരാമന്
പൊലിസ്
എക്കാലത്തെയും
ആറാമത്തെ
വഹ
ഓണക്കാലത്ത്
ആളില്ലാ
കൃഷിയിടത്തില
അസീസ്
നിസാ
പീച്ചി
ചരട
സിറ്റിസൺ
സെൻറ്
നീക്കിയ
കുറ്റക്കാരന
രാജ്യസഭ
ഐജി
പൂള്
##െക്കാള്
##പറന്പിൽ
##സൂചി
പ്രവേശിപ്പിക്കാ
ഭൂരഹിതര
അമിതമായ
##വിദ്യാര്
ജിജി
അംഗീകാരമില്ല
പ്രളയാനന്തരം
പാദന
ജർമനിയിൽ
പ്രേക്ഷകരെ
##മൂർത്തി
കാര്യങ്ങളിൽ
കാട്ടാനയുടെ
ഷങ്ങളില്
കനാലില്
##ഗണപതിഹോമവും
വട്ടിയൂർക്കാവ്
പിശാച
പ്രതിസന്ധിയിലാ
തിളച്ച
##കൃഷ്ണൻ
ഇഷ്ടപ്പെട
കോലം
സഫിയ
എന്തെന്ന്
വഴിതെറ്റി
ഖേല
പാഠങ്ങള
ത്തിവെച്ചു
അംഗങ്ങളായ
മത്സരത്തിന്റെ
പോകുകയായിരുന്ന
അബുദാബിയില്
ത്തീകരിച്ച
പിണങ്ങിയ
വെട്ടിപ്പ്
കൊളസ്ട്രോള
വയോധികൻ
##േഗക്കു
തീവണ്ടികള്
നിമ
പിയുടെ
ചിലരുടെ
ഏപ്രിലില്
ബഹ്റൈനിൽ
ശബരീനാഥ
കുഴല്
നസീര്
സൂചിപ്പിക്ക
വ്യാജേന
വിദഗ്ധര്
തിരൂരില
ചിന്തിക്കുന്ന
ഇന്നറിയാം
ചിത്രകലാ
ഭകാലത്ത
ജവാൻ
മെല
അറിഞ്ഞിരിക്കാം
പാണ
##ദിനത്തിൽ
ആശ്രയിക്കുന്ന
സെക്രട്ടറിക്ക്
##വിഭാഗങ്ങള
എന്നാണോ
അവിവാഹിത
പിച്ച്
##ഗുല
രഞ്ജിത്
മാനുഷിക
താലൂക്കിലെ
സമ്പന്നമായ
ശിക്കും
മെഷീന
ഒളിപ്പിച്ചു
ചെറുക്കാൻ
##ഗാന്ധി
ചിരിച്ച
ധർമ
പ്പാക്കി
സ്ത്രീവിരുദ്ധ
സണും
ഒപ്പിട്ട
ടാക്സി
മണ്ണിടിഞ്ഞ
അവശിഷ്ടങ്ങള
അധികാരമേറ്റു
രുദ്ര
ജന്റീന
പൊങ്ങ
പ്രബോധന
ഇങ്ങോട്ടു
##ാവതി
ലോക്കർ
##ത്തിലേക്കും
നിയന്ത്രണങ്ങൾ
മാണിയെ
നിർദ്ദേശങ്ങൾ
##നഗറില
ജനവാസ
സെമസ്റ്റ
പന്ത്രണ്ടു
സൃഷ്ടിക്കാൻ
പ്പന്നങ്ങള്
##ക്കപ്പുറം
ട്രസ്റ്റി
##ാറിലെ
ആരോഗ്യത്തിനും
സോണ
##ിക്കട്ടെ
വയോധികനെ
അടയ്ക്കാന
##േതര
വിക്ഷേപണ
ജഴ്
തുണയായി
സമുദായത്തെ
ജോളിയെ
മോഹൻദാസ്
പ്രവർത്തനത്തിന്
പണയം
##ക്കൂറ
##വുമൊക്കെ
ലേഖകന
അന്ത്യയാത്ര
ന്യായീകരണ
ശ്രമങ്ങൾ
അടുത്തകാലത്ത
ഇന്ത്യയ്
##തുടങ്ങിയ
അമർത്തി
പുതുതലമുറ
ഹോസ്റ്റല്
##കർത്താ
പതിപ്പുകൾ
വർദ്ധനവ
ധാന്യ
ട്രയല്
ഗുരുതരാവസ്ഥയില
വക്കീലന്മാരു
ചിറ്റാരിക്കാ
ചന്ദ്രയാൻ
എസ്സിന്റെ
വൃക്കരോഗ
അതെല്ലാം
പഞ്ചാബിലെ
കരുതിയത്
ഫോട്ടോഗ്രഫ
കാറ്റിൽ
നേട്ടങ്ങൾ
മുതലാളിത്ത
അറിയിക്കും
വിഭാഗങ്ങള്
##ദള
കോതമംഗലത്ത്
ചേർക്കാൻ
##ായിരുന്നുവെന്ന്
കൈറ്റ്സ്
കോട്ടവും
ഉൽപ്പന്നങ്ങൾ
##ല്ലാവരും
##െയ്ന്
നടപടികള
പൊതുവിതരണ
സീരിയല
മിലിട്ടറി
മുഖംമൂടി
ശ്രേയസ്
വിതുമ്പി
വെങ്കല
ഭാഗത്തെ
കവിളിൽ
കനക്കുമ്പോൾ
ലത്തീന
##മാമ
ഇദ്ദേഹത്തിന്റെ
എൻജിന
##സാമ്രാജ്യ
##ത്തിനോ
കുരിശടി
##ിനകത്ത്
കങ്കണ
സമ്പന്നര
മുതലാണ്
ദേവനന്ദയ്ക്ക
##ുകാരന്റെ
ഹൃ
ജലാശയ
ആരോഗ്യകേന്ദ്ര
ഇയര്
കുടുംബങ്ങളെ
കാപ്പന്
നടന്നതായി
ധാരാളമായി
പ്രകാശം
വ്യോമ
ഫ്രാ
മഹാനായ
ആമി
വോട്ടും
##ാധിഷ്ഠിത
ട്വിസ്റ്റ്
##ാക്ഷര
##ദ്വീപ
രാഷ്ട്രീയകാര്യ
കുട്ടികൾക്കു
ഇല്ലാ
ചലച്ചിത്രോത്സവ
റേറ്റിംഗ
ആശ്വസിപ്പിക്ക
ചൈൽഡ്
വിപരീത
ഫറൻസ്
പ്രായപരിധി
##ക്കൊലപ്പെടുത്തി
വെയിൽ
ഐഎസ്എല്ലില
മേൽപ്പാല
##ബ്രി
സഹകരണസംഘം
ഇരുള
ക്ഷേത്രത്തിന്റെ
പാറശാല
##സ്വപ്
യൗവന
വലച്ച
സ്വാധീനത്തിൽ
ഫോട്ടോഷൂട്ടിനെ
മെഡല
പേജില്
മോളെ
വിഭാഗത്തിന്റെ
ഉച്ചക്ക്
മൂന്നോ
അമ്മയായ
ഷംന
സന്തോഷമായി
കണക്കാക്കുന്നത്
ഉപഭോക്താക്കള്
##ിലുമ
ജഗ്
പുറത്തായി
കൊടുക്കണം
അസുഖങ്ങള്
ഈശ്വരന
ഉപയോഗവും
ഓൺലൈനിൽ
പന്തീരാങ്കാവ
പ്രീമിയർ
മാന്നാർ
നിക്ഷേപങ്ങൾ
പതിനൊന്ന
ലക്ഷ്യമിടുന്നത്
വിളവെടുത്തു
ചുരത്ത
ദുരിതബാധിതര
കീശ
ജോലിക്കു
കുക്കി
മരിച്ചനിലയില്
അഴിക്കുള്ളില
##വ്യൂഹ
അധികാരത്തിൽ
ആരോഗ്യപരമായ
ഉമര്
പ്രദേശത്ത
അറിയിച്ചിരുന്നു
കണ്ടെടുത്തു
##മാകില്ല
റീജ
പെരുപ്പിച്ച
കൂട്ടായ്മയുടെ
മുക്കിയ
നീലേശ്വരത്ത
കലാപത്തിലേക്ക്
ചൂട്ട
##കാഴ്ച
തെന്നി
ദിനത്തിലെ
കംപ്യൂട്ടർ
വൈദ്യുതത്തൂണ്
അങ്കമാലിയിൽ
ഇരുചക്രവാഹന
ലേസർ
##ാറുണ്ടോ
ലോകക്കപ്പ
പാർട്ടികൾ
##ത്തുനിന്നും
കയ്യോടെ
##സാമഗ്രികള
അഴിമതിക്കെതിരെ
പുറത്തുള്ള
കൂട്ടുകാരന
ത്തിക്കുന്നത്
ക്യാച്ച
ഗൂഗിളില്
##അവതരിപ്പിക്കുന്ന
നൽകേണ്ട
ആശയവിനിമയം
എവിടെയും
ജപ്പാനിലെ
ചിതറി
താതാ
കണ്ടെത്തൽ
ഗ്യാലറി
പങ്കാളികള
രസം
സാഹിബ
##കളൊക്കെ
ബാര
കുട്ടികളുമായി
കൊളസ്
കമൽഹാസൻ
ജനരോഷ
മതമൈത്രി
ഹൈലൈറ്റ്
ചെയ്യുകയോ
ഷെയറുകള്
ജോജു
##ത്തുടങ്ങിയ
ഡയറക്ടറെയും
ചെക്
ബോധ്യപ്പെട്ട
മിത്ത
കട്ടപ്പനയിലെ
##ോൾഡ്
##ക്ലബ്
നൽകുന്നതിന്
നോൺ
##തല്ലാതെ
തെറ്റായി
മ്യൂസിയ
ജോണിന്റെ
ഫുട്ബോള
നിങ്ങളോട്
എംടി
രൂപതാ
നിറുത്ത
ബഷീറിനെ
##ശേ
കൃപേഷിന്റെ
ശ്രീകാന്ത്
അനുവദിക്കാതെ
പെർമിറ്റ്
പുരുഷന്മാര്
വേണുഗോപാല്
തുടക്കത്തിൽ
വിജയചിത്രം
കാണിക്കുക
മടങ്ങിയെത്ത
ബസുകള
തുടരാൻ
തയ്യാറാക്കുന്ന
വയറ്റില്
ചുരുക്കി
കിടപ്പുമുറിയിൽ
ടീമുകള്
##കുടുംബാംഗങ്ങളുടെ
മകനായി
വമ്പന്മാര
മോന
##കേസിലെ
കാറിന്
സൗഹൃദത്തിന്റെ
ഡെമോക്രാറ്റിക്
കൈക്കൊള്ള
കടകള്
രഥ
എത്തുമെന്ന
പരിസരം
സൂക്ഷിച്ചു
മിക്കുന്ന
കള്ളനെ
പ്രസന്ന
എഞ്ചിനിയർമാര
ബെയ്ജിങ്ങ
ത്രേസ്യ
വ്യാഴവട്ടങ്ങള
##കുളിക്കാനിറങ്ങിയ
സ്വന്തമായ
തണ്ണീർക്കുട
ശ്രീശാന്ത്
നിത്യാനന്ദ
ന്യൂസിലാൻഡ
പുസ്തകങ്ങളുടെ
ക്രമേണ
ഉലമ
റേറ്റിങ്ങ
മാതാവിന
##ാശംസകള്
കരീം
കമ്മീഷനു
ബജറ്റില
##ിരുന്നതായി
പോലൊരു
##ുമായിരുന്നില്ല
വില്യംസണ
##മിക
##കോണ
പ്രഖ്യാപനത്തോടെ
##വകുപ്പിന്
ശാക്തീകരണം
ക്കാരില്
ടോള്
പേരുള്ള
##കൊണ്ടേയിരിക്ക
##വൈദ്യ
കുട്ടികളില്
##പെയ്
പറഞ്ഞിട്ടില്ല
വനിതകൾ
കത്തീഡ്രൽ
മുഖംമിനുക്ക
പെരുന്നയിലെ
പൊലീസില്
മാതൃകയില്
ഇല്ലായിരുന്നു
മനീഷ്
യാത്രികന്
ജീവികള
അറിഞ്ഞിരിക്ക
പറയില്ല
##ങ്ങളെപ്പറ്റി
നൽകുകയും
ററിന്
അകലെയുള്ള
ഒന്നിനു
കരാറുകള
ശീ
ചേട്ടാ
മോള്
മംഗല്
##നിർമാണ
കഷ്
കൈകൾ
അന്നേ
##ായിത്തീര
##ഭക്ഷണ
വെണ്ട
അലുമിനിയം
സന്നിധാനത്ത
സാഹോദര്യ
ഹെൽമെറ്റ്
താലിബാൻ
മാളവിക
സംതൃപ്തി
വേറൊരു
ഉയിർ
ഇഴയുന്നു
ആക്രമണങ്ങൾ
നഷ്ടപ്പെടുത്ത
മാർക്കറ്റിംഗ്
##പിരി
ബാലചന്ദ്ര
പതിനാല്
##യായാണ്
##ശ്ര
പൊതി
റിംഗ്
കരാറിൽ
സ്മിത
കാതെ
അവതരിപ്പിക്കും
ക്രാ
സുമായി
കേന്ദ്രങ്ങള്
##ങ്ങളിലൊന്നാണ്
കഴിവിനെ
അഭിമാനമായി
##നായുള്ള
സ്വാധീനിച്ച
വാട്സ്
ഭഗവാന്
മത്സരിക്കുന്ന
##കുറിപ്പ
മാന്യ
ഒളിംപിക്
അയോദ്ധ്യ
ദന്പതികൾ
ചാമ്പ്യൻഷിപ്പ്
പൂന്തോട്ട
ബോസിലേക്ക്
ആദരിക്കലും
പരിചയം
ചാണക്യ
നിലവാരമുള്ള
പങ്കുചേര
പാലിക്കണമെന്ന്
മത്സരത്തിനിടെ
ബിസിനസ്സ്
##വസ്തുക്കള
##ത്തോടുകൂടി
##ബന്ധങ്ങള
##റാണി
##മാതാവിൻ
അഡി
പാഴാക്ക
കൊഴുപ്പ്
പ്രതിയായി
പ്രസിഡന്റും
ഇടങ്ങൾ
ശരീരവും
ഏവരും
വേനലിൽ
മ്മനിയില
അവരാക
നായികയായി
തുടർന്നാണ്
പരിശോധിക്കുന്നത
തിരഞ്ഞെടുത്തത്
പ്രസിഡണ്ട
##രുവനന്തപുരം
ഡിറ്റക്ടർ
മഹാരാജാസ്
രൂപശ്രീയുടെ
അനന്തപുരി
നേതൃത്വത്തെ
അധ്യാപകര
ഭാരതി
മറ്റൊരാൾക്ക
പ്രദേശങ്ങളിലെ
വിഴുങ്ങി
പ്രിൻസിപ്പലിനെ
സുരേന്ദ്രന്റെ
പുഴയോരത്ത
നല്ലതല്ല
മലയാളത്തിന്
വീസില്
##വത്സര
ആരുമില്ലാത്ത
നേർക്ക്
സ്വാദ
##ുന്നതിനിടയില്
##തിരിച്ച
ആശാന്
രാജ്യമായി
തരത്തില
വാജ്
##യുമായിരുന്നു
ഗുരുക്കന്
അട്ടിമറിക്കാൻ
വിക്രമ
മാണത്തില
ഫേസ്ബുക്കിലൂടെ
കൃതികള്
##നൂറ
കവിഞ്ഞ
പ്രചരിക്കുന്നത്
ലിഫ്റ്റ
സ്വീകരിക്കുമെന്
മണപ്പുള്ളി
മിനുക്കുപണി
പിറവത്ത
നെയ്മര്
ണ്ണാടക
മേലുള്ള
മറ്റേ
ഫൈവ്
അദ്ദേഹത്തിനു
പലരുടെയും
ചെന്നൈയിന്
മൂസയുടെ
കൂട്ടുകാരൻ
മാറ്റാനുള്ള
വിവരശേഖരണ
ലീഡറാ
ആനുകൂല്യങ്ങൾ
സംഘാടകസമിതിയായി
ആരോടും
നത്തിന്
ചൂണ്ടിക്കാട്ടിയ
ഉദാഹരണം
താജ്മഹല്
അഭിമുഖത്തില
തുറമുഖത്ത്
തിരച്ചില്
ഒരുലക്ഷം
തോമസിന്റെ
കാവിലെ
സംസ്ക്കാര
പൊതിഞ്ഞ
മഠത്തിൽ
വേഡ്
##ലൊ
രാഹുല
അപമാന
##വെട്ടി
##ഷധസസ്യ
വെറുതേ
മാരത്തണ്
ഉദ്യമ
തുറന്നുപറഞ്ഞ
ഉത്ഭവ
വെള്ളായണി
ട്രെന്റ്
ഷമീ
ക്ഷമിക്കണമെന്ന്
ഷ്യം
ആരാണ
ഓസ്കർ
പട്ടികയിലെ
മരങ്ങൾ
മുലയൂട്ടുന്ന
പ്രഥമാധ്യാപകരുട
പരാജയപ്പെട
ഫീച്ചറ
##സ്മരണ
ഇനിയില്ല
രോഗങ്ങളെ
ഒപ്പിട
അനിയന്
സിറ്റിസണ
ഗ്രസിനെ
ഫയർഫോഴ്
വിതരണക്കാര
##വരുണ്ട്
ക്ലാസിൽ
തലസ്ഥാനമായ
കേട്ടാല്
വെസ്
അരച്ച
##യിലെത്തുന്ന
ചുംബിച്ചത്
##യിനം
വലിച്ചെറിയുന്ന
ദേശായി
ആംബുലൻസ
##ടകം
മഴവെള്ള
സ്റ്റൈല്
വിദേശത്തു
അത്തരമൊരു
ഓംബുഡ്
സസ്പെൻഡ്
സ്റ്റാൻഡേർഡ്
മൈതാനിയിൽ
വയറുവേദന
കുറ്റബോധം
കുഴികള്
കാരറ്റ്
വക്കീല്
ചിക്കന്
ഈടാക്കുന്ന
ഇളവൂരില
ഷത്തിനുശേഷം
അനുമതിയില്ലാതെ
ബ്ലോഗെഴുത്ത
##മായിരുന്നില്ല
നടക്കാത്ത
പിന്നേ
##സ്ഥാനികളുടെ
കടയില്
##ചെയ്യുക
വൈദികനെ
##ച്ചാല
##പ്രകടന
കൗണ്ടി
നിയോഗിച്ചു
ഓട്ടാ
ആചാരങ്ങള
കന്യാസ്ത്രീകളു
ലെന്
സിറിയൻ
അവഗണിച്ച
സംവിധാനങ്ങൾ
സമരക്കാരെ
മാക്സ്
ഭാർഗ്ഗവ
യുദ്ധവിമാന
വിമുഖത
കാഞ്ഞിരമറ്റ
ഇതിനോടകം
കുടുംബത്തെയും
ബാലസാഹിത്യ
കൃഷ്ണദാസ്
അഭിമാനിക്കാം
രാഹുലും
അവസരമാക്കി
##മാണെന്നാണ്
യാത്രക്കാരനെ
താജ്
സ്റ്റേഷനുകളില
പ്രസംഗത്തില്
നോണ്
കഥാപാത്രങ്ങൾ
##പ്രദര്
പിടിച്ചപ്പോൾ
പ്രയോജനപ്പെടു
ആറടി
##ങ്ങിനെ
പറക്കുവാ
അച്ചടക്കത്തിന്
ചെറിയാന്
മദ്യവുമായ
ഉണ്ടാകുമെന്ന
ത്തിയില്
##പ്പാടി
മാഗസിന
രാജിവച്ച
കളനാട്
സമ്മ
സദസ്സ
ഹോട്ടലിലെ
വരൻ
വായിൽ
ഉടമകൾ
ലിയോ
ചന്ദ
നാടെന്ന
ശ്രീലങ്കന്
##യിലൂടേയു
കാൽക്കുലേറ്റർ
കോർപ്പറേഷന
ഭൂരിഭാഗവും
യുവതീയുവാക്കൾ
എൻആർസി
മിന്നൽ
മറാത്തി
കൈയെഴുത്ത്
ഗ്രസ്സിന്
മെമ്പർ
കമ്മീഷണർ
അലൻ
സജീവമാക
പെൺപട
പഞ്ചായത്തുകള്
മേപ്പാടി
ശിവക്ഷേത്രം
ന്യൂയോർക്ക്
ചികിത്സിച്ച
ഉപയോഗിച്ചാൽ
നഷ്ടമാക
കണക്കിലെടുത്ത്
ഫോണിലേക്കു
ഇല്ലാതിരുന്ന
മൂഡ
ഇബ്
ഗേള്
നിബന്ധനകള്
മാറിനിന്ന
ഒളിച്ചോടി
മോന്
##നന്ദ
മേഖലകളിലും
ചേത
##സംബന്ധ
പ്ലാന്റ്
കുതിച്ചു
ഉറക്കി
പെടുത്ത
ഒമ്പതിന്
കൈറ്റ്
##നല്കി
മൃതദേഹത്തില
സുനി
ഐഇഎ
സമരക്കാര്
സന്ദേശവുമായി
പ്രോസസ
ഇന്ദു
##പ്പിറവി
ഇസ്താംബുള
ഉപജ്ഞാതാവ്
ബിരുദധാരി
പുല്ലമ്പാറ
ബസിനുള്ളിൽ
സ്ഥാപിക്കാന്
തട്ടുകട
റൗണ്ട്
വാർഷികാഘോഷം
മാധ്യമങ്ങളോട്
കാരുണ്യം
നിലത്ത്
സാമ്പിള
##ബാന
സ്വീകാര്യ
തലപോയ
ഡീസ്
നടനും
##ക്കുറ്റ
ഫെബി
##മ്പാട
കുംഭമാസ
##രുന്നെങ്കിൽ
##യേറിയ
##യാവുന്നു
മാസികയുടെ
പരിപാലനം
സരസ
അഭിനന്ദിക്ക
രാഹുലിന്റെ
##രുപ
ബോധപൂ
താലിബാന
മജ്
##റിസ്
റിലയൻസ്
ഓട്ടോഡ്രൈവറ
ഫെഡറല്
##മുക്ക്
നീതിന്യായ
നടത്തിവരുന്ന
ശിഖര
വോട്ടെടുപ്പ
അറിയിപ്പ
ലോകത്തെവിടെയ
വെങ്കിടേഷ്
തിരൂരിൽ
പ്രളയത്തില്
വരുത്താന
ഷീറ്റ
രാജിവെക്ക
സ്ഥാനമില്ല
വീട്ടുമുറ്റ
സുശീല
##തുതന്നെ
യേശുദാസ്
##മ്പള്ളി
ഭായി
പഠനോത്സവ
പള്ളികൾ
##ത്തെക്കുറിച്ചും
പീറ്റേഴ്
കുളിച്ചു
നേടുന്നു
പുറത്തുവന്നത്
ഐക്യം
പ്രണവിനെ
ഇബ്രാഹിംകുഞ്ഞിന
##യങ്കര
ഫലമാണ്
തകർക്കുന്ന
സംഭാവനകള്
നിർണ്ണായക
കുഞ്ഞിനു
മത്സരങ്ങളുടെ
ഇളവുകള
കുറ്റപത്ര
വീടുകള
ട്രക്ക
മൃത
##മണിക്കൂറിനുള്ളിൽ
ഭരണകൂടത്തിന്
അപകീർത്തികരമ
അനുവാദ
റസിഡന്
##ട്ടിക്
##സമ്പത്ത
നിയമപരമായ
##വീഴ്ച
യേഹ്ശുവാ
സപ്തംബറില്
ഠേശ്വരം
ചീറ്റ
കാണാനും
രക്ഷിക്കാനുള്ള
ഞായര്
##മിറ്റ
##സ്മരണയില്
പിന്നിട്ടിട്ടും
നോട്ടീസ
##ാബാദ്
ചൂണ്ടുന്നത്
മാത്യൂസ്
ഒരാൾക്ക്
##ക്കോളൂ
തൂക്കിലേറ്റും
ഹൃദയത്തെ
ട്രെയിനിങ്
കായൽ
ബസിനെ
സ്മാർട്
##യർത്തുന്ന
##ൊഴിവാക്ക
നിൽക്കുന്നത്
കോടതിക്കു
##പരാ
ഗ്രാഫിക്
ആഘോഷങ്ങൾ
വിനീത
പ്രാവ
##സുഖ
വസ്ത്രങ്ങള്
ദേവനന്ദയുടേത
സ്റ്റീൽ
സ്കൂളുകൾ
നിയമസഭയിൽ
ദിവസങ്ങളില
രാത്രിയാത്ര
മകൾക്ക്
സ്ഥലത്തെ
ഇക്കാ
രാഹുലിനെ
സുരേന്ദ്രനും
പ്രതിരോധിച്ച്
നിസ്സഹായ
തനതു
ബൈപ്പാസ
സുമേഷ്
ഗണ്യമായ
ജൂണിയ
ഒളിവിൽ
നികൃഷ്ട
കുടിച്ചു
##നിക്ഷേപ
അറുപതാം
പിന്നിടുമ്പോൾ
പ്രിയങ്കയും
തടസപ്പെട്ടു
ബാധിതരുടെ
മാതാപിതാക്കളെ
##കഥാ
മുഹമ്മദലി
ഇന്ത്യയില
ചടങ്ങുകൾ
##ബോർഡ
##ക്കുഞ്ഞുങ്ങളെ
നാട്ടിലെത്തിയ
ശർമ്മ
##താക്കൾ
സമ്മാനിക്കുന്ന
ദിവസത്തിനുള്ളില
ഹർജിയിൽ
##ിനുമിടയിൽ
##ചെയ്
തൃശൂര
##മുണ്ടാവ
##ത്താഴ
രാഷ്ട്രീയത്തിലെ
##ിംങ്
താമസിച്ചിരുന്ന
സുതാര്യത
ദുരൂഹമരണ
##സംഗ
കെകെ
ഇറങ്ങുന്ന
പേടിച്ച
നഴ്സായി
കാരനെ
തന്നോട്
അഹ്മദ്
എലിമിനേഷന
തേവലക്കര
സംയുക്താഭിമുഖ്യ
നൽകിയിട്ടുണ്ട്
അവസ്ഥയില
മടവൂര
തിയറി
റാങ്ക്പട്ടിക
മറൈന്
പെട്രോള
നിയമത്തിനെതിരേ
പകർന്നു
വനംവകുപ്പ
പണിക്കർ
ബോസിലെ
മുംബൈയിലെ
മനോഹരമായി
നിന്നത്
നടപ്പാ
പവാര്
മതിയാവ
##ത്തെക്കുറിച്ച
ചുട്ടു
എറണാകു
മനുഷ്യർക്ക്
അലസ
റഹ്
ചാരി
സഹോദരന്മാര
ലൈനാ
നെക്
##ലൂര്
ഫോണും
ഓഫീസിനു
സുനില
പറഞ്ഞില്ല
##പുരുഷ
മാനേജിംഗ്
യൗവ്വനത്തില
താലികെട്ട്
ബഹ്റൈനില
ഹ്രസ്വചിത്രം
വാട്സാപ്പ്
പ്രവർത്തനമാരംഭി
മാനവികത
##ഫോൺ
മനസ്സിന്
##ൊഴുകുന്ന
പെപ്
സിസത്തിന്റെ
ശേഷിക്കുന്ന
നിർമ്മല
##പൂജയ്ക്ക്
അരങ്ങേറിയത്
രവീന്ദ്രന്
പിന്നിലൂടെ
ഭാവിയെ
കൊടുങ്ങല്ലൂര്
##ഴിച്ചു
നാളായി
യൗ
##ജലം
അതുല്യ
പൂനെ
മന്ത്രം
##കത്തും
തടയാം
##സുന്ദരി
കാറില
വിശുദ്ധൻ
കാരങ്ങള്
സ്വരം
ഫിന്
##ത്തേക്കാൾ
##പെര
##സിനിമ
ചെയ്തതായി
അംബ
മാച്ച
തുടരുമെന്ന്
ലഭിച്ചിട്ടുണ്ട്
കല്പിച്ച
##സമ്പന്ന
##മേഖലയിലെ
പുതുവർഷം
##ആർഎസ്
സ്വച്
ഓഫീസുകളില
ലഹരിവർജന
എല്ലായ്പ്പോഴും
ഒാഫീസ
ബ്ബാന
അന്നമ്മ
വിഷ്ണുനാഥ്
ഉയരക്കുറവ
സമാധാനപരം
എംപ്ലോയ്
രാപക
പട്ടേൽ
അണികള
ടിപ്പു
##ലക്കിയ
വെച്ചത്
ഇവരില്
പോസ്റ്റിന്
##പ്പൂവ
ഗ്രില്
അഭിനന്ദനങ്ങൾ
ഞെര
രോഗങ്ങളും
മറികടക്കാന്
പാലിച്ചു
ആരെന്ന്
വഷള
##േഷനും
കഥകളും
സ്വാധീനിക്ക
മരണവും
ഇത്തവണത്തെ
ദിക്ക
മിശ്രിതം
##പ്രതിസന്ധി
##ിലിടിച്ച്
##കാട്ട
തലപ്പത്ത്
പരിശീലിക്ക
ഖദീജ
ജയിംസ്
ശാശ്വത
രഞ്ജൻ
ലാവണ്യ
വിസ്മരിക്ക
വിലക്കിഴിവ
മാർച്ചും
വിലക്കേര്
ക്രിസ്തുമത
നഷ്ടപ്പെടുന്ന
കൂട്ടബലാത്സംഗം
വിമന്
താലിബാന്
നീക്കാൻ
മറയൂര
ജൂത
പാട്ടും
##വനിത
ജോർജ്ജ്
നടന്നുവരുന്ന
##ിടാൻ
ജൈവവള
ഭാമ
അടിച്ചമർത്ത
വിഭാഗങ്ങളെ
തയ്യില്
പത്മനാഭൻ
ഇതുവഴി
രക്ഷപെട്ടു
നടിച്ച
വികസനപദ്ധതി
ഭാഗമ
ത്തിക്കാന്
ച്ചവ്യാധി
ബ്ലോഗിലെ
ത്തനത്തിന്
ഫീച്ചറുകള
വിളിക്കണമെന്ന
സാധ്യതകള്
തീയിട്ടു
വാഹനങ്ങളില്
എസ്എസ
യോജിക്ക
ഷോപ്പിൽ
ഐതിഹ്യ
ഉണ്ടാകുന്നത്
ക്രെയിൻ
തിരിതെളിയും
റിയാദില്
റിസർവേഷൻ
ഗതാഗതനിയന്ത്രണം
വൈകുണ്ഠ
ചൂണ്ടിക്കാണിച്ച
##വെള്ളം
എടികെ
സബ്സിഡി
നാലായി
പിടിച്ചെന്ന്
എനിക്കറിയാം
പോലീസുകാരെ
പോകണം
മാറിയത്
മുഖങ്ങൾ
വർഗീയതക്ക
അറിയാമോ
നന്നാവ
ഗുരുവായൂര
ഡെല്
##ിലൊരാളായ
കന്പ
മേഷന
നാനായ
ചിത്രകാരന
ഇനിയൊരു
നൽകാന
തരൂ
ഹരിതക
അപ്പോഴേക്കും
കർണാടകയിൽ
##േന്തി
##ഹസ്ത
ആസ്ഥാനം
അർത്ഥം
കുഴപ്പം
മൂത്രം
##ാനാകുന്നില്ല
##മാകെ
നഷ്ട്ട
എന്നിവയില്
നൈന
പ്രവർത്തിയെ
സയനൈ
##പരിധി
ശ്രദ്ധയിൽ
റോയും
പൂജ്യ
അക്ഷരജാലകം
ഡ്രോയ്ഡ്
തരളിതയാക
മിസോറാമില
റൊണാൾഡോ
പ്രതാപശാലി
വിശദീകരിക്കുന്ന
വിവാദങ്ങൾ
##ദശ
മയ്യ
എടുക്കണം
വഴിതിരിച്ചുവിട
ഭൂമിശാസ്ത്രം
സൃഷ്ടിക്കുക
അയാൾക്ക്
ഇടവ
##ുറപ്പിക്ക
നിറത്തിലുള്ള
ഇതെ
പണിപാള
കണ്ടുമുട്ടിയ
വാർഷികാഘോഷവും
വൈദികരുടെ
##കളിലായി
ഫെസ്റ്റിവല്
സെപ്
##ിനകത്ത
##ൈക
സ്റ്റോറിൽ
കാലതാമസം
ഭീമ
##വീര്യ
ആധാറും
ഹോണ്ടയുടെ
##വഴുതി
സിറിയന്
##ോൽസവ
കോലാഹല
ഇടനാഴി
വെൽഫെയ
കടുപ്പിച്ച്
##ത്തീസ്ഗ
വാരാഘോഷത്തിന്
പ്രത്യയശാസ്ത്ര
അസ്വസ്ഥപ്പെടാന
വന്നില്ല
ആത്മഹത്യാശ്രമം
ജീവനക്കാരിയെ
##യ്ക്കുവേണ്ടി
മാനസികമായി
കുട്ടനാടിന
ഡച്ചുകാരന
അണിയ
പ്രമാണിച്ച്
കുഞ്ഞാലി
നടുക്ക
ഗായികയ്ക്ക
കൊടുക്കും
നിർദേശങ്ങൾ
##ാനാകൂ
ഇംപ
പൊട്ടിക്കരഞ്ഞ
ജോസിന്
സിദ്ദിഖിന്റെ
കേട്ടത്
##യേക്കാൾ
പ്രതികരിച്ചത്
കുരിശില
തേടുക
##വാടി
കാരണവും
ഉപയോഗിക്കുന്നവര
ഓർമകൾ
കോടതിയിലേക്ക്
##പ്പെടാതെ
ഭയപ്പെടേണ്ട
##പ്രഖ്യാപന
##ൊള്ള
ഗ്യാലക്
##ാതിരിക്കുന്നത
##ോടിയ
ചിത്രത്തില
പാചകവാതകം
ബ്രോക്ക
പ്രശ്നത്തിനു
ബുഖാരി
രതീഷ്
ഏറ്റുമാനൂര
സെലക്ഷൻ
ദിനേശ്
ലഭ്യമാകുന്ന
എടുത്തുകളഞ്ഞ
കഴിച്ചാൽ
കരിച്ചേരി
നിർത്തലാക്ക
തിരുവട്ടാ
സുമാരുടെ
ബാലാവകാശ
ഒന്നിനും
തള്ളിപ്പറയ
അനുനയ
സുരക്ഷിതര
മരണത്തിന്റെ
##നിഷ്ഠ
കരിപ്പൂരില്
ദിനാഘോഷവും
ഇരുട്ടില്
അളവില്
എന്തുചെയ്യ
സംശയങ്ങൾ
മാതൃഭാഷ
ഗോപാലകൃഷ്ണൻ
കത്തീഡ്രലിൽ
വെച്ചപ്പോൾ
നേതാക്കന്മാര
പിടിച്ചെടുക്ക
വെള്ളച്ചാട്ടം
സൂക്ഷിക്കേണ്ട
##ലിക
ആഗ്രഹിക്ക
പ്രിയരായ
##യിൽനിന്നും
എഴുതുമ്പോൾ
പാസായ
മാറാത്ത
വളം
ഫയല
ശ്രമിക്കുന്നതാണ
ജഡ്ജിയെ
ഇനിമുതൽ
##ബാബ
ഡെപ്പോസിറ്റ
ലബോറട്ടറി
ടിക്കാറാം
ഗോൾഡൻ
അമിതാഭ്
##ത്രിപുരാന്തക
ലൈബ്രറിയില്
സായിപ്പന്മാർ
##ാരാധന
##മാവുകയാണ്
ക്ലാസിക്ക
പ്രേരിപ്പിച്ച
മുഖമുദ്ര
പ്ള
പൊങ്ങി
കറ്റാ
കാരാട്ട്
ആരംഭിക്കുമെന്ന്
വൈറസിനെതിരെ
ജിഹാദ
##തൊട്ട
അവയില്
വീഴും
നിയമിക്കുന്നു
നിർമിത
##ബ്യൂ
കൊടുക്കുന്നത്
ട്ടിന്റെ
നമ്പ്യാര്
ഏറ്റുമുട്ട
അതുകൊണ്ട
കേള
കീഴടങ്ങ
സമയത്തു
##മാലിന്യ
##യിലെത്തിയത്
##െന്നാരോപിച്ച്
വ്രതം
മാറ്റിവയ്ക്ക
##ത്തോളമ
വിസ്തരിക്കും
വെള്ളിയാമറ്റ
ശുഹൈബ
പണപ്പിരിവ
കണ്ടീഷനു
##ക്ലൂബ്
സംവിധായകര
ഹോട്ട്
പരിശോധിക്കണം
ചക്രവർത്തി
ത്താല
നേതൃയോഗം
ലക്ഷദീപം
കുറ്റകൃത്യങ്ങള
സുബോധന
തകഴി
ഡോഗ്
ദേവാലയത്തിലെ
അട്ട
നിറവും
ഒളിച്ചിരിക്ക
ഇഞ്ച
ഷത്തിനു
കമ്മീഷ
പടരുന്ന
മഹോത്സവത്ത
മായാ
തെരേസാസ
ക്രൈംബ്രാഞ്ച
ചുവപ്പു
പിടികൂടാന
അവതാര
##യടച്ചു
തസ്തികയിലേക്ക്
പോകുന്നില്ല
ഡോക്ടറായ
നൽകിയിരുന്നു
##ിട്ടുണ്ടാകും
മാരി
കാലത്തു
വെല്ലുവിളിച്ച്
അട്ടിമറിച്ചു
റ്റേഷനില്
തുടങ്ങിയിട്ട്
തോമാ
കൗതുകം
##ുന്നതെല്ലാം
##യായാലും
യമുന
നെഞ്ചോട
കാലയളവ്
കോസ്റ്റ
കലാകായിക
സമ്പാദിക്ക
കലാഭവന്
നീലകണ്ഠപിള്ള
നികേഷ
ഇരുവരുടെയും
കരുത്തരായ
##കൗ
##െടുക്കാം
പനയ
ആയൂര്
പ്രാക്ടീസ്
##ികമായ
മാതാവിൻ
യഥാർത്ഥത്തിൽ
ആവേശത്തോടെ
സ്ഥലങ്ങൾ
പ്രളയത്തെ
ഉണ്ടെങ്കിലും
നേട്ടങ്ങളും
##ട്ടിയേക്കുമെന്ന
സ്റ്റിക്ക
അന്തരാഷ്ട്ര
നിലപാടില്
##ൊരിക്കലും
മാലിക്കാര
കാവി
##കാര്യക്ഷമമാക്കണം
ലക്ഷണം
ബഞ്ച്
റ്റേഡിയത്ത
അമ്മമാരുടെ
ഭീകരതയ്ക്കെതിര
ഗതാഗതത്തിന്
സ്റ്റഗ്രാമില്
ശൈ
##വിളിച്ച
സുസുക്കി
ഹ്യുണ്ടായ്
പങ്കെടുപ്പിക്ക
കൂവപ്പടി
ബാധിക്കുമെന്ന
പോലീസിനു
താരതമ്യേന
അന്വേഷിച്ചു
പാഠശാല
ജനജാഗ്രത
വെളിയ
വിഭവങ്ങൾ
അവസാനിക്കും
കളപ്പുര
ഹീറ്റ
കരുതിയിരുന്ന
നിലയിലേക്ക്
സ്ഥാപനങ്ങളിലെ
അരൂര
##മേനി
##മക്കള
പ്രേമം
ദ്വി
ചെയ്യല്
മേഖലകളിലെ
ദേവരാജ
മുമ്പാണ്
വികസനോത്സവം
ബാങ്കിലെ
ഇന്തോ
പ്രതിവാര
ഭാഗത്തുനിന്ന
ശ്രമിക്കേണ്ട
ഗുണഭോക്തൃ
മത്സരത്തില
കേന്ദ്രീകരിച്ച
ഭാര്യമാര
യോനി
സത്ത
ഓക്സ്ഫോ
കാശ്മീർ
സർക്കുലർ
കൈകളിലെത്തിക്കു
ന്യായീകരിച്ച്
പ്രയാണം
വിതരണോദ്ഘാടനം
ബാനർജി
ലിനക്സ
##നാമം
തിരിക്ക
##കളില്ലാതെ
സത്യാവസ്ഥ
സീസൺ
നൂറ്റാണ്ടിന്
പിഞ്ചു
ചേട്ടൻ
കണ്ടക്ടര്
കേൾക്കുന്ന
ഉത്പന്നങ്ങളുടെ
സേവനങ്ങളും
പതിനെട്ട
ഫ്രാറ്റ
ഇങ്ങന
##ിട്ടുണ്ടെങ്കില്
വയസ്സുകാരന്
##മാക്കാം
തുളു
സൊറ
നഷ്ടപരിഹാര
ലിങ്
കൊയ്ത
പതിപ്പിച്ച
എഐ
ഗാർഡൻ
തലവൻ
സൗകര്യവും
മണ്ണിന്റെ
ഡാര്
##യിഡ്
സംയോജ
ത്തകനെ
ബെയ്
ഷാവസ്ഥ
ഫലപ്രദമായ
##കൊച്ചിയിൽ
അജി
##റുത്ത
എസിന്
അക്ഷരശിൽപ്പത്തി
ഇരട്ടക്കൊലപാതക
##പ്രക്രിയ
പ്ലൂസ്
എറണാകുളത്ത
അഭിനേതാവ
സ്വീകരിക്കുന്നത
ഉല്പാദന
വിയന്ന
തയ്യാറാവ
കാലുകൾ
തട്ടിയെടുക്ക
ഫോണുകൾക്ക
##വാനി
##ുണ്ടാക്കാന്
നിലാവ
അങ്ങോട്ട്
സെറീന
നേര്യമംഗല
ചെയ്തിട്ടുള്ള
ദിനമായാ
അകറ്റാം
##സർക്കാരിന്
ഇലക്ട്രോണിക്സ്
മാഷുടെ
ക്വാഡൻ
##രഹസ്യ
ഒറ്റപ്പെടുത്ത
വിരിയ
പൂർണിമ
ആവേശത്തിലേക്ക്
കേസിന്
ഉത്പന്ന
##ഗീ
മാറ്റുന്നു
നെല്ലിക്കാ
മഹി
ഭിത്തിയില്
വനത്തില
##രാജ്യം
കൃതിയുടെ
##പിശക
ഇതിനുള്ള
വെള്ളമുണ്ട
ലേബർ
##ിട്ടില്ലെന്ന
##വെച്ചേക്കൂ
അപാകം
അവസരമൊരുക്കി
മാന്ത്രിക
വർദ്ധിക്ക
കോലിയക്കോട
നാടാര
##രാജാവ
കൈയോടെ
ഭർത്താവിനൊപ്പ
##ാശയ
കട്ടിയുള്ള
കേന്ദ്രീയ
രക്ഷാധികാരി
സ്ഥലംമാറ്റി
കൂട്ടിയിട്ട
യുണൈറ്റഡ
കണ്ടെത്തുന്നതിന
ബഡ്സ്
ടൈല
അറിയൂ
വീടുകളിലും
##പാളി
സെന്ററിൽ
##ലത്തുകര
ശ്രദ്ധേയമാണ്
വിശിഷ്ട
കമ്മിറ്റിയില്
ചോദിച്ചാല്
സീരിസ
ഗുരുവന്ദന
ജോസഫും
##സാന്നിദ്ധ്യ
വിക്കിസംഗമോത്സവ
കണ്ണീരിലാഴ്ത്തി
കോലാലംപു
നഗ്നരാക്കി
ഇലക്കറികള
ജനനേന്ദ്രിയ
ട്ടിക്കിള്
ബൗളര്
കാട്ടുപന്നി
സംരംഭം
ബാഗ്ലൂരില
ഇവിടേക്ക്
ഇരുവിഭാഗങ്ങള
##കേന്ദ്രത്തില്
ഇടംപിടിച്ച
കിടന്നവ
##ൈറ്റിസ്
ഐക്യരാഷ്ട്രസഭ
ഫീൽഡ്
മാസത്തേക്ക്
##കൊണ്ടുവന്ന
പ്രകോപനപരമായ
തവ
അത്തരത്തിലുള്ള
സാധ്യതയുണ്ടെന്ന
സാധിക്കില്ലെന്ന
കേളി
ഇരുപതാം
##ാവധി
##നടത്ത
പൊള്ളുന്ന
ഉത്സവവും
വോട്ടിംഗ
കൃഷ
കീര്
ഇക്കാര്യ
ബാബറി
##ഭൂത
##ഫിക്ക
അവകാശവാദം
ചൂടും
ചന്ദ്രിക
കടയിൽ
വാളുപയോഗിച്ച
കാലത്ത
നേഹിക്കുന്നു
ക്വാട്ട
ഉത്തരവിട്ടു
ജ്യേഷ്ഠന്
##ൊളി
പരിസരത്തു
മിച്ചു
ച്ചന്റ്
നിശ്ചലം
##വന്നത്
ഇൻഫർമേഷൻ
എലിസബത്ത്
ഒന്നാവണമെന്ന
ജപമാല
മദ്യനയം
സോഷ്യലിസ്റ്റ്
കുട്ടനാട്ടിലെ
ഡിപ്പാര്
##കുമാരി
ഫാൻ
ശരിയാക്ക
പാമ്പാടി
വക്കില
പൂജപ്പുര
സാധ്യതകളും
പ്രാരംഭ
ആരുമില്ല
തൊട്ടറിഞ്ഞ
ഒൗട്ട്
കളിക്കാന
തീവ്രവാദികളെ
ഉപരി
പുറകില
വർഷങ്ങൾക്കു
നീക്കങ്ങള്
എറണാകുളത്തേക്ക
തരൂരിന്
ആശ്വസിക്കാനുണ്ട
പിന്നിലുള്ള
##േയുള്ളു
വായുവില്
അഹമ്മദ
പത്രത്തില്
പ്രവാസികൾക്ക്
##മാറിയ
##കൊണ്ടിരിക്കുകയാണ
##കുടുംബങ്ങള്
കണ്ടെത്താനായ
ഓവറിൽ
ഖേദം
ദൈര്
സംശയങ്ങള്
പൂർത്തിയാക്കാൻ
കുടുംബത്തില്
##ത്തിലുണ്ട്
അഗസ്ത്യ
കോറിയോഗ്രഫി
പടിയിറങ്ങുമ്പോൾ
പോസിറ്റീവ്
ശാസ്ത്രജ്ഞൻ
കലണ്ടർ
അയ്യപ്പന്
ത്തനോദ്ഘാടനം
പീഡനക്കേസ്
വിഷരഹിത
അങ്ങോട്ടു
ഇത്തവണയും
അലർട്ട്
തൂക്കിക്കൊല്ലണം
വേവിച്ച
##പരിശോധിക്ക
മെഴ്
##യിടത്ത
വാക്കിന
കാച്ചി
##പിടുത്ത
ചെയ്യലിന്
സ്റ്റോറേജ്
സാഹസികമായി
സൗബിന്
ആശങ്കയോടെ
##ാവാൻ
##ായിരുന്നെങ്കില്
നടിമാരെ
##ഭല്
ആരംഭിച്ചിട്ട്
##ാവാന്
വിധത്തിലുള്ള
##ക്കുമെതിരെ
തെലുങ്ക്
മണ്ഡലങ്ങള
പ്രതികൂലമായി
വ്യാപന
തടവറ
##ിനുശേഷം
അസോസിയേ
ധിപ്പിക്കാന്
തിരുത്തിയ
കൂസലില്ല
ക്ഷമയുടെ
നവീകരിക്ക
വിശ്രമം
ബഹുമാനിക്ക
##സാഹ
പകല
##ണേൽ
സുബ്രഹ്മണ്യന്
കുറക്കാന
പത്തര
അധികാരത്തിലേറിയ
കലുഷിത
ക്രിസ്റ്റ്യാനോ
##വുമെല്ലാം
##കായ
##റിയാവുന്ന
മധ്യനിര
##ചർച്ച
ഇളയച്
കരടി
അറിയപ്പെട്ടിര
എട്ടുപേര
സംഘടിപ്പ
സ്ഥലത്തേക്ക്
##ൊഴികെ
എമിറേറ്റ്
പ്രസംഗങ്ങള
ബോട്ടിന്
##പലം
ഹരികുമാറ
ക്ഷമിച്ചു
ഉൾപ്പെടുന്നു
വള്ളുവ
##യിലുണ്ടായിരുന്ന
കൊച്ചുമകളു
അളവ
കാണിച്ചത്
ടീമിലേക്ക്
##ുറച്ച്
##പ്പില
##ക്കുവാൻ
സമ്മർദ്ദം
എടുക്കും
സീമാ
##പ്പെരു
ജൂറി
മഹാരാഷ്ട്രയിലെ
വാങ്ങുന്നു
വലയുന്ന
പാക്ട്
ത്തിക്കുന്നു
ന്യൂട്ര
അദ്ധ്യാപികയെ
അർധരാത്രി
ചര്ച്ച
റാമ
ജോലികള്
അണ്ഡാശയ
മോട്ടിവേഷ
ലിവർപൂൾ
പൊന്നോമന
വീട്ടുവളപ്പില
പ്രഖ്യാപിക്കണം
വരികയാണ്
ഹെലികോപ്റ്റർ
കൃഷിഭവന്
പ്രളയബാധിത
സാമൂഹ്യനീതി
##ുമൊത്ത്
ദേവസഹായം
ലെറ്റ്
കലാസാഹിത്യ
വച്ചെന്ന
എഴുത്തിന്റെ
മെയിൻ
പാഠ്യ
സ്ഥിരീകരിച്ചത്
നരകമായി
ഉണ്ടായിരിക്കും
ദിനംപ്രതി
ആറ്റുകാല
ആശങ്കപ്പെടുത്ത
##മ്പ്ര
കിയിരിക്കുന്നത്
കുറയ്ക്കാനും
അതിനാലാണ്
അരികില
ഹാസ
ഫയർഫോഴ്സ്
കൊണ്ടുവരുന്നത
##ാണീ
##ിലിറങ്ങി
റ്റാ
നിലപാടാണ്
കൊല്ലണം
കശ്മീരിന്റെ
തെളിയിച്ചപ്പോൾ
##കേശ
കമ്യൂണിറ്റിയിലെ
ഭയപ്പെടുത്തി
ഇവയില്
പ്രതിബദ്ധത
കലാലയങ്ങള
ശത്തില്
ഒന്നല്ല
പ്രതിഷേധത്തിൽ
പിൻഗാമി
വധശ്രമത്തിന്
ഹൃത്വിക്ക
സോൻഭദ്ര
പാലക്കയം
ഡ്രോയിങ്
ബ്രക്സിറ്റ
പോകണമെന്ന
##റ്റുമോർട്ടം
എംഎഎച്ച്
##യുണ്ട
##വകുപ്പിന്റെ
##മില്ലായ്മ
ആസാദി
തൃണമൂല്
തഹസ
##സമയ
ഫോടനം
പാസ്റ്റര്
വീഴ്ത്തിയത്
കേജരിവാളിന്
ഫ്രാങ്കോയ്
വിവരിക്കുന്നു
അറിവുകളും
എത്തുമ്പോള്
വെടിഞ്ഞ
##തുവരെ
അതിലൂടെ
മ്യൂ
ശുദ്ധീകരണ
അഹമ്മദാബാദില
ഡിഎഫ
മറ്റൊര
##ാകുമെന്ന
ശ്രീകൃഷ്
കണ്ണനെ
യുവമോ
##പരമ്പര
അത്യാവശ്യം
പ്രതിദിനം
ഉത്തരാഖണ്ഡ
ഉറഞ്ഞുതുള്ളി
റോഡരികിൽ
അർബൻ
ജംഗ്ഷനിൽ
സ്റ്റൈൽ
താഹിർ
നിത്യതയിൽ
ചരിത്രമെഴുതി
ശക്തമാവുന്നു
##കളേക്കാൾ
പ്രവചിക്ക
ടര്
വിജ്ഞാപനമായി
ശത്രുത
പ്രസിഡന്റുമാര
##ാറായ
ശ്യാമള
ചെയ്യില്ല
രോഗികൾ
##ഫണ്ട്
##യിലാക്കി
ജനക്കൂട്ടം
ദത്ത
ഭിണിയായ
ഗോപാലകൃഷ്ണന്
റേണ
മുപ്പത
തിരികെയെത്തി
ക്ലാ
സ്വർണവും
ഒഴിക്ക
ക്രിസ്ത്യാനിക്ക
പട്ടാളക്കാര
കാരത്തിന്റെ
##ചൊ
മിയ
അവാർഡ
മനോഹരം
ആഘോഷങ്ങളുടെ
കാരണങ്ങളും
പക്ഷത്ത
മിതമായ
സമയത്തും
ണമെന്റില
പുറത്തെടുക്ക
##സമൂഹവും
പ്രിയങ്കാ
കാറ്റഗറി
ബാക്ടീരിയ
ഭദ്രകാളി
ഭർതൃവീട്ടിൽ
സ്ട്രൈക്ക
അമ്പതു
താഴ്ത്തി
മറയ
##ൊല്ലിയവ
അഹമ്മദ്കുട്ടി
പരിവാർ
##പ്രദേശങ്ങളില
അലേര്
പീഡിപ്പിച്ചെന്ന
അബുവിനു
തല്ലു
##ലേക്ക്
##പുരോഗ
ക്കൊരുങ്ങി
##പ്പീ
ഹോണ്
ചെയ്യാനായി
വെളിയിലേക്ക
##ശ്ലോക
##ത്തേക്കാള്
സൂചനാ
ഉപജില്ല
##നാട്ടിലെത്തിച്ചു
അവിസ്മരണീയ
റില്
ചോദിക്കാനും
ഉയരമുള്ള
അടഞ്ഞു
പള്ള
കടമ്പ
പുഴുങ്ങി
വിളിക്കാം
##വിവരങ്ങള്
##നീഷ്യ
ലഭിക്കാതെ
ഡ്രൈവർമാർക്ക
നടപ്പാക്കില്ല
പുറത്തേക്ക
##ക്കെത്തിയത്
##രീഷ
സൗകര്യങ്ങൾ
##ുയർത്തി
നിർവ്വഹിച്ച
വിളികൾക്കൊടുവി
കഫീൽ
നജീബ
ഡോക്യുമെന്ററി
പോകുന്നോ
ബിനീഷ്
അടിത്തട്ട
ഐക്യദാർ
പക്ഷപാത
ജോൺസൺ
ശിവകുമാറ
തിരമാല
കലാശിച്ച
ജയരാജനെതിരെ
മാത്രമാകും
വെട്ടേറ്റ
വാരിയ
ലിപി
വായനക്കാരന
രചയിതാവ
ത്തിയാക്കാന
നിയമത്തിനെതിരായ
ഗണക
കാര്യാലയം
കോടികള്
##നമ്മമാര
ഗണിതശാസ്ത്ര
പ്രവർത്തിക്കാൻ
പെർ
ടോൾ
ത്ഥിയുടെ
##മേട്
വിമർശ
കുമ്മനവും
ക്ഷീരസംഗമ
റോക്കറ്റ
വീട്ടുകാരും
സഹോദരിമാര
##കുടുംബത്തോടൊപ്പം
നസ്ര
ഭീകരർ
##വിമുക്ത
തമ്പിയെ
എല്ലാവര്ക്കും
കോൺഗ്രസ്സ്
നിഴലില്
##ദ്യോഗസ്ഥ
പാകിസ്ഥാനില്
##സെന്റ
ആകാശവാണി
കാറഡുക്ക
കാലിത്തീറ്റ
ഗ്രോബാഗ
ഫ്രാഞ്ചൈസി
ഗോതമ്പ്
സപ്തതി
പ്രൊഫൈൽ
ബാഡ്മിന്റണ
മുസ്ലിംലീഗ്
സംഘട്ടന
സിദ്ദീഖ്
പ്രദക്ഷിണം
അവിടുന്ന്
അക്ബര്
ആകർഷിക്ക
##ഘടക
ഏർപ്പെട്ട
ട്ടന്
നിയമിക്കും
അഖണ്ഡ
പ്രഹര
പതിനെട്ടാം
സിൻസി
ഗാന്ധിജിയെ
##തെളി
പാക്കറ്റ്
##ാധാര
ഉയരുമ്പോൾ
കഴിക്കണം
ബാങ്കിങ്
ഭൂതകാല
മഹാഭാരത
മാലിന്യങ്ങള്
വിധിയില്
##ബ്ധ
##പ്രതിഷ്ഠയും
ദയാഹർജി
പ്രേക്ഷകപ്രീതി
ചാപ്റ്റര്
സ്ഥാപിതമായ
സപ്താഹയജ്ഞം
പ്രോട്ടീന
ചന്ദനമഴ
ലക്ഷ്മണ
##ാകൃതി
വിറ്റഴിക്ക
##ത്തുനിന്നു
പേരുകൾ
സൗരവ
കൗണ്ടറ
ഓപ്പ
പ്രതികൾക്ക
ഒരുത്തൻ
പിരിവ്
മാർക്കറ്റിൽ
കെട്ടിടത്തിൽ
റിഫോ
##പറന്പ്
അധ്യാപികയുടെ
വിജയവുമായി
ഒളിച്ചോട്ട
സ്കൂളുകളിലെ
ഷ്യല്
റിപ്പ
കാലയളവില്
താജ്മഹല
നാലുവർഷ
വധിച്ച
സംസ്ഥാനപാത
തീരുന്ന
ഭീമൻ
സ്റ്റേജ
നായരും
കൊഴിയ
കത്തുന്നില്ല
വാസു
##ാശംസ
ഡിലേക്ക്
ഡിജിറ്റൈസ്
ലൊക്കേഷനിൽ
ഫലസ്തീന
മത്സരയോട്ടം
ബ്രഹ്മാണ്ഡ
മസ്തക
പ്രളയക്കെടുതി
ഓണവില്ല
മണിക്കൂറിന്
##മീറ്റർ
ഓണപ്പൂക്കള
എൻജിനീയർ
ട്രൈക്ക
വീട്ടിൽനിന്ന
ജലവിഭവ
ശനത്തില്
ഉപജീവന
വേദികളില്
ചത്തു
താലൂക്കില്
##വാർത്തകൾ
മനോഭാവം
സിംഹം
ഹമായ
##മധ്യ
മിഷനില്
പയറ്റ
മസേന
അസംബന്ധ
##യുസി
ചെയ്യുന്നതായി
അഴിമതിയിൽ
അശാസ്ത്രീയത
വളയം
ഭക്ഷണത്തിന്റെ
അതിനൊരു
നീക്കത്തിന്
പിടിച്ചെടുത്തത്
വേർപ്പാട
മാത്രമാണ
നടപ്പാക്കും
ലൈംഗികത
##തിനെത്തുടർന്ന
സിദ്ധാന്തം
ചന്ദ്രന്റെ
ട്രെയിനറായ
ഹിന്ദുക്കളെ
##ലീസ
ഷകന്
പെൺകുട്ടികൾ
രഹസ്യങ്ങള്
കണ്ടെടുത്ത
കാംപയിന്
ജാഫറാബാദ
മുരളീധറിനെ
കരയുന്ന
ലുത്തിനിയ
ഫോളോവേഴ്
സുള്ള്യ
കാൻസറ
ക്ലൂബ്ബ
ശുദ്ധീകരിച്ച
നക്സല
ഇരുപത്തിനാല
എലിയാവ
മറ്റേതെങ്കിലും
അപകടക്കെണിയായി
ക്കരണം
തോവാള
ഒരുങ്ങുന്നത്
പെരുമഴ
ധരിച്ചില്ല
രാജീവ
ഫീൽ
കേസുമായി
ഐഎസ്എ
വയനാട
ത്താവിന്
സഹപാഠികളുടെ
മൈക്രോസോഫ്റ്റ്
പാട്ടുപാടിയും
അയോധ്യയില്
അനിശ്ചിത
ഇഡി
##ഫലങ്ങള
സെക്കൻഡ
##സംസ്ഥാന
രോഗമെന്ന
അശരണര
അദ്ധ്യായ
ലൈംഗീക
നിങ്ങളും
പ്രേമകഥയില
മൈഗ്രേ
##നേട്ടം
ബാലകൃഷ്ണപിള്ള
ഉപയോഗിച്ചാല്
##നേഷ്
ഞായർ
ബഹുനില
കണ്ടിരിക്കാം
മാർഗരേഖ
പശ്ചാത്തലത്തില
ഉണങ്ങ
ക്യാഷ്
എന്താണു
കോട്ടക്കല്
കുടിക്കുന്നത
പറ്റിയത്
വിഷമിച്ച
കരാറുകാരന്
##പ്രാപ്തി
ലോട്ടറിയുടെ
അറിഞ്ഞിരിക്കണം
യൂക്കോ
കാരണമാകും
യുഎൻ
വലിക്കണമെന്ന
താത്പര്യം
അധ്യാപകദിനം
നേഹി
ഫാഷന
ദിവസങ്ങളായി
വെസ്റ്റ
ധാരാള
വിജയന്റെ
ശേഖരിക്കുന്ന
റോഡുകളും
ആലോചനകള്
ജനങ്ങളോട
കേളക
ചെറുതും
ഓങ്ങി
മുന്നറിയിപ്പുകൾ
ഗ്രാമത്തിലെ
##ത്തുടർന്ന്
##മാണി
ശ്രദ്ധയ്ക്ക്
വേളയില്
സീറ്റുകൾ
താങ്ങാനാവത
വിളിപ്പേരുള്ള
ബൽറാം
പൊന്നോണം
ഷനു
സലിം
ചതുര
സ്റ്റേഷനുകള്
ജയവുമായി
ട്രംപിനായി
##സിഐ
കാമ്പസില്
തിരുഹൃദയ
പ്രകൃതിവിരുദ്ധ
സിനിമാക്കാരി
ദേശവിരുദ്ധ
##കൃഷ്ണഗാഥ
മൂന്നാംഘട്ട
പരീക്ഷണങ്ങള
പാർക്കിംഗ്
പരീക്ഷിക്ക
സ്വദേശിയുടേത്
വാക്കോടെ
വിരിഞ്ഞ
നിരയില്
സംസാരിക്കുകയും
ഗോവിന്ദന്
തെളിച്ചു
കുട്ടിയാന
മാവോവാദിയ
കൊണ്ടുവന്നത്
##ങ്കില്
കച്ചേരി
പേയ്
ഗോൾഡ്
അദ്ധ്യക്ഷത
ഗെയിംസില
##ർപ്പിക്കുന്നു
ആളിക്കത്തി
സഖാവ
##കളോടുള്ള
സംരംഭകർ
##പോഴ
പുസ്തകോല
##ശൈലി
ഉറങ്ങിക്കോട്ടെ
പൊട്ടികരയുന്നു
ഹയർസെക്കൻഡറി
വരവറിയിച്ച്
ഷാജഹാന
കൊന്നൊടുക്ക
വിറ്റാമിന്
മെഷിന്
പടിയിറങ്ങി
ഡൊമിനിക്
ജെഡിഎസ
വേഗതയിൽ
അഗളി
ബംഗാളിലെ
##യുണ്ടാവ
പറക്കും
ജീവനോടെ
നടപ്പാക്കാത്തത
പരിഹരിച്ചു
##ഗാഥ
പേർകൂടി
ഷർട്ട
അപ്പച്ചന
വരാലോ
അനുകൂലിക്കുന്ന
ചരിത്രപരമായ
കൃഷിയിടമ
പോർട്ട്
ഗ്രൂപ്പിൽ
വിറപ്പിച്ച
വിധിച്ചു
##മഹാ
##നായക
നെറ്റ
ദിവസങ്ങളിലായി
ലൈസൻസ
കളിച്ചാൽ
മെയിന്
പ്രത്യേകതകള
അജിത്തിന്
നിരക്കു
വയറും
സർവ്വേ
ടോമിന്
ഉയരും
വചനം
##വയല്
പ്രമേഹത്തെ
അഡ്രസുണ്ടാക്കി
കരിങ്കൊടി
നിഷ്കളങ്ക
ചേംബര്
##പ്രവേശം
നെല്ലിമൂട്
ദീപാവലി
ത്ഥസഹിതം
##വ്യക്തി
സുരക്ഷിതമായി
പീഡനത്തിനിരയാ
ഇബ്നു
ദുബായിലെ
കാണേണ്ട
കടിയേറ്റ
ശുചിമുറി
##െൻറ
തടസം
പൂട്ടാന
##കാണാനെത്തിയ
സുജോയും
വൈരുദ്ധ്യങ്ങൾ
വ്യാകരണ
കിസാൻ
പുറത്തിറങ്ങുന്ന
അനിശ്ചിതത്വ
ദണ്ഡ
പരമേശ്വരന്
##കലാശത്ത
ക്കിനി
##പ്പറയ
പ്രതിഷ്ഠിച്ച
മാറണം
വേഷങ്ങള
##െങ്കിലോ
പരിപ്പ
##വരോട
കുളിമുറിയ
ചോപ്രയുടെ
ധ്രുവ
##വുമില്ലാതെ
ഹോസ്
കുടിയ്ക്ക
വിശ്വാസവും
മരണത്തിനു
ജനറല
##കലശ
##പൂർത്തി
അഖിലേന്ത്യ
പുത്തുമല
രൂപകൽപ്പന
വിക്കിമീഡിയ
സമ്പുഷ്ട
സർജിക്കൽ
മെമ്മോ
ഐപിഎല്ലില
പകർപ്പവകാശ
ആശ്വാസമേക
കെജ്രിവാളിന്റെ
അത്ഭുതകരമായി
ഉപരോധിക്കും
##ക്കുനേരെ
കയ്പ്പ
##യാക്കുക
പദവികള്
സരസ്വതി
എഎസ്
ഗോശ്രീ
സ്റ്റീവ്
നെറ്റിയിൽ
പോപ്പ്
ഇവയെല്ലാം
ഇടക്ക്
ട്ടപ്പുകള
വാണിങ്
##മോഹന
രാജിവയ്ക്ക
സംസ്ഥാനങ്ങളിൽ
മുടങ്ങുന്നു
##ുകയാണെന്ന
ഡീന്
##തിനെതിരേ
ബോധവത്കരണവുമായി
ഉയർന്നത്
ബലാല്
സാമ്രാജ്യത്ത
ഡിജിറ്റൈസേഷൻ
പ്രദേശവാസികൾ
ലാപ്ടോപ്പ
ശമ്പളക്കമ്മീഷന്
ജൂലായ്
നിര്ദ്ദേശ
മുൻകരുതല
പൂത്തു
ബിജിബാല
ഹൗസിംഗ്
കനയ്യകുമാറിനെ
റൈനില്
ബിഹാര്
വ്യാപിക്ക
പറയേണ്ടി
##നന്മ
വിശേഷങ്ങളുമായി
ഇതോടൊപ്പം
അല്ലാഹുവിന്റെ
വ്രത
മാതാവേ
സദ്ഭാവന
ഭക്ഷണശാല
നിക്ഷേപകര്
ഓഹരികള്
പറയുന്നതും
മദ്യത്തിന്റെ
##ബാധിത
ചാമ്പ
ചരിഞ്ഞ
കൊടുക്കാന
നാലായിര
ഉസൈ
ഒരിടത്ത
ചെലവാക്ക
അരുവി
##ിംഗിന
മാതാപിതാക്കളും
##ുണർത്ത
ജോയിന്
പോലീസുകാരൻ
##ാദേവി
ട്രസ്റ്റിന്റെ
ഉറപ്പാക്കാന
പരിരക്ഷയും
കുഴഞ്ഞ
##കാരനും
അഷ്റഫ്
തീപ്പൊരി
വോഡാഫോൺ
സംപൂജ്യ
റെസ്റ്റോറന്റ
സഹ്യപ
ചാവേര്
മംഗളുരു
##ഏ
മൂളിയ
കുടിവെള്ളക്ഷാമം
ഭഗവാനെ
ജയചന്ദ്രന്
മഹാനഗരത്ത
സംസ്ഥാനങ്ങളിലെ
വേദാന്ത
മൂഴി
പാഠപുസ്തകം
വയ്ക്കുക
ശരീരഭാഗ
റെക്കോർഡിൽ
വിമർശനങ്ങൾ
വഴിയൊരുക്കി
##ച്ചുകൊണ്ട്
കുമാരി
##േർസ്
ഇല്ലാത്തത്
എത്തിക്കും
സൃഷ്ടിക്കുന്നത
അനക്കമില്ല
കൈകോർത്ത
മജിസ്
സ്ഥാപനങ്ങളും
മരുഭൂമിയില
##ാവശ്യപ്പെട്ട
നടപടിക്കെതിരെ
##തിലുപരി
ഒരുക്കങ്ങൾ
##ഷഭ്
തന്നെയുണ്ട്
ഫൈറ്റ
ഡയറക്റ്റ
##ാഞ്ഞിട്ട
എതിരായി
പ്പില്
ഐഎസ്ആർഒ
ഒട്ടുമിക്ക
നോളജ്
ഭക്ഷ്യധാന്യ
നിശ്ശബ്ദ
ഭൗമ
നിരൂപണ
പറഞ്ഞിട്ട്
##വുമായുള്ള
സഹകരണസംഘ
ജലവിതരണ
ഉത്പന്നങ്ങൾ
തിരിച്ചടിയായി
സുന്ദറ
ഓണമാഘോഷിച്ചു
മാർഗ്ഗം
വഴിയൊരുക്ക
ഭരിക്കുന്നത്
##ശാസന
അജിത്ത്
തുരത്താന്
ആഫ്രിക്കന്
ജനതാ
ലേഖനത്തിന്റെ
##യുണ്ടാക്കുന്ന
##ുന്നതിനുമുമ്പ്
അക്കൗണ്ടുകൾ
അകത്താക്കി
ഷനിൽ
സമാധാനവും
##യാകണം
##ുകയുള്ളു
മാറുമെന്ന
തുടരുക
നാക്ക
പ്രചാരണത്തിന്
നീട്ടിയ
സെപ്തംബർ
മുനീർ
മൂന്നിലൊന്ന
കടപ്പുറത്തെ
പരിഗണിക്കണം
കരിക്കകം
മരത്തില്
യാത്രപറഞ്ഞ
##വ്വനം
##വരുന്നത്
ഡാല
പ്പടെയുള്ള
മച്ചാട്
ബോൾട്ട്
നടപടികളും
പന്തളത്ത
##മാണത്
തൂവല്
പണ്ടാര
##മുണ്ടെങ്കിൽ
ക്യാൻസ
ക്കേണ്ടത്
വച്ചത്
വിലക്കയറ്റം
രോഗങ്ങളുടെ
##ദൃഷ്ടി
ഷാജിമോ
നിന്നോട്
മല്ലിക
ബംഗ്ലാദേശിനെ
മുറിവുകള
വളർന്നു
നിർബന്ധം
ഉപയോഗപ്പെടുത്തി
വെണ്
പരമേശ്വരൻ
ഇന്ദ്രധനുഷ്
ട്രഷറർ
പേരൂർക്കട
രാജ്യത്തുടനീള
സൂര്യാഘാത
പൗരസ്ത്യ
ഫോറെക്സ്
ഉദ്ധരിച്ച
സ്വീകരിക്കുക
ണ്ണമായി
കൂട്ടിയിടി
പൂവണിഞ്ഞ
മാമ്പിള്ളി
നവജാത
നടക്കാൻ
സഹസ്ര
ശ്രമിച്ചതു
##ഞ്ഞങ്ങാട്
സഹോദരങ്ങള
വർധിക്കുന്നു
രൂക്ഷമാക
എല്ലാവിധ
പ്ലാനുകള
രംഗത്തും
തറവാട്ടില
യോര്
അഹാന
രഥോത്സവം
കാണാതായിട്ടില്ല
തീരദേശത്ത
തിരുത്തല്
മാർഗ്ഗങ്ങൾ
കേട്ടാൽ
ബൂത്തിലെ
തനത്
നാട്ടിലിറങ്ങി
കണക്കിലെടുത്താണ
നിഗമന
മഞ്ജുവിനെ
ളക്
ക്ലാസുകാരി
##തുല്യ
ഏജന്റുമാര്
ഷഫാലി
ണറാകാ
മുൻനിർത്തി
പ്രസ്താവിച്ച
അറുതി
സുഗതൻ
മ്മിക
പ്രതിപാദിക്ക
##ൊരിക്കല
ശ്വേത
പ്രതിപക്ഷത്തിന്
മഹേന്ദ്ര
കുര്യൻ
തലമുറയുടെ
തീരുമാനവുമായി
ഇന്നുമുതൽ
ന്യൂജെ
പകച്ച
ലഹരിവിരുദ്ധ
ഡെന്
ഏഴുപേര
കണ്ടിട്ടുണ്ട്
പങ്കെടുത്തത്
നടപ്പിലാക്കാന്
നടിച്ചില്ല
പത്തി
ആരംഭിക്കുക
തയ്യാറായില്ല
ഷൈന്
സ്റ്റാഫ
വേസ്റ്റ
പള്
ബ്രൗസ
അവഗണിച്ചു
##സ്ഥിത
##ിനെപ്പോലെ
ആസ്വാദന
പാലത്തിൽ
##ാത്മാവ
സംഘങ്ങള്
അവതരിപ്പിക്കാന
സംവിധായകനും
തെക്കൻ
വെളിയില
സൃഷ്ടിക്കും
കുട്ടിക്കാലത്ത
ദുർഗ
അത്ഭുതപ്പെടുത്ത
പുറപ്പെടും
കരുണയുടെ
നാരി
അത്യപൂ
പ്രതിഭാസം
കാസർഗോട്ടെ
ക്ലിക്കുചെയ്യുക
തേഞ്ഞിപ്പല
ഭണ്ഡാര
സഹിഷ്ണുത
റിലീഫ
##പ്പോവുന്നു
എത്താം
മാസ്മരിക
കുറ്റത്തിന്
ഉജ്വല
##ങിന്റെ
കുരുവിള
ഷുഗ
##പ്പോകുന്ന
മരടിലെ
തന്ത്രങ്ങള്
യുവരാജ്
##ട്രിക്
ധരിക്കുന്ന
തുടങ്ങാൻ
സ്വദേശ
മെഹ്
ലോല
യന്ത്രങ്ങൾ
ഹെയ്
അധീ
പ്പിക്കല്
ആഴം
അഴിച്ചുവിട്ട
##യോള
ദോഷകരമ
ആലോചിക്കുന്ന
##വിരുന്നൊരുക്കി
വർഷങ്ങൾക്ക
മാഹി
തിയേറ്ററ
അനുഷ്ഠാന
കുറ്റവാളികൾ
സിംഗപ്പൂരിലേക്ക
കഥാകൃത്ത
ജിനീയറിംഗ്
നൂലാമാലകള
ബിഗ്ബോസിൽ
ദളപതി
ബാഗ്ദാദി
റിച്ചാര്
കൊള്ളാത്ത
സോഷ്യലിസ
ജനവിഭാഗ
മെട്രിക്
ഉപയോഗിക്കാനുള്ള
സാമൂഹികാരോഗ്യ
സമയത്താണ്
ദശക
ലാലിനെ
മറികടന്നു
##ഗതാഗത
മൂസ
എക്സ്പോ
നിലനിന്നിരുന്ന
പ്രതീക്ഷിക്കാം
മാറ്റിയേക്കും
അരുവിപ്പുറത്ത
പരിഭാഷപ്പെടുത്ത
ജാക്കി
കൊണ്ടാണോ
നിയമിക്കണം
അറിയില്ലെന്ന്
##കോഡ
മനസ്സിലാക്കുന്ന
മേലേ
മഴക്കാലത്ത്
ഹൈദര
ഉപേക്ഷിക്കണം
തെരഞ്ഞെടുപ്പിന
കാമറകൾ
രാജാക്കന്മാര
##ുകാരിയായ
ആളല്ല
##സംസ്കാര
തെലുങ്ക
ലഖ്
പിആറ
അമ്മമാര്
വ്യാസ
നോക്കുമ്പോൾ
കുടിയ
ഇരുമ്പു
മാഞ്ഞ
അസഹനീയമായ
വാഷിംഗ്ടണ്
കളക്ടറെ
പ്രമുഖരെത്തി
കതിവന്ന
സുധീരന്
ഇന്റർവ്യൂ
ഡെബിറ്റ
കളര്
ക്രമീകരണം
റോമിയോ
ചെങ്കണ്ണ
പണിക്കര്
കൈകാലുകള
ബാനറില്
ജഗദ
നസാക്ഷാത്കാര
രണ്ടാമന
##ാവതാര
ഷകസംഘം
സന്ദർശിക്കാൻ
ഇടത്തരം
ദുരന്തത്തില്
ഇന്നോവ
##ശേഷമാണ്
##ശേഖരം
ഇടിക്കൂട്ടി
മെലാനിയയും
ന്യൂഡ്
അടയാള
ചെറുക്കാന്
ടെസ്റ്റിന
വ്യക്തമല്ല
ബുക്കിങ്
##ാനുസൃത
മഹോത്സവത്തിന്റെ
##പ്പെട്ടിരുന്ന
ഇഷ്ട്ട
##കസിപ്പിച്ചെടുത്ത
പിൻവലിച്ച
ഉപേക്ഷിച്ചത്
ആറ്റുകാ
പോകില്ല
ഷാജിയുടെ
നദിയില്
കരുത്തും
വരാത്ത
അച്യുത
സംബന്ധിച്ചുള്ള
നടപ്പാക്കണമെന്ന
പ്രണയത്തിൽ
ബിഡിജെഎസ
മൗറീഷ്യസ്
വിടപറയുമ്പോൾ
പാവറട്ടി
ബോയിംഗ്
അവസ്ഥയിൽ
രജനികാന്തിന
പരിശീലകന്
##നുകൂല
ഒന്നുമുതൽ
പരിമിതി
ദ്ധക്യ
അതിക്രമങ്ങള
ലിമോ
മലേഷ്യൻ
ഗ്ഗീസ
സകലരും
ബ്രിട്ടനിലേക്ക്
പങ്കാളിയെ
പറളി
വെള്ളത്തിന്
കൊറ
പുസ്
കേസുകളില്
വികാരമാണ്
അലസി
കിടക്കാൻ
##ഫലവുമായി
തോൽപ്പിച്ചു
തന്നേ
##കളോടും
പഠിക്കാന
##ദ്ധ്യാത്മരാമായണം
കാസർഗോട്ട്
ജർമ്മനി
ചുനക്കര
ലാളിത്യ
പ്രതിപ്രവർത്തനം
ഫീച്ചര്
ഉളുപ്പ
മുൻഗണന
##മുത്ത
സൗരോര്
ഫ്രാങ്ക്
വയറിളക്ക
ഹൈലാൻഡ്
പ്രദേശവാസികള
തൃപ്തികരമ
മലയാളചലച്ചിത്ര
ഷട്ടറുകള്
കണ്ണുനീര
##കളോടൊപ്പം
പോയതോടെ
മസ്ജിദു
അവധിക്കു
വിളക്ക
വിമാനങ്ങൾ
അപകടങ്ങള്
##കൂറിലെ
ആകാനുള്ള
മതങ്ങൾക്ക
##ക്കമ്പനി
തളാ
ട്ടേജ
##മുഖ്യ
കാലത്താണ്
##നീതി
##പ്രതിഷേധത്തിനിടെ
ബംപ
ഡസ്
എടാ
ഗമയ
റദ്ദാക്കണം
##കടത്ത
##ങ്കിലും
ദമ്പതികളെ
കൂട്ടായ
നയിച്ചത്
ക്കുനേരെ
ഉമ്മൻചാണ്ടി
ചുമട്ടുതൊഴിലാളി
റിമാൻഡിൽ
കൊരട്ടി
വാലന്റൈന്
വ്യവഹാര
സതീശന്
അഗാധ
ജലനിരപ്പു
ബില്യണ്
ഇന്ദുലേഖ
ചാപ്റ്ററിന
ചാക്കിൽ
ഐതിഹ്യമാല
ട്രില്യ
മിക്കണം
വിക്കറ്റെടുത്തു
അനൂപ
സംസ്കരണ
ഭക്ഷ്യമേള
എന്താണെന്ന
ഫ്ലാറ്റ
പ്രൊഫസര്
സന്തോഷത്തിൽ
സ്റ്റൈല
സമർപ്പണവും
##ച്ചടങ്ങ
വിരിച്ച്
ഒന്നായ
വീട്ടുജോലി
ഹാജരായില്ല
##ുകയുമായിരുന്നു
പുൽ
അംശം
വേരുകൾ
നിബന്ധന
##മുണ്ടെങ്കില്
മസില്
ത്തിയതോ
##ദേശീയ
തിളങ്ങിയ
എട്ടിന്റെ
പുലരി
പിരിച്ചുവിട
ആലപിച്ച
എടപ്പാളിലെ
സഹമത്സാർത്ഥിക
കുങ്കുമ
മുന്നാക്ക
പ്രഭീഷ്
നയപ്രഖ്യാപന
സ്വന്തമാക്കുന്ന
കാസിം
##പരിശീലന
സമാധാനത്തിന്
ആറുമാസം
മഹേഷ
വർധിപ്പിക്കാൻ
യുദ്ധവിരുദ്ധ
##കീഴ
അകമ്പടിയോടെ
ട്രെൻഡ
ഒരുകോടി
കുടുങ്ങിയത്
നിറങ്ങള
ആഞ്ഞു
##റോയി
വിൽപ്പനയിൽ
##ന്മാരായ
ക്ലസ്റ്റ
കൃതികൾ
##യിലൂടെയാണ്
പുരോഹിതന
പേജുകള
വലിക്കാന്
ത്തുനായ
പ്പരം
സെടുത്ത
ഇടുക്കിയില്
ടീച്ചേഴ്
അഭിനയിക്കുന്നതി
ഒഴിപ്പിച്ച
രക്ഷകന
സഹായകരമ
എനിക്കില്ല
തൂവ
മഴയിലും
അവകാശങ്ങൾ
ആരോഗ്യപ്രശ്
ധീരത
ബന്ധങ്ങൾ
കാര്യങ്ങളാണ്
ഭാസി
പടന്നക്കാട്
ചിരിക്കുന്ന
വിനയൻ
കണ്ണൻ
ടൈറ്റാനിയം
ബദ്ധശത്രുക്ക
കുസാറ്റ്
സിന്ദൂരം
ട്വിറ്ററിലൂടെ
രാജശേഖരന്
ഓപ്പറേറ്റർ
എഴുന്നള്ള
തിരയുകയാണ്
ഒടുവിലത്തെ
വീണതോ
ദേവത
നന്നായിട്ടുണ്ട്
വയലാര്
##വ്യത്യാസ
##ാസുര
##ിനകം
കൊലപ്പെടുത്താന
സായിദ
##ുമായിരിക്കും
പുകഴ്ത്തുന്ന
നേത്രചികിത്സാ
##ങ്ങൾക്കിടയിൽ
നൂറാം
നടക്കില്ല
മുഖത്തിന്
കുറിപ്പുകൾ
തീരുമാനങ്ങൾ
സൃഷ്ടിച്ചത്
സെലിബ്രിറ്റി
പരസ്
ഉണ്ടാക്കാം
ആഘാതത്തിൽ
പൂരത്തിന്
ആഗ്രഹിക്കുന്നവര
##ൊരുങ്ങുന്ന
ആണുങ്ങള
ഫോണിലൂടെ
##ിടാന്
കീമോ
സെറ്റില
ട്വിറ്ററിൽ
കുട്ടവഞ്ചിയ
സെബാസ്റ്റ്യന്
ഹനീഫ
കുതിച്ചുയർന്ന
മൂന്നുപേരെ
ക്കാനും
കാലയളവ
ശാലിനി
മരുന്നുകളുമായ
രേഖപ്പെടുത്തിയത
തടഞ്ഞുനി
കർമ്മല
സംരക്ഷിക്കുന്നത
പറയാനുണ്ട്
അത്യാവശ്യമാണ്
പ്രദേശങ്ങളിലും
ക്കാത്ത
മർദിച്ചു
പള്ളികള്
##ുന്നയിച്ച്
അനുകൂലമായി
നശിക്ക
സ്വീകരണവും
ഒഴുക്കി
ആറള
വൈരുദ്ധ്യ
സ്ഥിരത
കരിങ്കല്ല
വിശദീകരിച്ച
പുറത്തേക്കു
ധിപ്പിച്ച
നാരായണന്റെ
സിനുള്ള
ഗന്ധം
ഭൂമാഫിയ
മാർപാപ്പ
കുമളി
നിര്യാണത്തില്
മൗലിക
നൂറിലേറെ
##ിരുന്നുവെങ്കിലും
നിഷിദ്ധ
റയൽ
ബിഎസ്എന്
നെയ്മറ
##ംകുന്ന്
പ്ലീസ്
റിസോഴ്
തറക്കല്ലിട
സ്വത്വ
സഞ്ചാരയോഗ്യമാ
ദൗത്യമായ
ചേട്ടന
ആക്രമണങ്ങളും
പ്പന്ന
##പറ്റിയ
ഒഴിവാക്കിയതില
ളൈ
നേരിട്ടെത്തി
പാപ്പാനെ
കാരുണ്യത്തിന്
പിന്നോട്ടില്ല
ആകാംക്ഷയോടെ
വിദ്യാർഥിയെ
കലാപരിപാടി
നടുക്കം
ക്കായുള്ള
തളളി
താഹയുടെ
ദ്ദിച്ചു
##ഭരിത
##പ്രദക്ഷിണ
അന്ത്യോപചാരമ
ഉരുൾപൊട്ടൽ
പാകിസ്താൻ
മെമ്മറി
ത്തോമന്
ദാഹജലം
അഞ്ചാമത
അവിട്ടം
സമൂഹവിരുദ്ധര
കള്ളക്കടത്ത
ബൈക്കിന
ബംഗ്ലാവ
പാഷാണ
മാസമായി
വിറ്റതിന്
വലത്
##കൂടുതൽ
കതിന
വിരോധം
കളിയില്
പരിചരിക്ക
##അഭിപ്രായപ്പെട്ടു
തന്തയ്ക്ക
ടെൻഡർ
അറക്ക
ശ്രീമൂലം
പാടില്ലെന്ന്
##ട്ടുപാറ
##ശില്പ
പുസ്തകത്തില്
സ്ഥാപിക്കാൻ
ഭീഷണിപ്പെടുത്ത
അടിസ്ഥാനരഹിതമ
ഒന്നുകൂടി
ബൗളിംഗിലു
ഉണ്ടാവുന്ന
മരക്കാര്
##ത്തെക്കുറിച്ചു
സ്കൂളിന്റെ
സവാരി
ദീപാ
പോളണ്ട
സംഭവത്തിന്
നിരൂപണം
എക്സിബിഷൻ
തൃണമൂൽ
ബാലഗോകുലം
യാത്രയയപ്പും
രാക്ഷസ
പത്മനാഭസ്വാമി
സെലക്ട
ചൊവ്വാഴ്ച്ച
തടയുക
കായലോര
ചെമ്പരിക്ക
അറിയേണ്ടത്
##ഒട്ടുമില്ലാത്ത
കാഴ്ചക്കാര
പാർലമെന്റ്
##നക്ഷത്ര
അധ്യാപന
കക്കട്ട
മാറാതെ
വിരിയുന്ന
##മനസ
ക്കേണ്ട
##റ്റേഡിയത്തിന്റെ
റീജണല
##മണ്ഡപത്തിൽ
നയന
ആരാണെന്ന്
കാതോലിക്ക
ചൂടിയ
ടാങ്കർ
മോണോ
##ശോഭ
പൂർ
ക്കൊരു
##മുനിസിപ്പാലിറ്റി
##യ്ക്കുള്ളിലെ
ചാരിറ്റബി
വയസ്സായ
ദിനമായി
ക്രമക്കേടുകള
ഉത്തർപ്രദേശ്
ഥാടകര്
തുഷാർ
റമളാന
പണമടച്ചു
ജലസ്രോതസ്സുകളു
കൃപേഷ
ഓടകള
വിശേഷം
നിയമപരമായി
നാളില്
##ങ്ങളടങ്ങിയ
മരത്തിന്
##കളായിരുന്നു
ട്രൈബൽ
തോൽപ്പിച്ച
ഇറാക്ക
എച്ച്എസ്എസ
ചന്തി
കമ്പോള
അബുവും
ലാലിന്റെയും
പരിഹസിച്ചു
നേടിയെടുക്ക
തലനാരിഴ
ബോട്ടിൽ
ആശ്രിതര
സെൻസർ
ഇറ്റലിയിലെ
കനത്തമഴ
##മാർഗ
##ക്കടുത്ത
മഷി
വലുതായി
ചുരിദാറ
ഉഭയകക്ഷി
എക്സലൻസി
ചുരുളഴിയാത
ജിനീയറിങ്
വൊക്കേഷണൽ
ഹനുമാൻ
സംഘ്പരിവാ
മാറ്റിയത
വ്യോമയാന
മൊട്ടേര
സ്പിരിറ്റ
കല്ലെറിയട്ടെ
പ്രളയദുരന്ത
നിർബന്ധമായും
പാഴ
ട്രംപിനൊപ്പം
എപ്പിസോഡ
നിജപ്പെടുത്ത
ന്നപ്പോള്
##യുണ്ടെന്നും
ഇറ്റലിയിൽ
മദ്യശാല
മുളക്
ഘട്ടത്തില
പാസ്റ്ററ
ചുരുങ്ങ
പ്പിച്ചത്
എത്തുമോ
കഴിഞ്ഞപ്പോള്
പൂക്കൾ
അനിത
ശ്രമങ്ങള
പോലീസുകാരന്
##മെത്ര
##ത്താറ
##വിലാസ
ബന്ധിച്ചു
##സഖ്യ
##സംഘത്തിന്റെ
അക്രമികളുടെ
മൂവ്മെന്
മരിച്ചിട്ട്
ബന്ധമില്ല
അന്യസംസ്ഥാനത്ത
ദളിതര
ചെയ്യുന്നവരും
ജാനകി
മത്സരത്തിലെ
അവധിക്കാല
##ുമടക്കം
ഒളിച്ചോടിയത്
##ങ്ങവേ
##ആളപായമുണ്ടായില്ല
പബ്ലിഷ
വെട്ടിക്കളഞ്ഞു
സത്യവാങ്മൂലം
പ്രൊഫഷണൽ
ഉപഹാരം
##വീട്ടിലെത്തിച്ചു
അലനല്ലൂര
അപമാനിക്കുന്ന
സുമേഷിന
ഹൈകോടതി
വിസ്മൃതിയിലേക്ക
##മാവണമെന്നില്ല
##നേഷൻ
ദ്ധരാത്രി
പരവൂർ
വ്യോമാക്രമണത്ത
പൊങ്ങിയത
ഓസ്ട്രേലിയൻ
##വ്യാപാര
ഫിറോസ
വിഷയത്തെ
നിക്ഷേപകർക്ക
നവവധുവ
അദ്ധ്യാപകന
എലൈക്
കവിതകൾ
യുവാവിനെതിരെ
ക്ലീന
##ിനെപ്പറ്റി
മെഡൽ
ആദരിക്കും
ആർദ്ര
വെബ്സൈറ്റിൽ
സന്ദ
ലഭ്യമാക്കുക
മറയ്ക്കാൻ
##കേസ
സ്ഥാപിക്കുന്നു
പൂനം
ഷോയില്
തേടിയെത്തിയ
##ച്ചാട്
പിതാവും
ഉപഭോക്താക്കള
ബന്ധത്തിന്
##ൺലോഡ്
അത്യാസന്ന
ഓട്ടോഡ്രൈവര്
നോമിനേഷന
ഉപഭോക്താവ
ബധിര
റഗ്ബി
സെൻസെക്സ
തൃക്കൊടിയേറ്റ
##വരേയും
എണീറ്റ
##േണ്ടിയിരിക്കുന്ന
കതിർ
ഹെറോയി
മോഷ്ടിച്ചത്
ക്ലീൻ
അബുവിനെ
കലാപത്തിലെ
നിസ്വാര്
ഉടച്ചുവാ
ഭീകരവാദത്തെ
സായിഗ്രാമത്തി
കണ്ടിരുന്നു
ഒന്നാമന
നവംബറ
പാഠാവലി
നിലയിലുള്ള
ഡയറക്
ജീവനെടുത്തത്
അരുത്
ഭക്തജന
##കളിലേക്കു
വലിച്ചെറിയ
ഏർപ്പെട
സ്ഥാപ
തിലോത്തമന്
ആശ്രമം
കിണര്
##ുന്നതോടൊപ്പം
ജംഗ്
തകരുന്നു
പൊതുജനങ്ങൾക്ക
വാദിക്കുന്ന
കരിപ്പൂരിൽ
##ക്കുകൂടി
ചേർന്നാണ്
ട്രാക്
പദ്ധതികൾക്ക്
ടാബ്
##ത്തിലെത്തിയ
തെമ്മാടി
സിആർപിഎഫ്
ഗുണനിലവാരം
ജംഷഡ്പൂര
മാറിക്കൊണ്ട
ആഖ്യാന
പ്രൊഡക്ഷന്
പുരസ്ക്കാരം
പുണെ
നിലയ്ക്ക്
എളുപ്പവഴി
ഓടുന്നത്
വിനു
##സമ്മ
വളർത്താൻ
രാജിവയ്ക്കണം
വിളിച്ചപ്പോഴു
നൂല്
രോഗാവസ്ഥ
##മികവ
സർക്കാരിനെതിരെ
അഴിക്ക
റീന
##പ്രഭു
ശിപ്പിച്ച
സമൃദ്ധമായ
നഗരത്തില
രംഗത്തെത്തിയത്
അതിനിടയ
വിട്ടയച്ചു
ത്തീകരണ
മാഞ്ഞു
റാണ
അക്രമത്തില്
സീറ്റുകളില്
പുസ്തകത്തിന്റെ
പുതുവർഷ
പോസ്റ്റുമോ
ഗംഗാധര
പര്യാപ്ത
പുറത്തായത്
ഹൈഡ്രോ
ശങ്കുണ്ണി
ഫിനിഷ
സലീം
ടൂറ
യുവന്റസ
ഗ്രാൻഡ്
##പ്പറമ്പില
അങ്കാറ
പരിഹരിക്കണമെന്ന
##രിക്കുളം
പ്രഗ്യാ
നടപടിവേണം
മുകുന്ദന്
കുഞ്ഞമ്മ
കേന്ദ്രമാക്കി
വെളിച്ചവും
ഉപയോഗങ്ങളും
ചങ്ങല
പരിഹാരമായി
ജനപ്രതിനിധികളെ
കയറാൻ
കയ്യേറ്റ
വന്നാലും
വിജയമെന്ന
നാനോ
ചുക്ക
ഓണത്തെ
ഇളവുകൾ
സീസ
രജിത
കോരി
##ചുവട
ഒടുകൂര
ജനകീയാസൂത്രണ
സാബുമോൻ
ഭരണപക്ഷം
അന്തർദേശീയ
യഥാക്രമം
മണിക്കൂറിനകം
പാച്ചല്ലൂ
അരലക്ഷം
വാഗ്ദാനങ്ങള
കാത്തുനില്
##വിപ്ലവ
വരാന്തയ
##നേഷ്യ
ക്രമത്തില്
ടൈഗ
##ിനോട
പഴയകാല
വിളക്കുകള്
ബോട്ടു
ടവറ
ഡവലപ്
ദിവസത്തിലേക്ക്
ഇന്ത്യക്കാരൻ
മിലാന
അടിസ്ഥാനപരമായ
ഓടിക്കയറ
തെല്ല
##വാത്സല്യ
അൻപത
വ്യക്തമാണ്
തെരുവ
ഉപഭോഗം
എംഐ
ചട്ടങ്ങള
##മറിയിച്ച
തലച്ചോറിന്
ഇഷ്ടമായി
##പ്പൂക്കള
തയാറായി
ആരാധിക
സനാതന
അദ്വൈത
ഓഡിറ്റോറിയത്തില
കൊയമ്പത്തൂ
ഗഡ്കരി
ഫീനിക്സ്
മന്മോഹൻ
മിസോറാം
ശിക്ഷാർഹമാണ്
തയ്യാറെടുപ്പുകള
ശ്വാസംമുട്ടിച്ച
കിവീസ്
അഴിച്ചുപണി
വണ്ടര്
ഒഴിച്ച
ചെറുകുന്ന്
തോൽപ്പിക്ക
കാരണമാകുന്നു
കല്ലെറിയ
ചാന്ദ്ര
ടിഎസ്
ഫോറൻസിക്
അഭിപ്രായത്തിനും
ദഹിക്ക
അമ്മച്ചി
##ക്കോടതി
സത്യമാണ്
മൃദുല
താരമാവുമ്പോ
പുസ്തകത്തിൽ
തുടങ്ങുക
ബസിടിച്ച
പ്രതികരിക്കാന
##ദർശി
##വാഹന
##താകും
##തീരത്ത്
പ്രസക്തമായ
ഒപ്പമി
കാണപ്പെടുന്നു
ണറെ
റാസ
നിർദ്ദേശങ്ങള
തടവിൽ
അവരോടു
അതോറിറ്റിയുടെ
അഞ്ചര
ബഹിരാകാശത്ത്
സാധ്യതയില്ല
ജലാശയത്തിന്
വിഹിത
ഇഷ്ടപ്പെട്ടു
##യാക്കിയത്
ചേതനയറ്റ
തെരുവുനായശല്യം
പൂടംകല്ല
ഫാറൂഖ്
വർദ്ധിപ്പിച്ച
ഷൈലജ
ജിസ്മോന
വിഖ്യാത
ഫോർട്ട്കൊച്ചി
അമീർ
നുറുക്കി
ആരംഭിക്കാന
സെൽഫിയെടുക്ക
നടപ്പാക്കി
പണവുമായി
നീണ്ടുനിന്ന
പ്രസിദ
ഓറിയന്
##കളിലുള്ള
##ജാഗ്രത
##യാക്കാൻ
സിനിമകളുടെ
ബാർട്ട
പരീക്ഷണങ്ങൾ
കൊയ്ത്തു
ലാഭകരമ
കാണിക്കുന്നു
കക്കാട്ട
ക്ഷമിക്കണം
സൂസന്
ഹെയര്
##ുപയോഗിക്കുന്ന
##ിരിക്കുകയാണെന്ന
റഷീദ
അച്ചന്
##തിനെത്തുടര്
ഉദ്യോഗാർത്ഥികൾ
പ്രശ്നങ്ങളെ
നായകള്
മർദ്ദനം
കൂട്ടങ്ങൾ
വാങ്ങിയപ്പോഴ
കളിക്കുന്നത്
ഉരുക്കു
നദികളില
ഇൻഡോ
ട്ടിനെ
നഗരങ്ങളിൽ
സുഹൃത്തിന്റെ
അല്ലെങ്കിലും
ബാധിച്ചില്ല
ലെറ്റർ
അതിരൂക്ഷ
അഭ്യർത്ഥിച്ച
അലമുറയിട്ട
കറുത്തവർഗക്കാരന
തെണ്ടുല്
പത്തൊമ്പത
പേപ്പട്ടി
വേങ്ങര
ഗുരുകുലത്തില
പൊളിയുന്നു
ഉത്സാഹ
കുപ്പിവെള്ളം
അഗ്നിശമനസേന
ഉപരിതല
മണപ്പുറത്ത്
കരീന
നിർമ്മ
പവാറ
##തീരുമാന
ഇരട്ടിയായി
തട്ടിക്കൊണ്ട്
##വൃക്ഷ
ബിരുദദാനം
കരുണാകരന്റെ
തീരുമാനമായി
കാലതാമസ
മുഖച്
നിയമലംഘന
ആരക്കുന്ന
സമരത്തിന്റെ
പോസ്റ്റിലെ
പോഷണ
സൈന്യത്തില
വച്ചിരിക്കുന്ന
ആരാധകർക്ക
ത്ഥിക്കുന്നു
ഉടമകള
മറ്റേത
നിലപാടുകൾ
##ച്ചിരി
തന്ത്രങ്ങളും
ഓർമയുള്ള
ഖനി
ഫേസ്ബുക്
വിരമിക്കല
ശത്രുവ
അനുഭവിച്ചു
ഇപ്പൊഴേ
സ്ഥിതിഗതികൾ
ആശ്ചര്യ
തലമുക്കി
അനുഭാവി
ഏഴംകുള
റൂറല
കൈയടിച്ച
##ികമായി
ക്രിപ്ഷന്
വാതിലുകള
സെഡ്
ഭാശയ
സംസ്കരിക്ക
നൂറ്റാണ്ടുകള
കട്ടപ്പുറത്ത്
ഉണ്ടാക്കമെന്ന
ആപ്റ്റ
വിവസ്ത്രയായ
മന്ദിരത്തില
കാരികവേദി
പ്രതിഷ്ഠയും
##ഭക്തി
സൈന്യത്തിലെ
ദയാ
##കളുമായ
ഉപതിരഞ്ഞെടുപ്പ
പാനീയ
കുണ്ടി
മൂന്നാമത
മുന്നിലാണ്
##ഞാൻ
##ാവുന്നതെങ്ങനെ
സ്ത്രീവിരുദ്ധത
അപകടമുണ്ടായ
വിലാപ
ഉണ
അശാസ്ത്രീയ
കോട്ടാങ്ങ
നേരിടുന്നത്
സിംഗിന്റെ
നക്കി
നിയന്ത്രണങ്ങള്
വിടുന്നു
ബിംബ
നാശത്തിന്റെ
ഹാജരാകാൻ
വൈകിയത
സംഘമാണ്
##ന്താനം
വർഷത്തേക്ക
ഷാഹീ
അവശേഷിയ്ക്കുന്ന
പഞ്ചാരവാക്ക
പൈവളിഗെ
കുറ്റസമ്മതം
ഘടിപ്പിച്ച
പ്രയത്ന
കുന്നതിന്
കൊലപ്പെടുത്താൻ
എന്നുള്ളത്
ഈഡൻ
##ക്കരിച്ച
സംസാരിച്ചത്
പാനൂര
ട്ടറില്
##നിൽകുന്ന
##സാഫല്യ
അലോട്ട്
പരീക്ഷാഫലം
പാസ്പോ
##േണമേ
മഞ്ഞുമല
നിർണ്ണായകം
മഹത്
പൗരത്വബില്ല
##കളാണെന്ന
പഠനകേന്ദ്രം
ഹാജരാകണം
കമ്മിറ്റിയോഗം
ശതമാനമായി
വെറുക്കുന്ന
കണിക
വഹിച്ചത്
സ്ത്രീകളിൽ
അച
മറ്റൊരാളുടെ
പിടിച്ചിട്ട
ദുരന്തചിത്ര
##ത്തിനൊടുവില്
##ാന്വേഷണ
മനസ്സിലാക്കാം
##വസിച്ച
വിധവും
പറന്നെത്തി
നിലന്പൂര
ശ്രീകുമാറിന്
വളർത്തി
കെട്ടിടോദ്ഘാടന
ജർമനി
കസ്റ്റഡിയില
സർക്കാറിന്റെ
##ില്ലായ്മ
പ്രോസിക്യൂട്ടറ
പെരുന്നാൾ
ബെള്ളൂര്
റമദാന്
യുവേഫ
വാഗണ്
അനുഷ്ഠിക്ക
സന്തോഷിച്ച
കാപ്പിപ്പൊടി
മഞ്ചാടി
ഗോപകുമാ
ഷകദിനാചരണം
പ്ലാസ്റ്റിക്കിന
കല്പന
ഗീയതക്കെതിരെ
മാധവന്റെ
##നിതിൻ
അമലാ
ഗുജറാത്ത
തിരൂര്
എങ്ങോട്ട
ബാത്ത്
മൃദു
ട്രസ്റ്റ
ക്യൂട്ട്
അലമാര
##ച്ചിലിലൂടെ
കോൺഗ്രസിന്റെ
##സ്തുതി
ഷഹീൻബാഗ
വിത്തുകള്
##ശില
മാത്രമാണോ
ജീവിയെന്ന
##ക്കെതിര
നിറുത്തി
പാതയിലെ
ഇതായിരുന്നു
ചെയ്യുവാൻ
##അബ്ദുള്ളക്കുട്ടി
പീഡിപ്പിക്കാന
രാധാകൃഷ്ണനെ
മസ്തിഷ്ക
ഇസ്താംബുൾ
ഉപരാഷ്ട്രപതി
കൺവീനർ
ഗോമൂത്ര
നിറപ്പകിട്ട
സോവിയറ്റ്
രാജസ്ഥാൻ
ഡിസ്പ്ലേ
ഡിസ്പ
കുറ്റിപ്പുറം
കന്പോളങ്ങ
ടീസറ
അപരിചിത
കാരക്കോണം
കുറയ്ക്കുന്നതിന
അഭിഭാഷകനെ
സജീവമാക്ക
##പറമ്പ്
കുടുങ്ങ
നിപ്പ
പൊതിഞ്ഞു
പോസ്റ്റുകൾ
##രിഞ്ഞു
ഗ്രാമത്തില്
യോഹ
അശുദ്ധ
ആഭ്യന്തരവകുപ്പ
ലീഗുകാര
കിണറുകള
ഇടിഞ്ഞ
സംസാരിക്കാൻ
##ശീര്
##ധാരി
മത്സരങ്ങളിൽ
##ഘോഷയാത്ര
പ്രശാന്ത
##ൊടുവില്
അനീഷ
പ്രതിഭാസ
ദൂതന
എബിവിപി
എസ്എൻഡിപി
വിന്യസിച്ച
അരീക്കോട്
ശക്തമാക്കുന്നു
തിരുവാഭരണ
കൈക്കലാക്കിയ
മാനിക്കുന്ന
ഇതിനോടൊപ്പം
##ഹുഡ്
ടെക്നോളജിക്കൽ
കിട്ടിയെന്ന
മിൽമ
പിറക്ക
നെറ്റില്
കുറ്റവാളികള്
##സാരഥി
##എൽബി
കണ്ടിട്ട്
ഉരുണ്ടു
കൈയ്യടി
പ്രളയാനന്തര
പൂക്കുന്ന
##ണാള
തോതിൽ
സംവിധാനത്തില്
മിന്നല
##നുമായുള്ള
മൂന്നാറിൽ
അധ്യക്ഷതയില്
തൃശ്ശൂരിൽ
##കളിലേ
ശാസ്ത്രിയ
തേടിയെത്തിയത്
എന്നിവിടങ്ങളിലെ
പുല്ലാട്
എൺപത
ഫാറത്തിലേ
നിള
അംഗീകരിക്കാതെ
ഇറാന്റെ
പോലീസുകാരനെ
സംഘാടകർ
സജീവമാകുന്നു
നഗരങ്ങളുടെ
ചോദിച്ചാൽ
ഒന്നടങ്കം
ഡിപ്പാർട്ട്മെന്
നിയന്ത്രിത
സംരക്ഷിത
ചുട്ടെരിച്ച
ഒമേഗ
വ്യാപ്തി
നാല്പതു
പ്രസവാവധി
ടോക്കിയോ
പൊളിച്ചടുക്കി
സപ്പോര്
മൈതാനിയില്
ജലവിതരണം
ഒളിച്ചോടിയ
ഗോഡൗണില
സർക്കാരുകൾ
പ്രവൃത്തികള്
തിരിച്ചുകിട്ടിയ
മൂക
പഠനങ്ങള്
പുറത്തുവരുന്ന
ഹൗഡി
പ്രസംഗിച്ച
പറയപ്പെടുന്നു
അമ്മയോട്
ജീവനുകൾ
ഇവിടെയുണ്ട്
ഡയറ്റ
അലമ്പ്
##ധൂര്
ആവശ്യക്കാര
അടയ
##പുരാണ
##കൃഷ്ട
ബാധിക്കുന്നത്
വിസ്താരം
ഷനുകള്
താണ്ടി
നായകാ
സമുദായത്തിന്
അങ്ങനെയുള്ള
പ്രണയത്തിന്
##ണഞ്ഞ
##നെതിരേ
ഗ്രന്ഥശാലാസംഘ
നേരിടാനുള്ള
നിറയുന്നത
കമന്റുകളും
##പ്രകാരമുള്ള
മാതൃഭാഷാ
കാരന്റെ
മോഷ്ടാക്കള
സംസാരിക്കുന്നത്
മോഡലായ
ചർച്ചകൾക്ക്
##ലിയാട്
ഇലകള
ആളില്ല
ശീത
ബജറ്റിലെ
##സ്വരൂപാനന്ദപുരി
ചരടുപിന്നിക്കളി
ചുടുകാട്
ബിലാത്തിപട്ടണം
ഷുഹൈബ്
സാവധാന
ബ്രോഷർ
മാറ്റിയെടുക്കണ
##വതിരിപ്പിക്കുന്ന
മൗദൂദി
##ങ്ങളായിരുന്നു
മാതൃകാപരം
അമ്പലത്തറ
വേർപാട
കിഷോര
മഹാഭാരതം
##തുമില്ല
ബന്ധത്തിൽ
പ്രസ്സ്
ക്രിസ്ത്യാനികള
അബുവിന്റെ
##യാണെന്നാണ്
കരകയറ
അനുവദിക്കുക
##ത്തിളക്ക
##ശുദ്ധി
സംഗീതോത്സവം
പറയുന്നതു
റഹ്മാന്റ
കരളിനെ
പ്രശ്നമാണ്
ഘന
##ലൈസ
ബാധകം
പോറ്റി
പരിശോധനയ്ക്കായി
ഫോണില
ലംഘിക്കുന്ന
നഗരത്തെ
മോതിരം
പാലായിൽ
മോഹങ്ങള
അളക്ക
വയലിന
##ുമ്ബോള
അഞ്ചുവര്
ജേഴ്
ഡിനെതിരെ
ഗുരുകൃപ
തസ്ലീമ
മധുസൂദനൻ
രൗദ്ര
കണ്ണുനീർ
നെൽകൃഷി
വൈറോളജി
##ബിലിറ്റി
അന്തംവിട്ട
സ്റ്റബിള
നേടുകയും
ഉചിതമായ
അനുവാദമില്ലാതെ
കിഷോറ
ബോളിൽ
##വലിയ
മാനസികരോഗ
##ക്കടവിൽ
കോഴിക്കോട്ടു
പ്രദ
കോടിരൂപ
മരണക്കേസ
##ട്രീ
ശൈഖ
ഇസ്രയേല
പ്രധ
##തിനിടയിലാണ്
പ്രതികരണങ്ങൾ
ലഭിക്കാനുള്ള
പിളർന്നു
ജാന
പുഴകളില
പരിമിതികള
##ിയ്ക്കുക
##സാഗരമ
വിദേശികൾക്ക
##രാണെന്ന
##നിശ്ചയിക്കാൻ
##മാകട്ടെ
വായിയ്ക്ക
പരിശോധിക്കാം
##്രൂവ
സ്ഥാപനത്തിൽ
##ക്കുന്നതിനു
ഉന്നതര
##ത്തിനിരയായ
ജുഡീഷ്യറി
ബാണാസുര
മാംസഭുക്കുകള
മൻമോഹൻ
സീതാംഗോളി
പൊതുയോഗവും
ഏതറ്റം
പക്വത
ഗോളുമായി
സ്വത്തുക്കള
ബസപകട
പെരുകുന്നു
##കളെപ്പറ്റി
നാഷന
ഉച്ചയോടെ
സ്വാഭാവികമായും
##യിലെത്തിച്ചു
അക്രമത്തിന്റെ
പരക്കെ
നഷ്ടമാകും
ആശ്വസിപ്പിച്ച
സ്മാർട്ട്ഫോണുകൾ
ടോബ
നടക്കുന്നുണ്ട്
ദാവീദി
ഹോട്ടലുകള്
##ത്തന്ന
ശിപാ
##പ്രതിഭ
പരോക്ഷ
രക്തത്തിന്റെ
##പ്പെണ്ണ
രാജ്യദ്രോഹക്കേസ
വിദഗ്ധരുടെ
എന്തിനായിരുന്നു
##ദൃശ്യങ്ങള
നൽകാനുള്ള
##ൂഷൻ
ബന്ധുവിന
ഗ്രൂപ്പില്
ആളുകളും
വിലയിരുത്തിയ
കരസ്ഥമാക്കിയ
ഇവാന്
പകർത്തുന്ന
കൊല്ലപ്പെട
സൗകര്യങ്ങളും
എൻജിനീ
##നാപ്
തുടുത്ത
വീര്യത്ത
##ഷിപ്പ്
വിനിയോഗ
പുരുഷന്മാരുടെ
എളേറ്റിൽ
കമ്പോസ്റ്റ്
നിമിത്തം
പരിപാവന
പാണാവളളി
സഹായഹസ്തവുമായി
രാജധാനി
പലായനം
##കാരണവശാലും
പ്ലാറ്റിന
ആത്മായന
സൂത്രധാരന
ബ്രിട്ടിഷ്
വഴിയോരക്കച്ചവട
സപ്ലിമെന്
ആൺകുട്ടി
ഹതയില്ലാത്ത
ആശയക്കുഴപ്പം
വീരപ്പ
മാറ്റണമെന്ന
##ക്കറിയാം
കാറുകള
##ലംഘന
##ാകമാനം
##യാക്കാന്
##സ്ഥാപിച്ചു
##ദൃശ്യ
നോട്ടത്തില്
കോഴികളെ
ഐടിഐ
കഴിയണം
നടപ്പിലാക്കുക
വിവരവും
മലരിക്ക
സറിനെ
ആളെന്നും
ക്രയി
##വാക്കുകൾ
അഡ്വാന്
എഴുത്തുകാരൻ
ലിംകള്
##ൂന്ന
ഏജൻസികൾ
അഹമ്മദാബാദിലെ
തളയ്
##കളുമുണ്ട്
ഗണേശവിഗ്രഹ
ഗനൈസേഷന്
പൊട്ടാസ്യം
വാരിപുണർന്ന
കല്ലിങ്കലിന
തേരോട്ടം
##ശുദ്ധ
ദാറുല
വെളിവായത്
പ്രിയതമ
ശതമാനത്തിലേറെ
സാമ്രാജ്യം
ഇറാനിലേക്കുള്ള
കന്യാസ്ത്രീയുടെ
ഭീകരാക്രമണത്തിന
##ക്കുമിടയില്
നവകേരള
നാമനിര്
##ശബ്ദ
പിടിപ്പിച്ച
വേണ്ടയോ
ചിറിക്ക
##താണെന്നു
അങ്ങനെയൊരു
അക്കൗണ്ടിലേക്ക്
##പ്രേമ
##േണ്ടിവന്നു
ഇരിയ
വീക്ഷിക്കുന്നു
##യിലേത്
തവണയാണ്
മിനിറ്റിന്
അഴുക്കുചാലില്
കൈമാറ്റ
ദേവാ
വാഹനമോടിക്കുന്ന
രക്ഷപെട്ടത്
രക്ഷാകര
ബീഹാറിൽ
മാനഭംഗപ്പെടുത്ത
മന്ത്രവാദ
ഗ്രേസ്
ശരിയാണോ
സാമ്പ
പലവിധ
നൽകൂ
##പ്ലേ
വന്നിട്ടില്ല
ബുക്സ്
സദാനന്ദ
ക്കേഴ്
അർജന്റീന
ഗൂഡല്ലൂർ
ഡസ്ട്രീസ്
മുടികൊഴിച്ചി
വെന്തുമരിച്ചു
സുധീരൻ
ഇറങ്ങിപോയത്
കഷണ്ടി
പ്രൂഫ്
ഫെലോഷിപ്പ്
തിരച്ചിൽ
ദിശാബോധ
ശങ്കറ
വയറിംങ്
സിംഹാസന
ഗിൽഡ്
നസ്രാണി
ജൂവാന
പ്രതിസന്ധികള്
ബാലൻസ്
പശ
പഴനിക്ക
ശിവരാജ
ദേശീയപാതയിലെ
##ിരിക്കട്ടെ
പാണ്ട
വെരി
തളിക്കുന്ന
അമിത്ഷായുടെ
##താണല്ലോ
സുഹൃത്തുക്കളെ
വസതിയിലേക്ക്
പ്രകടനമാണ്
ത്തിക്കുക
മന്ത്രിസ്ഥാനം
ബ്ലഡ്
സഹകരിക്കാത്തതിന
##പരവുമായ
പറിച്ചു
ടാക്സ്
കമ്മിഷനെ
തടിച്ച
ആടുകളെ
സൗരോർജ
വലുതാണ്
ഓണമാഘോഷിച്ച
പാട്ടുകൾ
കാന്തി
അല്ലാഹുവിന്
ഉണ്ടാവില്ല
##ിലെത്തിയത്
ആശി
നെഞ്ചില
ചൂടുള്ള
കുടിവെള്ളമില്ല
ദുരുദ്ദേശ
കാത്തുസൂക്ഷിക്ക
ബുർഖ
റുമാനിയ
തീരാത്ത
എംഎസ്എഫ്
ഫൊറന
നോട്ടമിട്ട
##റീന
മാലക്കല്ല
വെണ്ടയ്ക്ക
പൊരുത്ത
ആലോചിച്ചു
ഹെഡ്ഡിങ്
ഐആര്
##ഇന്ത്യ
ജയരാജന്റെ
റീജിയന്
ഭച്
ചുള്ളി
##വല്ലോ
##നേജ
മുറ്റത്ത
അഗര്
വഴികളിലൂടെ
##െടുക്കാന
കാഴ്ചവെച്ച
പരിപാടികളുടെ
രോഗങ്ങൾക്കു
ശ്രീറാമിന്
ഏറ്റെടുക്കാന്
തണുത്തുറഞ്ഞ
നിലംപൊത്തി
ഏകാന്തവാസ
കോേളജ
മുജീബ
നടേശൻ
എനർജി
മുല്ലപ്പെരിയാ
കത്തുനല്
ശുക്ല
എഴുന്നേറ്റു
അസമിലേക്ക
ജാദവ
തിരിച്ചുവിളിച്ച
െഎ
സമ്പാദ്യ
പൊലിയുമ്പോ
പ്രാധാന്യമ
അളന്ന
സർവകലാശാലയിലെ
മുരിങ്ങയില
ഇഎം
ജയരാജ്
അതിഥികളായി
നിർബന്ധിച്ച
മുനമ്പ
##ാശ്രയ
മാരില്
ചർച്ചയ്ക്ക്
ജുമാ
അശാസ്ത്രീയമായ
സ്തോത്ര
മൊബൈലില്
എല്ലിന്റെ
##പൂർണ
സന്യാസ
കലാശ
കുടുബ
അട്ടിമറിച്ചെന്ന
വിവാദമായതോടെ
മൈലേജ
നടത്താതെ
നഗരസഭയ്ക്ക
റീഡ
കുളങ്ങര
ലക്ഷത്തില
സമ്മാനിച്ചത്
പ്രദീപ
രൂപയുമാണ്
##കേന്ദ്രത്തിന്റെ
എരുമേലി
ഭൂവുടമ
ഇതുസംബന്ധിച്ച
##ൊരാൾ
ജേർണലിസ
പെറുക്കി
മരത്തിലിടിച്ച
പീരീഡ
തപാൽ
തുഷാറ
പന്തുകളിക്കാര
മാരകമായ
ചെയർമാന്റെ
കഴിച്ചുവോ
##യിലാണെന്ന
ദുഷ്ട
ബലിയര്
ഓരോരുത്തരും
ത്താവിനൊപ്പ
ജ്ജുന
മാറോട
##നൊപ്പമ
കാരണമായത്
സ്റ്റേഷനിലേക്ക്
ട്രീ
മിണ്ടാതെ
കവരുന്ന
നനവ
അട്ടപ്പാടിയിലെ
പിഞ്ചുകുഞ്ഞിനെ
കണ്ടെത്താനുള്ള
എതിർപ്പുമായി
പരിമിതപ്പെടുത്ത
ക്കുലറ
കശ്മീരിന്
മിറ്റിന്
##സുന്ദര
അപകടത്തിൽപെട്ട
##ത്തിെൻറ
ബോണ്ട
വാഴുക
അധ്യാപകന്റെ
ബഹറിന
ലോറ
റേറ്റ്
ലഭിച്ചിരുന്നു
ആശങ്കാജനകം
തല്ലിച്ചതച്ച
മിനിസ്ട്രി
ബൈക്കുമായി
ആലിക്കുട്ടി
ഗ്രീക്ക്
കുടുംബാംഗങ്ങൾ
ബിബിസി
ക്രമീകരിച്ച
വിദ്യാരംഗം
ദിവ്യബലി
ധാരാളമുള്ള
ഇനിമുതല
ഫാറ്റി
സ്പോണ്
##സിദ്ധാന്ത
റോഡിലേക്ക
ക്ഷാമ
മുകളിലാണ്
##കടത്തുകയായിരുന്ന
അനുകൂലികള
##കൊല
എൽജി
പണമില്ല
അകന്നു
കരിവേ
വെട്ടിച്ച
അയക്കുന്ന
കിട്ടിയാല്
വിമാനത്തിന്റെ
രൂപകല്
പോകുവി
രംഗത്തുവന്ന
സമൂഹങ്ങള
പണിയാകുമ
സരത്തില്
കോറി
ആയുധങ്ങളും
മുന്നോടിയായ
തണ്ണീര്
സാവിത്രി
ഹിന്ദുഐക്യവേദി
കളിക്കാത്തവര
മുട്ടുമടക്ക
മുറുകെ
നവതിയാഘോഷ
ചൈല്
സമ്മതപത്രം
അടുക്കളയിൽ
സുന്ദരനായ
നീലകണ്ഠ
എപ്പോഴാണ്
##ുങ്കൽ
മെംബ
##ിരുന്നുവെന്നും
പാറക്കടവ്
##മാണുള്ളത്
ബിവറേജസ
അംഗപരിമിതര
സെറ്റിൽ
##ണമെന്നാവശ്യ
അറിഞ്ഞില്ല
കൊക്കയിലേക്ക്
ട്രോളുകള
ചിത്രത്തിനു
പീഡനമെന്ന
തിരിക്കും
മോഷന
മുഴക്കിയ
നടപ്പു
മിഷനറി
തുടരുന്നത്
ലക്ഷ്യമെന്ന്
അഹമ്മദാബാദ
##മാണെങ്കില്
വഹണ
പിഎച്ച്
ഥത്തില്
നടപടികളില്
ലിഗ
##റുമായ
ബേക്കല്
ഒഴിവുകളിലേക്ക
സമാധിയ
അഭിലാഷിന്റെ
ബസ്സില്ല
പ്ലാനാണെന്ന
ആത്മീയത
ഉപയോഗിക്കാവുന്ന
പൊലീസുകാരന
സ്റ്റീല
പണ്ടേ
നെല്ലിയാമ്പതി
അന്തോനീസിന്
ആപ്ലിക്കേഷൻ
കടംവീട്ടല
ചുമരിലൊട്ടി
പാഠമാവട്ടെ
ബൗണ്ടറി
വാട്ട്സ്ആപ്പ
വുഹാന്
സുമനസ്സുകളുടെ
അദ്ധ്യാപന
യജമാന
ഷെരീഫ
ചിത്രമെടുത്ത്
അഭിനേതാക്കള
നെത
ധാരണയായെന്ന
ദേവികുളം
പിന്മാറിയ
പാതിരി
ഉയരെ
മണിക്കൂറോളം
മാത്രമായിരിക്ക
പാചകത്തൊഴിലാളിക
ലമെന്ററി
കമ്മീഷനെ
പ്രളയകാലത്ത
എന്നുള്ളതാണ്
ബെംഗളൂരുവിൽ
ഇടയാക്ക
കഴിയുമ്പോള
കറ്റ
മനാമ
പൊളിഞ്ഞു
ഉലുവ
എക്സ്പ
കാലിക
##ന്യായവില
ഓഹരിവില
ഒഴിപ്പിച്ചു
[...]
